{
  "version": "1.0",
  "truncation": null,
  "padding": null,
  "added_tokens": [
    {
      "id": 0,
      "content": "<s>",
      "single_word": false,
      "lstrip": false,
      "rstrip": false,
      "normalized": false,
      "special": true
    },
    {
      "id": 1,
      "content": "<pad>",
      "single_word": false,
      "lstrip": false,
      "rstrip": false,
      "normalized": false,
      "special": true
    },
    {
      "id": 2,
      "content": "</s>",
      "single_word": false,
      "lstrip": false,
      "rstrip": false,
      "normalized": false,
      "special": true
    },
    {
      "id": 3,
      "content": "<unk>",
      "single_word": false,
      "lstrip": false,
      "rstrip": false,
      "normalized": false,
      "special": true
    },
    {
      "id": 4,
      "content": "<mask>",
      "single_word": false,
      "lstrip": false,
      "rstrip": false,
      "normalized": false,
      "special": true
    }
  ],
  "normalizer": null,
  "pre_tokenizer": {
    "type": "ByteLevel",
    "add_prefix_space": false,
    "trim_offsets": true,
    "use_regex": true
  },
  "post_processor": {
    "type": "ByteLevel",
    "add_prefix_space": true,
    "trim_offsets": false,
    "use_regex": true
  },
  "decoder": {
    "type": "ByteLevel",
    "add_prefix_space": true,
    "trim_offsets": true,
    "use_regex": true
  },
  "model": {
    "type": "BPE",
    "dropout": null,
    "unk_token": null,
    "continuing_subword_prefix": null,
    "end_of_word_suffix": null,
    "fuse_unk": false,
    "vocab": {
      "<s>": 0,
      "<pad>": 1,
      "</s>": 2,
      "<unk>": 3,
      "<mask>": 4,
      "!": 5,
      "\"": 6,
      "#": 7,
      "$": 8,
      "%": 9,
      "&": 10,
      "'": 11,
      "(": 12,
      ")": 13,
      "*": 14,
      "+": 15,
      ",": 16,
      "-": 17,
      ".": 18,
      "/": 19,
      "0": 20,
      "1": 21,
      "2": 22,
      "3": 23,
      "4": 24,
      "5": 25,
      "6": 26,
      "7": 27,
      "8": 28,
      "9": 29,
      ":": 30,
      ";": 31,
      "<": 32,
      "=": 33,
      ">": 34,
      "?": 35,
      "@": 36,
      "A": 37,
      "B": 38,
      "C": 39,
      "D": 40,
      "E": 41,
      "F": 42,
      "G": 43,
      "H": 44,
      "I": 45,
      "J": 46,
      "K": 47,
      "L": 48,
      "M": 49,
      "N": 50,
      "O": 51,
      "P": 52,
      "Q": 53,
      "R": 54,
      "S": 55,
      "T": 56,
      "U": 57,
      "V": 58,
      "W": 59,
      "X": 60,
      "Y": 61,
      "Z": 62,
      "[": 63,
      "\\": 64,
      "]": 65,
      "^": 66,
      "_": 67,
      "`": 68,
      "a": 69,
      "b": 70,
      "c": 71,
      "d": 72,
      "e": 73,
      "f": 74,
      "g": 75,
      "h": 76,
      "i": 77,
      "j": 78,
      "k": 79,
      "l": 80,
      "m": 81,
      "n": 82,
      "o": 83,
      "p": 84,
      "q": 85,
      "r": 86,
      "s": 87,
      "t": 88,
      "u": 89,
      "v": 90,
      "w": 91,
      "x": 92,
      "y": 93,
      "z": 94,
      "{": 95,
      "|": 96,
      "}": 97,
      "~": 98,
      "¡": 99,
      "¢": 100,
      "£": 101,
      "¤": 102,
      "¥": 103,
      "¦": 104,
      "§": 105,
      "¨": 106,
      "©": 107,
      "ª": 108,
      "«": 109,
      "¬": 110,
      "®": 111,
      "¯": 112,
      "°": 113,
      "±": 114,
      "²": 115,
      "³": 116,
      "´": 117,
      "µ": 118,
      "¶": 119,
      "·": 120,
      "¸": 121,
      "¹": 122,
      "º": 123,
      "»": 124,
      "¼": 125,
      "½": 126,
      "¾": 127,
      "¿": 128,
      "À": 129,
      "Á": 130,
      "Â": 131,
      "Ã": 132,
      "Ä": 133,
      "Å": 134,
      "Æ": 135,
      "Ç": 136,
      "È": 137,
      "É": 138,
      "Ê": 139,
      "Ë": 140,
      "Ì": 141,
      "Í": 142,
      "Î": 143,
      "Ï": 144,
      "Ð": 145,
      "Ñ": 146,
      "Ò": 147,
      "Ó": 148,
      "Ô": 149,
      "Õ": 150,
      "Ö": 151,
      "×": 152,
      "Ø": 153,
      "Ù": 154,
      "Ú": 155,
      "Û": 156,
      "Ü": 157,
      "Ý": 158,
      "Þ": 159,
      "ß": 160,
      "à": 161,
      "á": 162,
      "â": 163,
      "ã": 164,
      "ä": 165,
      "å": 166,
      "æ": 167,
      "ç": 168,
      "è": 169,
      "é": 170,
      "ê": 171,
      "ë": 172,
      "ì": 173,
      "í": 174,
      "î": 175,
      "ï": 176,
      "ð": 177,
      "ñ": 178,
      "ò": 179,
      "ó": 180,
      "ô": 181,
      "õ": 182,
      "ö": 183,
      "÷": 184,
      "ø": 185,
      "ù": 186,
      "ú": 187,
      "û": 188,
      "ü": 189,
      "ý": 190,
      "þ": 191,
      "ÿ": 192,
      "Ā": 193,
      "ā": 194,
      "Ă": 195,
      "ă": 196,
      "Ą": 197,
      "ą": 198,
      "Ć": 199,
      "ć": 200,
      "Ĉ": 201,
      "ĉ": 202,
      "Ċ": 203,
      "ċ": 204,
      "Č": 205,
      "č": 206,
      "Ď": 207,
      "ď": 208,
      "Đ": 209,
      "đ": 210,
      "Ē": 211,
      "ē": 212,
      "Ĕ": 213,
      "ĕ": 214,
      "Ė": 215,
      "ė": 216,
      "Ę": 217,
      "ę": 218,
      "Ě": 219,
      "ě": 220,
      "Ĝ": 221,
      "ĝ": 222,
      "Ğ": 223,
      "ğ": 224,
      "Ġ": 225,
      "ġ": 226,
      "Ģ": 227,
      "ģ": 228,
      "Ĥ": 229,
      "ĥ": 230,
      "Ħ": 231,
      "ħ": 232,
      "Ĩ": 233,
      "ĩ": 234,
      "Ī": 235,
      "ī": 236,
      "Ĭ": 237,
      "ĭ": 238,
      "Į": 239,
      "į": 240,
      "İ": 241,
      "ı": 242,
      "Ĳ": 243,
      "ĳ": 244,
      "Ĵ": 245,
      "ĵ": 246,
      "Ķ": 247,
      "ķ": 248,
      "ĸ": 249,
      "Ĺ": 250,
      "ĺ": 251,
      "Ļ": 252,
      "ļ": 253,
      "Ľ": 254,
      "ľ": 255,
      "Ŀ": 256,
      "ŀ": 257,
      "Ł": 258,
      "ł": 259,
      "Ń": 260,
      "ĠÎ": 261,
      "Î±": 262,
      "ÏĦ": 263,
      "Î¿": 264,
      "Î¹": 265,
      "Î½": 266,
      "Îµ": 267,
      "Ïĥ": 268,
      "Ïģ": 269,
      "ÏĢ": 270,
      "ÏĤ": 271,
      "Î·": 272,
      "Ïħ": 273,
      "ĠÏĦ": 274,
      "Î»": 275,
      "Îº": 276,
      "Î¯": 277,
      "Î¼": 278,
      "ÏĮ": 279,
      "Î¬": 280,
      "Î¿Ïħ": 281,
      "ĠÏĢ": 282,
      "ĠÎº": 283,
      "Ïī": 284,
      "ĠÏĥ": 285,
      "ÎŃ": 286,
      "ĠÎ±": 287,
      "Î±Î¹": 288,
      "Î³": 289,
      "Î®": 290,
      "ĠÎµ": 291,
      "Ïĩ": 292,
      "ĠÎ¼": 293,
      "Î¹Îº": 294,
      "Ïį": 295,
      "ÎµÎ¹": 296,
      "Î´": 297,
      "ÏĨ": 298,
      "Î¹Î±": 299,
      "Î¸": 300,
      "ĠÏĦÎ·": 301,
      "ÏĦÎ±": 302,
      "Ïİ": 303,
      "ĠÎºÎ±Î¹": 304,
      "ĠÎ´": 305,
      "ÏģÎ¿": 306,
      "ÏĦÎ¿": 307,
      "ÏģÎ±": 308,
      "ÏĦÎ·": 309,
      "ÏĢÎ¿": 310,
      "ÏĦÎµ": 311,
      "ĠÏĦÎ¿Ïħ": 312,
      "ĠÏĦÎ¿": 313,
      "ÏīÎ½": 314,
      "ÏĥÎ·": 315,
      "ĠÎ½": 316,
      "Î¼Î±": 317,
      "Î¯Î±": 318,
      "ĠÎ¿": 319,
      "Î½Î±": 320,
      "ĠÎ³": 321,
      "ÏģÎ¹": 322,
      "ĠÎ¼Îµ": 323,
      "ĠÎ½Î±": 324,
      "Î²": 325,
      "ÏĦÎ¹Îº": 326,
      "Î½Î¿": 327,
      "ĠÎŃ": 328,
      "Î¼Îµ": 329,
      "Î¾": 330,
      "ĠÏĦÎ·ÏĤ": 331,
      "ĠÎºÎ±": 332,
      "Î¿Ïį": 333,
      "ĠÎ±ÏĢ": 334,
      "ÏĦÎ¹": 335,
      "ÎµÎ¯": 336,
      "ĠÏĦÎ·Î½": 337,
      "Î»Î»": 338,
      "ÎµÏĤ": 339,
      "Î¯Î½": 340,
      "ÏİÎ½": 341,
      "ĠÏĮ": 342,
      "Î¶": 343,
      "Î±Î½": 344,
      "Îĳ": 345,
      "ĠÎ¸": 346,
      "ĠÎ³Î¹Î±": 347,
      "ĠÏĢÎ¿Ïħ": 348,
      "ĠÎ±ÏĢÏĮ": 349,
      "ĠÏĩ": 350,
      "ĠÏĥÏħ": 351,
      "ĠÎ·": 352,
      "ĠÎĳ": 353,
      "Î»Î¿": 354,
      "ÏĦÎ¬": 355,
      "ÏģÎ¬": 356,
      "ÏĦÎ±Î¹": 357,
      "Î¹Ïĥ": 358,
      "ĠÎķ": 359,
      "ĠÎµÏĢ": 360,
      "ĠÏĢÏģÎ¿": 361,
      "ÎŃÏĤ": 362,
      "ĠÎł": 363,
      "ÎŁ": 364,
      "ÏģÎ¯": 365,
      "ÎµÎ½": 366,
      "Î®ÏĤ": 367,
      "Î¹Î¿": 368,
      "ÏģÏĮ": 369,
      "Î¿ÏħÎ½": 370,
      "ĠÏĥÏĦÎ¿": 371,
      "ĠÏĦÎ±": 372,
      "ÏģÎ³": 373,
      "Îķ": 374,
      "ÏĥÎµÎ¹": 375,
      "Î¿Î½": 376,
      "ĠÎ²": 377,
      "ĠÎļ": 378,
      "Î£": 379,
      "ĠÏĨ": 380,
      "ĠÏĢÎ±": 381,
      "Î¼ÎŃ": 382,
      "ĠÏĥÏĦÎ·": 383,
      "Î±ÏĤ": 384,
      "ĠÎ£": 385,
      "Î»Î·": 386,
      "ĠÏĥÎµ": 387,
      "ÏīÏĤ": 388,
      "ĠÏħ": 389,
      "ĠÎ±Î½": 390,
      "ÎĻ": 391,
      "Î¿Î»": 392,
      "ĠÎ»": 393,
      "Î¯Î½Î±Î¹": 394,
      "ĠÏĦÏīÎ½": 395,
      "ÏĦÏĮ": 396,
      "ĠÎ¤": 397,
      "ÏĦÎ®": 398,
      "Î¼Î¿": 399,
      "ÏģÎµ": 400,
      "Î½Î·": 401,
      "ÏĥÎµ": 402,
      "ĠÎľ": 403,
      "Î»Î±": 404,
      "ĠÎµÎ¯Î½Î±Î¹": 405,
      "Î¬Î½": 406,
      "Î»Îµ": 407,
      "Î¤": 408,
      "Î¿ÏħÏĤ": 409,
      "ĠÏĢÎµ": 410,
      "Ġ(": 411,
      "ĠÎ±Ïħ": 412,
      "ÎºÎµ": 413,
      "ÏĥÎ·ÏĤ": 414,
      "Î¯Î±ÏĤ": 415,
      "ÏĪ": 416,
      "ÎĹ": 417,
      "ĠÎ¬": 418,
      "ĠÎ¸Î±": 419,
      "ÏģÎ·": 420,
      "ĠÎĶ": 421,
      "ÏģÏī": 422,
      "ĠÏĦÎ¿ÏħÏĤ": 423,
      "ĠÏĦÎ¿Î½": 424,
      "ĠÏĥÏĦÎ·Î½": 425,
      "ĠÏĦÎ¹": 426,
      "ĠÎ´Î¹Î±": 427,
      "Î¹Î¬": 428,
      "Ġ1": 429,
      "âĢ": 430,
      "ĠÎ®": 431,
      "Î±Ïĥ": 432,
      "Î¸Îµ": 433,
      "ĠÎ±ÏĢÎ¿": 434,
      "Ġ2": 435,
      "Î¹ÎºÏĮ": 436,
      "Î¸Î·": 437,
      "ÎºÎ±": 438,
      "Î¿Î¹": 439,
      "ĠÂ": 440,
      "ÎĿ": 441,
      "..": 442,
      "ÏĩÎµÎ¹": 443,
      "ĠÎµÎ½": 444,
      "Îļ": 445,
      "ÏģÎ¹Ïĥ": 446,
      "ÏĥÎµÎ¹ÏĤ": 447,
      "ĠÎŁ": 448,
      "ĠÏĦÎ¹ÏĤ": 449,
      "Î¹ÎºÎ®": 450,
      "Î´Î¿": 451,
      "ĠÏĥÏħÎ½": 452,
      "ĠÎ´ÎµÎ½": 453,
      "ĠÎµÎº": 454,
      "Â»": 455,
      "Îł": 456,
      "ĠÎ¼ÎŃ": 457,
      "Î¼ÏĮ": 458,
      "ÏĦÎ±Î½": 459,
      "ÏĥÎ±": 460,
      "ĠÎ¿Î¹": 461,
      "ĠÎ±Î½Î±": 462,
      "ÏģÎŃ": 463,
      "Î¼Î¬": 464,
      "ÏģÏİ": 465,
      "Î¡": 466,
      "ÏĨÎ¿": 467,
      "ĠÏħÏĢ": 468,
      "ĠÂ«": 469,
      "ĠÎĵ": 470,
      "ÎµÏĦÎ±Î¹": 471,
      "ĠÎ¹": 472,
      "ĠÎµÏĢÎ¹": 473,
      "ÏĥÎ¹": 474,
      "Îľ": 475,
      "ÏĦÎ¯": 476,
      "ÏģÏĩ": 477,
      "ĠÎŃÎ½Î±": 478,
      "ÏĢÎ±": 479,
      "Î»Î»Î¬": 480,
      "á½": 481,
      "Î¥": 482,
      "Î¿ÏĤ": 483,
      "ÏĦÎ¹ÎºÏĮ": 484,
      "ĠÏĮÏĦÎ¹": 485,
      "ÏĦÎŃ": 486,
      "ĠÎºÎ¬": 487,
      "Î´Î±": 488,
      "Î¼Î·": 489,
      "Î»Î¿Î³": 490,
      "ÏĦÎ±ÏĤ": 491,
      "Î¹ÎºÎ¬": 492,
      "ÏĦÎ¿ÏĤ": 493,
      "Î¼Î±ÏĦÎ±": 494,
      "Î¼ÏĢ": 495,
      "Î¿ÏħÎ¼Îµ": 496,
      "Î»ÎŃ": 497,
      "ÏĦÎ¹ÎºÎ®": 498,
      "ÎºÏĮ": 499,
      "ĠÎµÎ¾": 500,
      "Î»Î¬": 501,
      "ÎµÏħ": 502,
      "ÏĥÏĦÎµ": 503,
      "ÏĩÎµ": 504,
      "ÎºÎ¿": 505,
      "ĠÏĢÎ¿Î»": 506,
      "Î»Î®": 507,
      "ĠÎĿ": 508,
      "ĠÏĢÏģÎ¿Ïĥ": 509,
      "ÎĽ": 510,
      "ĠÎµÎ¯": 511,
      "ĠÎ¼Î±ÏĤ": 512,
      "ÏģÎ®": 513,
      "Î¼Î²": 514,
      "ĠÎĹ": 515,
      "ÏĦÎ¹ÎºÎ¬": 516,
      "Î·ÏĤ": 517,
      "ÏĥÎ¿": 518,
      "ÏĦÏħ": 519,
      "00": 520,
      "ÏĢÎ¿Ïħ": 521,
      "ĠÏĢÎ¿": 522,
      "ÎŃÏģ": 523,
      "ĠÎ¼Î¹Î±": 524,
      "ĠÎ¿ÏĢÎ¿": 525,
      "ĠÏĢÎµÏģÎ¹": 526,
      "ÏįÎ½": 527,
      "Î·Î½": 528,
      "ĠÏĢÎ±ÏģÎ±": 529,
      "ÎµÏģ": 530,
      "á¼": 531,
      "ĠÎĴ": 532,
      "ĠÏĥÏĦÎ±": 533,
      "ĠÎºÎ±ÏĦÎ±": 534,
      "ÏĢÎ¿Î¹": 535,
      "ÏĦÎµÏĤ": 536,
      "ÏĦÏģÎ¿": 537,
      "ÎµÎ¹Î±": 538,
      "Î¹Î½": 539,
      "Î´Î¹Î±": 540,
      "ÏĨÎ±": 541,
      "ĠÎ¾": 542,
      "Î¼ÎŃÎ½": 543,
      "ÏĮÎ½": 544,
      "ĠÎ¶": 545,
      "ÏģÎµÎ¯": 546,
      "Î»Î¯": 547,
      "Î¸ÎµÎ¯": 548,
      "Î³Îº": 549,
      "Î¬Î»": 550,
      "ÏĥÏĦÎ·": 551,
      "ĠÎ´Î·": 552,
      "Î¬Ïģ": 553,
      "Î³ÏģÎ±": 554,
      "ĠÎ¼Î±": 555,
      "ĠÎ¼ÏĢÎ¿": 556,
      "ÏħÏĥ": 557,
      "Î¿ÏįÎ½": 558,
      "ÏģÎ¿Ïħ": 559,
      "Ġ-": 560,
      "01": 561,
      "ÎĶ": 562,
      "ĠÎĻ": 563,
      "ÏĢÎµ": 564,
      "Î³Î¿": 565,
      "ĠÏĥÏĦÎ¹": 566,
      "ÏİÏĤ": 567,
      "ÏħÎ½": 568,
      "ÎµÎ¹ÏĤ": 569,
      "ÏĮÏĦÎµ": 570,
      "ÏģÎ¹Î±": 571,
      "er": 572,
      "Ġá¼": 573,
      "ĠÎŃÏĩÎµÎ¹": 574,
      "ÏīÏĥÎ·": 575,
      "ĠÎºÎ±ÏĦÎ¬": 576,
      "ĠÏħÏĢÎ¿": 577,
      "ÏĦÏīÎ½": 578,
      "ĠÎµÏħ": 579,
      "Î´Î·": 580,
      "ĠÏĢÏģÏĮ": 581,
      "Î¹ÎºÎ¿": 582,
      "ÎµÎ»": 583,
      "Î¹ÎºÎ®ÏĤ": 584,
      "Î³Î±": 585,
      "ÏĦÎ·ÏĦÎ±": 586,
      "ÏĮÏĤ": 587,
      "ĠâĢ": 588,
      "ĠÎ±Î»Î»Î¬": 589,
      "ĠÎ±ÏħÏĦÏĮ": 590,
      "ÎŃÎ½": 591,
      "ĠÎ´Î¹": 592,
      "ÏĥÏī": 593,
      "ÏĥÏĦÎ¿": 594,
      "ĠÎ¸ÎŃ": 595,
      "Î¼Î¹": 596,
      "Î¾Î·": 597,
      "Î¯Î¶": 598,
      "Î¼Î®": 599,
      "Îĵ": 600,
      "ĠÎ§": 601,
      "ÏĦÏİÎ½": 602,
      "ÏĥÏĦÎ±": 603,
      "in": 604,
      "ĠÎŃÏĩ": 605,
      "ĠÎ¬Î»Î»": 606,
      "Î¯ÎµÏĤ": 607,
      "ĠÎĽ": 608,
      "ÏĦÎ¿Ïħ": 609,
      "Î´Î¹": 610,
      "ĠÎºÎ±Î¸": 611,
      "Î©": 612,
      "ĠÎĺ": 613,
      "ÏģÎµÏĤ": 614,
      "Î²Î±": 615,
      "Î¹ÎºÎ¿Ïį": 616,
      "ĠÏĥÏĦÎ¿Î½": 617,
      "Î¼Î¿Ïį": 618,
      "ÏĬ": 619,
      "ÏģÎ¯Î±": 620,
      "ÏĢÎµÎ¹": 621,
      "ÏĦÎŃÏĤ": 622,
      "ÎµÏĩ": 623,
      "Î»Î¹": 624,
      "ÏĪÎ·": 625,
      "ĠÎ¼Î¿Ïħ": 626,
      "ĠÎłÎ±": 627,
      "Î¯Îº": 628,
      "ĠÎļÎ±": 629,
      "ĠÏĥÏĦÎ¹ÏĤ": 630,
      "Î³Î³": 631,
      "Î¼ÎŃÎ½Î¿": 632,
      "ĠÏĥÎ±ÏĤ": 633,
      "Ġ3": 634,
      "ÏįÏĦÎµ": 635,
      "Î¼ÏĨ": 636,
      "ĠÏĥÎ·": 637,
      "Î¿Î¹Î½": 638,
      "ÏĢÏīÏĤ": 639,
      "Âµ": 640,
      "ÏĮÎ³": 641,
      "Î¯Î¿Ïħ": 642,
      "ÏģÎ±Î³": 643,
      "...": 644,
      "ÏģÎ¿ÏĤ": 645,
      "ĠÎ¦": 646,
      "ÏĢÎ¹": 647,
      "on": 648,
      "ĠÎ¼ÎµÏĦÎ±": 649,
      "ÏĥÎ¯Î±": 650,
      "Î¼Î±ÏĦÎ¿ÏĤ": 651,
      "ĠÎ´Îµ": 652,
      "ÏģÎ¿Ïį": 653,
      "ĠÏĥÏĦ": 654,
      "ÏĢÏĮ": 655,
      "á¿": 656,
      "an": 657,
      "Î½Ïī": 658,
      "ÏĦÏī": 659,
      "ĠÎµÏĢÎ¯": 660,
      "Î»ÎµÏħ": 661,
      "Î¿Î½ÏĦÎ±Î¹": 662,
      "Î¸Î·ÎºÎµ": 663,
      "ÏħÎ½Î±": 664,
      "Î¯Î¿": 665,
      "ĠÏĥÏį": 666,
      "ĠÎ±Ïĥ": 667,
      "Î´Î®": 668,
      "ÏĥÎºÎµ": 669,
      "ÎŁÎ¥": 670,
      "ĠÎ®ÏĦÎ±Î½": 671,
      "ĠÎ¤Î¿": 672,
      "ÏĥÎ¿ÏħÎ½": 673,
      "ĠÎºÏħ": 674,
      "Î¸Î®": 675,
      "Î¹ÎºÎŃÏĤ": 676,
      "ÏĦÎ¿Ïį": 677,
      "ÏĮÎ¼Îµ": 678,
      "Î½Î¿Î½": 679,
      "Î³Î¬": 680,
      "Î¸ÎŃ": 681,
      "ÎµÎº": 682,
      "Î¹ÎºÏİÎ½": 683,
      "ĠÏĩÎ±": 684,
      "Ġ201": 685,
      "ÏĥÎ±Î½": 686,
      "ÎºÎ±Î½": 687,
      "ÏİÏģÎ±": 688,
      "Î»Î¿ÏĤ": 689,
      "ÏĩÎ±": 690,
      "ÏĩÎ®": 691,
      "ĠÎĪ": 692,
      "Î¿Ïģ": 693,
      "Î»ÎµÎ¹": 694,
      "ĠS": 695,
      "ÎµÏį": 696,
      "ÏģÎ¹Î½": 697,
      "Î·ÏĥÎ·": 698,
      "Î³ÏģÎ±ÏĨ": 699,
      "ĠÎ´Î¹Î¬": 700,
      "ĠÎ¥": 701,
      "Î²Î¬": 702,
      "ĠÎ¸Îµ": 703,
      "Î´Î¹Î¿": 704,
      "ar": 705,
      "ÏģÎº": 706,
      "ĠÎ±Î½Î¬": 707,
      "ÏĦÎ¹ÎºÎ®ÏĤ": 708,
      "ÎĻÎĳ": 709,
      "ÏģÎ¹Î¿": 710,
      "Î½Î¿Î¼": 711,
      "ÎµÏģÎ³": 712,
      "ĠÏīÏĤ": 713,
      "ÏģÎ¿Î½": 714,
      "ĠÏĢÎ±Î¹": 715,
      "Î³Î®": 716,
      "ĠÎ¼ÏĮ": 717,
      "ÏĦÎ¹ÎºÎŃÏĤ": 718,
      "ÏĩÎ½": 719,
      "ĠÏĥÏĩ": 720,
      "Î¯Ïĥ": 721,
      "ĠÎ±Îº": 722,
      "ĠÎ¯": 723,
      "ĠÎ¼ÏĢÎ¿ÏģÎµÎ¯": 724,
      "ĠÏĢÎ¿Î»Ïį": 725,
      "ÏĥÎµÏīÎ½": 726,
      "ĠÎºÎ¹": 727,
      "Î»ÎµÎ¯": 728,
      "ÏĢÎ·": 729,
      "ÏĦÎ¹Ïĥ": 730,
      "ĠÏĩÏģÏĮ": 731,
      "ÎºÎ¹": 732,
      "Î¯Î½ÎµÎ¹": 733,
      "ÎĻÎļ": 734,
      "ĠÏĮÏĢÏīÏĤ": 735,
      "Î¼ÎŃÎ½Î·": 736,
      "ĠC": 737,
      "ĠÎºÏĮ": 738,
      "ĠÏĢÎµÏģÎ¯": 739,
      "ÎµÏĢ": 740,
      "Î¼Î±Î½": 741,
      "ÎºÎ¬": 742,
      "ĠÎ´Ïį": 743,
      "ĠÏĢÎ±ÏģÎ¬": 744,
      "ĠÎºÎ¬Î½": 745,
      "ĠÏĢÏģÏİ": 746,
      "ĠÎŃÏĩÎ¿ÏħÎ½": 747,
      "Ġ4": 748,
      "ĠÎĳÎ½": 749,
      "es": 750,
      "ĠÎ½ÎŃ": 751,
      "ĠÎ±ÏģÏĩ": 752,
      "or": 753,
      "ÏģÎ¯Î¶": 754,
      "Î»Î»Î·Î½": 755,
      "ÏģÏħ": 756,
      "ÏĦÎ·ÏĤ": 757,
      "ÏĦÎµÎ¯": 758,
      "en": 759,
      "ÏĥÎ¹Î±": 760,
      "ÏģÎŃÏĢÎµÎ¹": 761,
      "ÏĥÏĦ": 762,
      "ĠÎºÎ±Î»": 763,
      "ĠÎµÏģÎ³": 764,
      "ĠÎľÎµ": 765,
      "ÏĦÎ¹ÎºÎ¿Ïį": 766,
      "ÎĹÎ£": 767,
      "Î´Îµ": 768,
      "ĠA": 769,
      "ĠÎ±Î³": 770,
      "ĠÎľÎ±": 771,
      "ĠÎ±Î½ÏĦÎ¹": 772,
      "Î»Î¿Ïħ": 773,
      "),": 774,
      "ÏĦÎ¹ÎºÏİÎ½": 775,
      "Î¿ÏħÏģÎ³": 776,
      "âĢĻ": 777,
      "ÏĢÎ¬": 778,
      "ÏĢÏĦ": 779,
      "ĠÎ±ÏħÏĦÎ®": 780,
      "al": 781,
      "Î»Ïħ": 782,
      "Î½Î¿ÏĤ": 783,
      "Ġ5": 784,
      "ĠÏĦÎŃ": 785,
      "ĠM": 786,
      "ÏĦÏģ": 787,
      "Î¤Î¿": 788,
      "Î´ÎµÏĤ": 789,
      "Î¾Îµ": 790,
      "ÎºÎ®": 791,
      ").": 792,
      "ĠÏĩÏī": 793,
      "ĠÏĢÏĮ": 794,
      "ĠÏĥÏĩÎµ": 795,
      "ĠÎµÎ¹": 796,
      "ÏģÎ¸": 797,
      "Î§": 798,
      "ÏĨÎ®": 799,
      "ĠâĢĵ": 800,
      "ÏĦÎ¿Î½": 801,
      "Ġ\"": 802,
      "Î¿Î¹Î½ÏīÎ½": 803,
      "Î»Î»Î±": 804,
      "ĠÏĦÎµ": 805,
      "Î¼ÏĮÏĤ": 806,
      "ĠÏĢÎ¿Î»Î¹": 807,
      "ÏĮÏĦÎ·": 808,
      "ÏģÎ±Îº": 809,
      "at": 810,
      "ÏĢÎ¯": 811,
      "âĢ¦": 812,
      "ĠÏĢÎ¹Î¿": 813,
      "ĠÏĢÏģÏī": 814,
      "ĠÏĢÎ¬Î½": 815,
      "ÏģÎ¯Î¿Ïħ": 816,
      "ÎºÎ»Î·": 817,
      "ĠÎºÎ¬Î¸Îµ": 818,
      "ĠÎ¿Î¹ÎºÎ¿": 819,
      "ĠÏĪ": 820,
      "Îĺ": 821,
      "ĠÎ¡": 822,
      "ĠÏĢÏģÎŃÏĢÎµÎ¹": 823,
      "ÎŁÎ£": 824,
      "Î¼ÎŃÎ½Î±": 825,
      "Î¬Î¶": 826,
      "Î³Îµ": 827,
      "ĠP": 828,
      "Î¼Î¬ÏĦÏīÎ½": 829,
      "ĠÏĢÎ»Î·": 830,
      "Î¼Î¼Î±": 831,
      "ĠÎ¼ÎµÏĦÎ¬": 832,
      "ÏĩÎ±Î½": 833,
      "ĠÏĦÏĮ": 834,
      "ÏĨÎŃÏģ": 835,
      "Î³ÏģÎ¬": 836,
      "ÏĥÏĦÎ¬": 837,
      "ĠÏĨÎ¿": 838,
      "ĠÎ¿ÏĢÎ¿Î¯Î±": 839,
      "ÏĩÎ¿": 840,
      "Î¼ÏīÏĤ": 841,
      "ÏĦÎ®ÏĤ": 842,
      "ĠÎµÏĢÎ¹Ïĥ": 843,
      "Î½Î·ÏĤ": 844,
      "Ġ,": 845,
      "Î¿ÏįÎ¼Îµ": 846,
      "Î¼Î¿Ïħ": 847,
      "ÏģÎ±Î³Î¼Î±": 848,
      "ÏĦÏģÎ±": 849,
      "Î»Î»Î·": 850,
      "Î¦": 851,
      "ÏĢÎ¿Î¯": 852,
      "Î¹Î»": 853,
      "Î½Î±Î½": 854,
      "ÎµÎ¯Î¿": 855,
      "ÎºÏģÎ¹": 856,
      "ÂŃ": 857,
      "ÏģÎ¹ÏĥÏĥ": 858,
      "ĠÏĥÎ¿Ïħ": 859,
      "Â».": 860,
      "ĠÎ´Î¹Îº": 861,
      "ĠÎ±ÎºÏĮ": 862,
      "Î½Î¹Î±": 863,
      "Î³Ïī": 864,
      "Ġ19": 865,
      "Î´Î¹Î¬": 866,
      "ĠÎºÎ¿": 867,
      "ÏģÎ¹ÏĥÏĥÏĮÏĦÎµ": 868,
      "ĠÎ±ÏĢÎ¿ÏĦÎµ": 869,
      "ĠÏĢÏīÏĤ": 870,
      "ÏĦÎ·ÏĥÎ·": 871,
      "Î»Ïī": 872,
      "ÎĳÎ£": 873,
      "ĠÏĢÎµÏģÎ¹Î¿": 874,
      "ÏĥÏĩ": 875,
      "ÏħÏĦÏĮ": 876,
      "ĠÎ¼Î·": 877,
      "Î´Î¹Îº": 878,
      "Î¸Î½": 879,
      "ĠÎ¼ÏĮÎ½Î¿": 880,
      "Î¸Î¿ÏįÎ½": 881,
      "ĠÎ±Ïģ": 882,
      "ÏĥÏĦÎ®": 883,
      "ĠÎĮ": 884,
      "ĠB": 885,
      "ĠÎµÎ½Ïİ": 886,
      "ĠÎķÎ»Î»Î¬": 887,
      "ÎºÎ¿Î»": 888,
      "ÏĩÎ¹": 889,
      "ĠÎ½Î¿": 890,
      "st": 891,
      "Î¼ÏĨÏīÎ½": 892,
      "ÏģÏİÎ½": 893,
      "ÏĦÎ¹Î±": 894,
      "ÏĥÎºÎµÏħ": 895,
      "Î½Î¿Ïį": 896,
      "ĠÏĩÏģÎ·": 897,
      "ÏĥÎ¹Î¼Î¿": 898,
      "it": 899,
      "ÏĨÎµ": 900,
      "ĠÏĥÏĦÎ¿ÏħÏĤ": 901,
      "ĠÎ±Î¾": 902,
      "ĠT": 903,
      "ĠÎĺÎµ": 904,
      "ÏĮÏĦÎ·ÏĦÎ±": 905,
      "ÏĨÎ¿ÏģÎ¬": 906,
      "ÏĦÎµÏģ": 907,
      "ĠÎŁÎ¹": 908,
      "ĠÎĶÎ·": 909,
      "Î©ÎĿ": 910,
      "ÏĨÎŃ": 911,
      "ĠÎ¶Ïī": 912,
      "ÎµÎ¯ÏĤ": 913,
      "Ġ6": 914,
      "ĠÎ»Î±": 915,
      "ĠÏĢÏģÎ±Î³Î¼Î±": 916,
      "ÎĴ": 917,
      "Î¹Î¿ÏĤ": 918,
      "Î´Ïħ": 919,
      "Î»Î¿Î¹": 920,
      "Î¯ÏīÎ½": 921,
      "ÏĦÏĥÎ¹": 922,
      "ĠÏĩÏİ": 923,
      "el": 924,
      "ÏĦÏĮÏĤ": 925,
      "ĠÎ¼ÎŃÏĥÎ±": 926,
      "ĠÎ´Î·Î¼Î¿": 927,
      "ĠÎ´ÏįÎ¿": 928,
      "Î½Î±ÏĤ": 929,
      "ÎºÎ·": 930,
      "ÏģÎµÎ¹": 931,
      "ĠÎ¼ÎµÎ³Î¬": 932,
      "ĠÎĨ": 933,
      "ĠÎºÎ±Î¸ÏİÏĤ": 934,
      "ĠÏĢÏģÎ¿ÏĤ": 935,
      "ÏĦÏİ": 936,
      "Î¿Î½ÏĦÎ±ÏĤ": 937,
      "Â»,": 938,
      "ĠÎķÏħ": 939,
      "ĠÏĮÎ»": 940,
      "Î´Î±ÏĤ": 941,
      "Î³Ïĩ": 942,
      "ro": 943,
      "ĠÎ¤Î±": 944,
      "ĠÎ¬Î½": 945,
      "ÏĨÎ·": 946,
      "Î»Î¹Ïĥ": 947,
      "ÏĦÎ¿ÏħÏģÎ³": 948,
      "Î¼Î¿Î½": 949,
      "Î¸Î±": 950,
      "ÎºÎµÎ¹": 951,
      "ĠÎ²Î±": 952,
      "ĠÏĩÏģÎ®": 953,
      "ĠÏĮÎ¼ÏīÏĤ": 954,
      "ic": 955,
      "Î½Î¿Î¹": 956,
      "ÏģÎ¿ÏįÎ½": 957,
      "ĠÎ£Ïħ": 958,
      "ÏĥÎµÏĦÎµ": 959,
      "ĠÎ±ÏħÏĦÎ¿": 960,
      "ĠÎ¼Î¹Îº": 961,
      "ĠÎłÏģÎ¿": 962,
      "ÎķÎĻ": 963,
      "!!": 964,
      "Î¯Î½ÎµÏĦÎ±Î¹": 965,
      "ÏģÎ¯ÏĤ": 966,
      "ĠÎµÎ¯ÏĩÎµ": 967,
      "Î¼Î¹Î¿ÏħÏģÎ³": 968,
      "Î´ÎµÎ¹": 969,
      "ÏĩÏģÎ¹": 970,
      "ÏİÏĥÎµÎ¹ÏĤ": 971,
      "Î»ÏĮ": 972,
      "ĠÎºÎ¬ÏĢÎ¿": 973,
      "ÏģÎ±ÏĤ": 974,
      "ĠÏĮÏĦÎ±Î½": 975,
      "Î³Î·": 976,
      "Î®Î¼Îµ": 977,
      "ĠÏĢÎµÏģÎ¹ÏĥÏĥÏĮÏĦÎµ": 978,
      "ÎĳÎĻ": 979,
      "ĠÎ¼Î¯Î±": 980,
      "ÏģÏį": 981,
      "ÎµÏģÎ¹": 982,
      "ĠG": 983,
      "ĠÏİ": 984,
      "ĠÏĥÏħÎ¼": 985,
      "ĠÎ»Î¯": 986,
      "Î´ÎŃ": 987,
      "ĠÎ»ÏĮÎ³": 988,
      "ÏĥÎ¯Î±ÏĤ": 989,
      "ĠÏĢÎ¬": 990,
      "ĠE": 991,
      "ĠÎµÏĢÎ±": 992,
      "ĠÎ¹ÏĥÏĦÎ¿": 993,
      "ÏĥÏĦÏĮ": 994,
      "ĠÎ²Î¬": 995,
      "ĠÎ´ÏħÎ½Î±": 996,
      "Î¯Î½Î·": 997,
      "ĠÏħÏĢÏĮ": 998,
      "ĠÏĦÏģÏĮ": 999,
      "ÎµÏĦÎµ": 1000,
      "Î»Î»Î¿": 1001,
      "Ġá½": 1002,
      "Î´ÎµÏħ": 1003,
      "ÏĥÎ¿ÏħÎ¼Îµ": 1004,
      "ÏĥÏĦÎ±ÏĥÎ·": 1005,
      "Î¸Ïħ": 1006,
      "re": 1007,
      "ĠÎ³Îµ": 1008,
      "ĠÏĥÏħÎ¼Î²": 1009,
      "ÎµÎ¹ÏĦÎ¿ÏħÏģÎ³": 1010,
      "ĠL": 1011,
      "ĠÎµÎ³": 1012,
      "Î´Î¯": 1013,
      "ĠÎ±ÏĨ": 1014,
      "Î¾Î·ÏĤ": 1015,
      "Î¹Ïİ": 1016,
      "ĠÎ±Î½ÏĦÎ¯": 1017,
      "ÎĳÎ¤": 1018,
      "ĠÎ³Î½Ïī": 1019,
      "Î½Î®": 1020,
      "Î¶Î¯": 1021,
      "ĠÎºÎ±Î½": 1022,
      "ÏĩÎ·": 1023,
      "Î¶ÎµÎ¹": 1024,
      "ÏĥÎ¼Î±": 1025,
      "ĠÎ´Î·Î¼Î¹Î¿ÏħÏģÎ³": 1026,
      "ĠÎµÎºÎµÎ¯": 1027,
      "ĠD": 1028,
      "201": 1029,
      "ĠF": 1030,
      "Î¾ÎµÎ¹": 1031,
      "ĠR": 1032,
      "ĠÎ¼Î·Î½": 1033,
      "ĠÏĩÏģÏĮÎ½Î¹Î±": 1034,
      "ÎºÎŃ": 1035,
      "ÏĢÏģÎ¿": 1036,
      "ĠÎ¿Î¼Î¬": 1037,
      "ĠÎ¼Î¿": 1038,
      "ĠÏĢÏģÎ¿Î²": 1039,
      "Î¸ÎµÏĥÎ·": 1040,
      "Î¡ÎĻ": 1041,
      "ÏĦÎ¿Î¹": 1042,
      "Î½ÎµÏĤ": 1043,
      "ÎºÏģÎ±": 1044,
      "Î·Î³": 1045,
      "Î»Î»Î¿Î½": 1046,
      "ĠÎŃÎº": 1047,
      "et": 1048,
      "ÎºÎ¿Ïį": 1049,
      "ĠÎĵÎ¹Î±": 1050,
      "ĠÎ½Îµ": 1051,
      "Î»Î·ÏĤ": 1052,
      "ĠH": 1053,
      "Î´ÏģÎ¿": 1054,
      "ĠÎºÏĮÏĥ": 1055,
      "ÏģÏīÎ½": 1056,
      "ĠÎ¼Î¬": 1057,
      "ÎķÎ£": 1058,
      "is": 1059,
      "ÎµÎ¾": 1060,
      "Î¹Î²": 1061,
      "ĠÎ¼ÎŃÏĩÏģÎ¹": 1062,
      "Î¼ÎŃÎ½ÏīÎ½": 1063,
      "ĠÎ»ÎµÎ¹ÏĦÎ¿ÏħÏģÎ³": 1064,
      "ĠÎµÏĢÎ¹Îº": 1065,
      "ĠÏĮÎ»Î±": 1066,
      "ĠÎ±Î½Î¸": 1067,
      "Î®Î¼ÎµÏģÎ±": 1068,
      "ÏĨÏħ": 1069,
      "ĠÏĥÏĩÎŃ": 1070,
      "ÏĦÎµÏį": 1071,
      "ĠÎ³ÏģÎ±": 1072,
      "ÏĢÎ¹Ïĥ": 1073,
      "ĠÂµ": 1074,
      "Î³Î¼Î±": 1075,
      "Ġ7": 1076,
      "Î¯Î¶ÎµÎ¹": 1077,
      "Î¼Î¯": 1078,
      "ĠÏĥÏħÎ³": 1079,
      "Î¹ÎºÏĮÏĤ": 1080,
      "ĠÏĩÏīÏģÎ¯ÏĤ": 1081,
      "ÏģÎ¯ÎµÏĤ": 1082,
      "ĠÏĥÏħÎ½ÎŃ": 1083,
      "ÎĳÎĿ": 1084,
      "Ġs": 1085,
      "Î±ÏĥÎ¯Î±": 1086,
      "ÏĩÎµÎ¯": 1087,
      "il": 1088,
      "ĠÎ»ÎŃ": 1089,
      "Ġt": 1090,
      "Ġá¼Ģ": 1091,
      "om": 1092,
      "ÏĨÏĮ": 1093,
      "ĠÏĨÎ±": 1094,
      "ÏģÎ¿ÏħÏĤ": 1095,
      "Î¸Î·ÎºÎ±Î½": 1096,
      "ĠÎµÎ¼ÏĢ": 1097,
      "Î´ÏĮ": 1098,
      "Ġ8": 1099,
      "ĠÎ²ÏģÎ¯": 1100,
      "ĠÎºÎ¿Î¹Î½ÏīÎ½": 1101,
      "Î¼Î¿ÏĤ": 1102,
      "ĠÏĢÎ»Î±": 1103,
      "Î´Ïİ": 1104,
      "ÏĦÎµÏħ": 1105,
      "ĠÏĥÏħÎ¼ÏĢ": 1106,
      "ÏĥÎ¯": 1107,
      "ĠÏĢÎ±ÏģÎ¿Ïħ": 1108,
      "Î±Î¹Î¿": 1109,
      "ĠÎ¿ÏĢÎ¿Î¯Î¿": 1110,
      "ĠÎ³ÎµÎ½": 1111,
      "ĠÎµÎ¹Ïĥ": 1112,
      "ÏīÎ¼Î±": 1113,
      "ĠÏħÏĢÎ¬Ïģ": 1114,
      "ĠÏĢÏģÎ¬": 1115,
      "ÏĦÏħÏĩ": 1116,
      "ÎŃÏģÎ±": 1117,
      "ĠÎķÎ»Î»Î¬Î´Î±": 1118,
      "Î·ÏģÎµ": 1119,
      "Î½Ïİ": 1120,
      "Î½Î¬": 1121,
      "as": 1122,
      "ĠÎķÏĢÎ¹": 1123,
      "ĠÎ¾Îµ": 1124,
      "ĠÎµÎ»Î»Î·Î½": 1125,
      "ĠÎ±ÏħÏĦÎ¬": 1126,
      "âĢĿ": 1127,
      "ĠÎŃÎ½": 1128,
      "Î¾ÎµÎ¹ÏĤ": 1129,
      "ÏĢÎ¿Î¹Î®": 1130,
      "Î¼ÎŃÎ½Î¿Ïħ": 1131,
      "ÏģÎ³Î±Î½": 1132,
      "ÏĢÎ®": 1133,
      "ou": 1134,
      "ÏĥÎ¹Î¿": 1135,
      "ĠÏĨÏī": 1136,
      "Î½Î¿Î½ÏĦÎ±Î¹": 1137,
      "ÏĥÏĦÎ·Î¼Î±": 1138,
      "ĠÏĮÏĩÎ¹": 1139,
      "Ġc": 1140,
      "Î½Îµ": 1141,
      "ÏĥÎº": 1142,
      "Î»Ïİ": 1143,
      "ÏĩÏī": 1144,
      "Ġ10": 1145,
      "ÏĦÎµÎ¹": 1146,
      "ĠÎ¿Î¹ÎºÎ¿Î½Î¿Î¼": 1147,
      "ĠÏĩÏİÏģÎ±": 1148,
      "ĠÏĮÏĢÎ¿Ïħ": 1149,
      "ĠÎ²Î¿": 1150,
      "Î²Îµ": 1151,
      "ĠÎķÎº": 1152,
      "Î»Î¯Î±": 1153,
      "ing": 1154,
      "Î»ÎµÎº": 1155,
      "ĠÏĢÎ¯": 1156,
      "ĠÏĩÏģÎ·ÏĥÎ¹Î¼Î¿": 1157,
      "Î»ÎµÏħÏĦÎ±": 1158,
      "ĠÎ¼Î®": 1159,
      "ÏĢÎŃ": 1160,
      "ÎŁÎ¹": 1161,
      "Î²Î¿Î»": 1162,
      "ÏĨÎ¿Ïģ": 1163,
      "ÎºÎ±Î¹": 1164,
      "ĠÎļÎ±Î¹": 1165,
      "am": 1166,
      "ac": 1167,
      "Î»Î±Î¼Î²": 1168,
      "Î¾Î¹": 1169,
      "Î¼ÏĨÏīÎ½Î±": 1170,
      "ÏĦÎ¿ÏįÎ½": 1171,
      "ĠÏĥÏħÎ¼Î¼Îµ": 1172,
      "ol": 1173,
      "ĠÏĥÏĦÎ¿Î¹": 1174,
      "ĠÎĶÎ¹Î±": 1175,
      "ÏĢÎ¿ÏĤ": 1176,
      "ĠÏĢÏģÎ¿ÏĥÏī": 1177,
      "ÏĥÏĥÎ±": 1178,
      "ÏĢÎ¿Î¹Î·": 1179,
      "ÏĢÎ±Î¹": 1180,
      "Î¼Î¿Ïģ": 1181,
      "ĠI": 1182,
      "ĠÏį": 1183,
      "ÏĨÎ¬Î»": 1184,
      "ĠÎ±ÏĢÎ±": 1185,
      "ÏĥÎ¹Î¬": 1186,
      "ĠÏĥÎ·Î¼Îµ": 1187,
      "Î¸Î¿": 1188,
      "ĠÎŃÏģÎ³": 1189,
      "Î»Î¹Î¿": 1190,
      "ĠÎ±Î¹": 1191,
      "ĠÎ¼ÎµÎ³Î±": 1192,
      "ĠÎµÏĦÎ±Î¹": 1193,
      "Î½ÏĮ": 1194,
      "Ġ9": 1195,
      "ĠÏĥÏħÎ³Îº": 1196,
      "ĠÏĦÎµÎ»ÎµÏħÏĦÎ±": 1197,
      "ÎµÎ¹Î±ÏĤ": 1198,
      "Ġp": 1199,
      "Î¾Ïį": 1200,
      "ĠN": 1201,
      "ÏĦÏĥ": 1202,
      "Ġ0": 1203,
      "Î»ÎŃÎ¿Î½": 1204,
      "Ġm": 1205,
      "Î¡ÎŁ": 1206,
      "ĠÎ³Î¹Î±ÏĦÎ¯": 1207,
      "Î¼Î±Î¹": 1208,
      "ÎµÎ´": 1209,
      "ĠÏĥÎ®Î¼ÎµÏģÎ±": 1210,
      "ĠÎºÏħÎ²": 1211,
      "le": 1212,
      "ÏĦÏį": 1213,
      "ĠÎŃÎ½Î±Î½": 1214,
      "Î³Î³ÎµÎ»": 1215,
      "ĠÏĦÎµÎ»": 1216,
      "ĠâĢľ": 1217,
      "Î¿ÏįÏĤ": 1218,
      "ĠÏī": 1219,
      "ĠÎļÏħ": 1220,
      "ĠÎłÎ¿Î»": 1221,
      "ĠÎµÎ¹Î´": 1222,
      "Î»Ïį": 1223,
      "ĠÎ´Î¿": 1224,
      "ÏĢÎ¿ÏĦÎµ": 1225,
      "Î¸ÏģÏī": 1226,
      "Î¼Î±ÏĥÏĦÎµ": 1227,
      "ĠÎºÎ¬Î½ÎµÎ¹": 1228,
      "ĠÎºÎ±Î»ÏįÏĦÎµ": 1229,
      "Î¡Îĳ": 1230,
      "ÏĦÎ·Î½": 1231,
      "ĠÎ¿ÏĢÎ¿Î¯": 1232,
      "ĠÏĢÏģÏĮÏĥ": 1233,
      "ĠÎ´Î¹Î¿": 1234,
      "ĠÏĦÎ¯": 1235,
      "ĠÏĩÎ±ÏģÎ±Îº": 1236,
      "ÏīÎ½Î¹Ïĥ": 1237,
      "Î¶Î·": 1238,
      "ĠÎ²Î±Ïĥ": 1239,
      "ÏĨÎ±Ïģ": 1240,
      "ÏħÏĩ": 1241,
      "á¿¦": 1242,
      "Î¼ÏĢÎ¿": 1243,
      "ĠÎĸ": 1244,
      "Î»ÏİÎ½": 1245,
      "ÎºÎµÎºÏģÎ¹": 1246,
      "Î»Î¹Î±": 1247,
      "ĠÏħÏĢÎ¬ÏģÏĩÎµÎ¹": 1248,
      "ĠÏĢÎ±Î½": 1249,
      "ĠÏĦÏĮÏĥÎ¿": 1250,
      "Î¼Î¼": 1251,
      "000": 1252,
      "Î»Î¹Îº": 1253,
      "Ġ&": 1254,
      "Î¸ÎµÎ¹Î±": 1255,
      "ĠÏĥÎ·Î¼Î±Î½": 1256,
      "ĠÎ´ÎµÎ¯": 1257,
      "Î³Î¿Î½": 1258,
      "ÏĦÎµÏģÎ±": 1259,
      "ÏĥÎ®": 1260,
      "ĠÎ»Î¿": 1261,
      "ĠÎ£ÏħÎ½": 1262,
      "ĠÎ±Î½Î¸ÏģÏİ": 1263,
      "ĠÎ£Îµ": 1264,
      "ĠÎºÎ¿Ïħ": 1265,
      "Î¼Î¯Î±": 1266,
      "ÏĢÎ¿Î¯Î·ÏĥÎ·": 1267,
      "ĠÏĥÏħÎ½ÎµÏĩ": 1268,
      "ÎľÎµ": 1269,
      "Ġ/": 1270,
      "ĠÏĢÎ¹": 1271,
      "ĠÏĨÏħÏĥ": 1272,
      "Î¼ÎŃÎ½ÎµÏĤ": 1273,
      "ĠÎĳÏħ": 1274,
      "Î½ÏīÎ½": 1275,
      "ÏĦÏģÎŃ": 1276,
      "Î³ÏīÎ³": 1277,
      "Î¹Î½Î®": 1278,
      "Î»Î¿Î½": 1279,
      "Î³ÎµÎ¹": 1280,
      "ĠÏħÏĢÎ·ÏģÎµ": 1281,
      "ĠÎ½ÏĮ": 1282,
      "ĠÎ¾ÎµÎº": 1283,
      "ed": 1284,
      "ĠÏĥÏĩÎ¿Î»": 1285,
      "ÏģÎ¹Î¸": 1286,
      "ÎłÎŁ": 1287,
      "Î¼Î¿ÏįÏĤ": 1288,
      "gr": 1289,
      "Î½ÎµÎ¹": 1290,
      "Ġá¼Ĳ": 1291,
      "Î¸ÏħÎ½": 1292,
      "Â«": 1293,
      "ĠÏĢÏģÎ¿ÏĥÏīÏĢ": 1294,
      "á½¸": 1295,
      "Î¼ÏİÎ½": 1296,
      "ĠÎ¶Î·": 1297,
      "ÏģÎ¿ÏĨÎ¿": 1298,
      "Î¹ÏİÎ½": 1299,
      "Î»Î·Î¼Î±": 1300,
      "Î³ÏģÎ±Î¼Î¼Î±": 1301,
      "ÏģÎ·ÏĤ": 1302,
      "ĠÏĢÎ¹Ïĥ": 1303,
      "Î´Î¿Ïħ": 1304,
      "ĠÎ±Î³Î¿": 1305,
      "ĠÎºÏģÎ±": 1306,
      "ÏĢÏĦÏħ": 1307,
      "Î¬ÏģÏĩ": 1308,
      "ĠÎĳÎ½Î±": 1309,
      "ÏĨÏīÎ½": 1310,
      "Î¼Î±ÏĦÎ¿": 1311,
      "ÏģÎ¯Î±ÏĤ": 1312,
      "ÏĦÎ¹ÎºÎ¿": 1313,
      "ĠÎ±ÎºÏĮÎ¼Î±": 1314,
      "Î´Î¬": 1315,
      "ion": 1316,
      "ĠÎĶÎµÎ½": 1317,
      "ĠÏĢÏģÎ¹Î½": 1318,
      "Î±Î½Î¬": 1319,
      "Î´ÏīÎ½": 1320,
      "ĠÎŃÎ½Î±ÏĤ": 1321,
      "ĠÎµÏģÎ³Î±Ïĥ": 1322,
      "ÏģÎµÏħ": 1323,
      "Ġb": 1324,
      "ĠÎ¹ÏĥÏĩ": 1325,
      "Î±Ïģ": 1326,
      "ĠÎ±ÏĢÎ¿ÏĨ": 1327,
      "ÏĢÎ¿ÏħÏģÎ³": 1328,
      "ot": 1329,
      "Î½Î¿Ïħ": 1330,
      "Î½Î¿Î½ÏĦÎ±ÏĤ": 1331,
      "ĠÏĦÎµÏĩ": 1332,
      "ĠÎ¯Î´Î¹Î¿": 1333,
      "ÏĢÎ¬Î½": 1334,
      "Î»Î®ÏĤ": 1335,
      "ĠÎºÎ¬ÏĦÎ¹": 1336,
      "ĠÎ¼Î±Î¶Î¯": 1337,
      "ÏĦÎ¿ÏħÏĤ": 1338,
      "Î´Ïī": 1339,
      "ÏĬÏĮÎ½": 1340,
      "ÎºÎ¿Ïħ": 1341,
      "Î»Î¯Î¿Ïħ": 1342,
      "ÏĪÎµÎ¹": 1343,
      "ÎŃÏģÎ³": 1344,
      "ĠÏĥÎºÎ¿": 1345,
      "Î´Î¿ÏĤ": 1346,
      "ÏģÏīÏĢÎ±": 1347,
      "ĠÏĥÏħÎ½Î¿": 1348,
      "ÏĨÎŃÏģÎµÎ¹": 1349,
      "ÏģÎ·ÏĥÎ·": 1350,
      "ĠÎºÏį": 1351,
      "ÏĢÏĦÏīÏĥÎ·": 1352,
      "Ġ200": 1353,
      "ĠÏĥÏĦÎ¹Î³": 1354,
      "ĠÏĢÎ¿Î»Î»": 1355,
      "ĠÏİÏĥÏĦÎµ": 1356,
      "ÎłÎĳ": 1357,
      "ĠÏĢÎ¬Î½Ïī": 1358,
      "ÎµÎ¯ÏĦÎ±Î¹": 1359,
      "ÏĦÎŃÎ»Îµ": 1360,
      "Î³Î¹": 1361,
      "ĠÎµÎ½ÏĮÏĤ": 1362,
      "ÎºÏİÎ½": 1363,
      "Ġ.": 1364,
      "ÏĦÎ¹ÎºÏĮÏĤ": 1365,
      "ÏĪÎµ": 1366,
      "ÏģÏīÏĥÎ·": 1367,
      "ĠÎµÏĨÎ±Ïģ": 1368,
      "ÏĦÎ¶": 1369,
      "ÏĢÏī": 1370,
      "ĠÎµÏħÏģÏİ": 1371,
      "ÎŃÏģÎ½Î·": 1372,
      "ÎĪ": 1373,
      "ĠÎµÏĢÎ¯ÏĥÎ·ÏĤ": 1374,
      "ÏĩÎµÎ¯Î±": 1375,
      "ĠÎ¼ÎµÏĦÎ±Î¾Ïį": 1376,
      "ĠÏĥÏħÎ½ÎµÏģÎ³": 1377,
      "ĠÏĥÏĦÏĮ": 1378,
      "ÎĮ": 1379,
      "ĠÎ´Î¹Î±Î´Î¹Îº": 1380,
      "ĠÎĿÎ±": 1381,
      "ÎºÎ®ÏĤ": 1382,
      "Î»ÏĮÎ³": 1383,
      "Î»Î¿Ïį": 1384,
      "ĠW": 1385,
      "ĠÏĥÎ±Î½": 1386,
      "ÏĥÏį": 1387,
      "ĠÎĿÎ¿": 1388,
      "Î¼ÎµÎ¯": 1389,
      "Ġd": 1390,
      "ĠÎ»Î¹": 1391,
      "ĠÏĥÏįÎ½": 1392,
      "Î¹ÏĥÎµ": 1393,
      "ÎµÎ¯Î¿Ïħ": 1394,
      "ĠÎ¿Î´Î·": 1395,
      "ĠÎµÎ¼ÏĨ": 1396,
      "ÏĩÎ®ÏĤ": 1397,
      "Î·ÏĥÎ·ÏĤ": 1398,
      "he": 1399,
      "ÎĹÎľ": 1400,
      "ĠÏĦÏģÎ¿": 1401,
      "ÏĥÏĦÎ¹": 1402,
      "ad": 1403,
      "Îĸ": 1404,
      "ÎķÎĿ": 1405,
      "á½°": 1406,
      "ĠÏĦÏģÏĮÏĢÎ¿": 1407,
      "ĠÎ¸ÎµÏī": 1408,
      "ÏģÎµÎ¯Î±": 1409,
      "ÏĦÎ·ÏĦÎ±ÏĤ": 1410,
      "ĠÎ´ÏħÎ½Î±ÏĦÏĮ": 1411,
      "ÏĦÎ¯Î±": 1412,
      "ĠÎµÏĢÎ¹ÏĩÎµÎ¹": 1413,
      "ĠÏĥÏĦÏģÎ±": 1414,
      "10": 1415,
      "ĠÎ¼Î¿Î½": 1416,
      "ĠÎ±ÏĢÎ¿Îº": 1417,
      "Î¼ÎµÎ¹": 1418,
      "ĠÎ¼ÏĢÎ¿ÏģÎ¿Ïį": 1419,
      "Î»ÏįÏĦÎµ": 1420,
      "ÏĮÏĦÎ·ÏĦÎ±ÏĤ": 1421,
      "ĠÏĢÏģÎ¿ÏĬÏĮÎ½": 1422,
      "ĠÎĶÎ¹": 1423,
      "ĠÎłÎ±Î½": 1424,
      "ÏĢÎ¿ÏħÏĤ": 1425,
      "Ġ20": 1426,
      "ĠÎĳÎ³": 1427,
      "ĠÏĮÏĥÎ¿": 1428,
      "ĠÎ´Î®": 1429,
      "ĠÎĶÎ·Î¼Î¿": 1430,
      "ÎºÎ¹Î±": 1431,
      "Î¯Î½Î¿ÏħÎ½": 1432,
      "ĠÏĢÎ±ÏģÎŃ": 1433,
      "Î¼Î¹Î±": 1434,
      "ĠÏĢÏģÏİÏĦÎ·": 1435,
      "á½¶": 1436,
      "ĠÏĥÏħÎ³ÎºÎµÎºÏģÎ¹": 1437,
      "ĠÎºÎµ": 1438,
      "ĠÏĨÎ¿ÏģÎ¬": 1439,
      "ĠÎ¸ÎŃÏĥÎ·": 1440,
      "ÏģÏīÏĢÎ±ÏĬ": 1441,
      "ĠÏĢÎ±Î¹Î´Î¹Î¬": 1442,
      "ĠÏĦÎ¬": 1443,
      "Ġ12": 1444,
      "ÏĥÏĦÎ·ÎºÎµ": 1445,
      "ĠÎ¶ÏīÎ®": 1446,
      "ÏĥÏĥ": 1447,
      "ĠÎ»Î¬": 1448,
      "Î¿ÏįÎ½ÏĦÎ±Î¹": 1449,
      "Ġ|": 1450,
      "Î¸Î¿ÏĤ": 1451,
      "ĠÎ·Î¼ÎŃ": 1452,
      "ÏĢÎ±Î½": 1453,
      "ĠÎķÎ¯Î½Î±Î¹": 1454,
      "ĠÎĳÏĢÏĮ": 1455,
      "ĠÎĶÎ®": 1456,
      "ÏĢÎ¿Ïį": 1457,
      "Î¬Î½ÎµÎ¹": 1458,
      "ÎŁÎĿ": 1459,
      "Î±Î½Î±": 1460,
      "Ġ15": 1461,
      "ÏģÎ¹Î¬": 1462,
      "Î³Î¿Ïħ": 1463,
      "ĠO": 1464,
      "Î»ÎµÏį": 1465,
      "ÏģÎ¿Î¹": 1466,
      "ĠÎ¬Î½Î¸ÏģÏī": 1467,
      "ĠÎ±ÎºÏĮÎ¼Î·": 1468,
      "ÎºÎ·ÏĤ": 1469,
      "Î»Î±Î½": 1470,
      "ÎķÎĽ": 1471,
      "ÎĻÎ£": 1472,
      "19": 1473,
      "ĠÏĢÎµÏģÎ¯ÏĢÏĦÏīÏĥÎ·": 1474,
      "ĠÎ²Î±Î¸": 1475,
      "Ġf": 1476,
      "Î¼ÎŃÎ½Î¿ÏĤ": 1477,
      "Ġ:": 1478,
      "Î¶Îµ": 1479,
      "ÏĦÎ®ÏĥÎµÎ¹ÏĤ": 1480,
      "ĠÏĦÏĮÏĦÎµ": 1481,
      "Î¼ÏīÎ½": 1482,
      "ĠÎ³Î¯Î½ÎµÎ¹": 1483,
      "ĠÎ½ÎŃÎ±": 1484,
      "ĠÎŃÏīÏĤ": 1485,
      "ÏĦÎ·Î³Î¿": 1486,
      "Î²Î±Î¹": 1487,
      "ĠÏĥÏĦÎµ": 1488,
      "ĠÎµÎ´Ïİ": 1489,
      "ÏĨÎ¹": 1490,
      "ĠÎ²Î¹Î²": 1491,
      "Ġ18": 1492,
      "ĠÎŃÏĦÏĥÎ¹": 1493,
      "id": 1494,
      "ÏģÎ±Î½": 1495,
      "ĠÎ¼ÎµÎ³Î±Î»ÏįÏĦÎµ": 1496,
      "Î¹ÎºÎ¿ÏįÏĤ": 1497,
      "ÎºÏħ": 1498,
      "ĠÎµÏģÎ³Î±": 1499,
      "ĠÏĢÎ»Î®": 1500,
      "ag": 1501,
      "ĠÎ·Î»ÎµÎº": 1502,
      "Î³Î½Ïī": 1503,
      "Î¸ÎµÎ½": 1504,
      "ĠÏĢÎ¿Î¹": 1505,
      "ĠÏĨÎ¿Ïģ": 1506,
      "ĠÎºÎ¿Î¹Î½": 1507,
      "ĠÏĩÎµÎ¹": 1508,
      "Î»Î»Î¹": 1509,
      "Î»Î¿ÏħÏĤ": 1510,
      "Î³ÏģÎ¬ÏĨ": 1511,
      "ĠÎµÏį": 1512,
      "ĠÎºÎ¿Î¹": 1513,
      "Î´ÏģÎ±": 1514,
      "Î¹ÎºÎ·": 1515,
      "Î»Î±Î¹": 1516,
      "ĠÎ±Î¾Î¹Î¿": 1517,
      "ĠÎ¿Î»Î¿": 1518,
      "Î¤Îĳ": 1519,
      "ĠÎ£Ïį": 1520,
      "ĠÎ»Î¿Î¹": 1521,
      "ĠÏĢÏģÎ±Î³Î¼Î±ÏĦÎ¿": 1522,
      "ĠÎµÏĢÎ¿": 1523,
      "ĠÎµÎ¾Î±": 1524,
      "ĠÎ±ÏģÎ¹Î¸": 1525,
      "ĠV": 1526,
      "ĠÏĥÎ¿": 1527,
      "ÎļÎ±": 1528,
      "ĠÎ´ÏģÎ±": 1529,
      "ĠÎ¬ÏģÎ¸": 1530,
      "ĠÎłÏģÏĮ": 1531,
      "os": 1532,
      "ÏĩÎ¿Î»": 1533,
      "ĠÎºÎ±Î¸Î·": 1534,
      "ĠÏĥÎ±": 1535,
      "ÏĩÎ¹Ïĥ": 1536,
      "á¿Ĩ": 1537,
      "ÏĦÏģÎ¹": 1538,
      "Î¿Î´Î¿": 1539,
      "Î¸ÎµÎ¹": 1540,
      "ĠÎ±Î½ÎŃ": 1541,
      "ÏİÎ½ÏĦÎ±ÏĤ": 1542,
      "ĠÎµÎ½Î·": 1543,
      "ĠÎ¼ÎŃÏĥÏī": 1544,
      "ĠÏĥÎ·Î¼Î±": 1545,
      "ÎºÏį": 1546,
      "ÎŁÎĽ": 1547,
      "Î»Î¿Î³Î¯Î±": 1548,
      "ĠÏĨÎ¹": 1549,
      "Î¼ÎŃÏĤ": 1550,
      "ĠK": 1551,
      "ÏģÎ¬ÏĤ": 1552,
      "ĠÏĦÏģÎ±": 1553,
      "Îŀ": 1554,
      "ĠÎ¿Î¼Î¬Î´Î±": 1555,
      "Î´Î¹Î±Î¯": 1556,
      "Î¸Î±Î½": 1557,
      "ÏĢÏĮÎ½": 1558,
      "ÎĹÎĿ": 1559,
      "ĠÎµÎ½Î´Î¹Î±": 1560,
      "ĠÎŃÎ³": 1561,
      "ĠÎ»ÎµÏĢ": 1562,
      "ĠÎłÎµÏģÎ¹": 1563,
      "ĠÎ¼ÎµÎ³Î¬Î»Î·": 1564,
      "ĠÎ£Î¥": 1565,
      "ÏĮÎ¼ÎµÎ½Î¿": 1566,
      "Î»Î¹Î¬": 1567,
      "Î³ÎµÎ½": 1568,
      "Î¿ÏħÏĥ": 1569,
      "ĠÎ¬Î»Î»Î¿": 1570,
      "ĠÏĢÎ¬Î½ÏĦÎ±": 1571,
      "Î¶Î¿ÏħÎ½": 1572,
      "ĠÏħÏĢÎ¬ÏģÏĩ": 1573,
      "ÏĥÎ¼Î±ÏĦÎ±": 1574,
      "ÏīÏĥÎ·ÏĤ": 1575,
      "Î¤Î±": 1576,
      "ĠÎķÎ»Î»Î·Î½": 1577,
      "ĠÎ±ÏħÏĦÎ¿Ïį": 1578,
      "ÏĦÎ¯Î±ÏĤ": 1579,
      "Î½Î¹": 1580,
      "ÏĥÏīÏĤ": 1581,
      "ÏĥÎºÎµÏĦÎ±Î¹": 1582,
      "ÏģÏĮÏĤ": 1583,
      "ĠÏĢÎ¿Î»Î»Î¬": 1584,
      "ĠÎ´Ïī": 1585,
      "Î»Î¿Î³Î¹Ïĥ": 1586,
      "ĠÎ±ÏĢÎ¿ÏĦÎµÎ»ÎµÎ¯": 1587,
      "Î¹Î½Îµ": 1588,
      "ÏģÎ¹Îº": 1589,
      "ÏĥÎ±Î¼Îµ": 1590,
      "ĠÎ´Î¹Îµ": 1591,
      "ÏĢÏīÎ½": 1592,
      "ÏĥÎºÎ¿": 1593,
      "ÏģÎµÏį": 1594,
      "ĠÎ¯Î´Î¹Î±": 1595,
      "Î»Î±Î´Î®": 1596,
      "ÏĩÏģÎ¿": 1597,
      "Î»ÏīÎ½": 1598,
      "Î´Î·ÏĤ": 1599,
      "ĠÎ±Î¯": 1600,
      "ÏĦÎ¹Î¬": 1601,
      "ĠÎ´Î¹Î±ÏĨÎ¿": 1602,
      "oo": 1603,
      "ĠÏĥÏī": 1604,
      "Î´Î®ÏĢÎ¿ÏĦÎµ": 1605,
      "ĠÎ¸ÎŃÎ¼Î±": 1606,
      "Î³ÎŃÎ½": 1607,
      "ÏĩÎµÎ¹Î±": 1608,
      "ĠÏĢÎ»Î·ÏģÎ¿ÏĨÎ¿": 1609,
      "Î¶ÎµÏĦÎ±Î¹": 1610,
      "ĠÏĨÏīÏĦÎ¿": 1611,
      "ĠÎ´Î¯": 1612,
      "....": 1613,
      "ĠÎ³Î¯Î½ÎµÏĦÎ±Î¹": 1614,
      "ĠÏĩÏģÎ·ÏĥÎ¹Î¼Î¿ÏĢÎ¿Î¹": 1615,
      "ÎĦ": 1616,
      "ĠÎ¬Î»Î»Î±": 1617,
      "ÎµÏĢÎ¹Ïĥ": 1618,
      "á¿¶": 1619,
      "Î³Î¬Î»": 1620,
      "ĠÎ¼ÏĢÎ¿ÏģÎ¿ÏįÎ½": 1621,
      "ĠÏĦÏİÏģÎ±": 1622,
      "ĠÎ±Î½ÏĦÎ¹Îº": 1623,
      "ĠÎºÏħÎ²ÎŃÏģÎ½Î·": 1624,
      "ĠÎµÎºÎ±": 1625,
      "ĠÏĨÏį": 1626,
      "ent": 1627,
      "ÎµÏģÎ¿": 1628,
      "ĠÎ´Î¹Î¬ÏģÎº": 1629,
      "ĠÏĢÎ±Î¹ÏĩÎ½": 1630,
      "ĠÏĥÏħÎ½Î±": 1631,
      "ÎĳÎĽ": 1632,
      "ĠÎ¤Î¿Ïħ": 1633,
      "ÏĨÎŃÏģÎ¿Î½": 1634,
      "ĠÎ±ÏĨÎ¿Ïį": 1635,
      "ĠÎ»ÏĮÎ³Ïī": 1636,
      "Î±Î¹ÏģÎµ": 1637,
      "ÎºÎ±ÏĦÎ±": 1638,
      "ĠÎ±ÏħÏĦÎŃÏĤ": 1639,
      "ÂµÎ±": 1640,
      "ĠÏĩÏģÏĮÎ½Î¿": 1641,
      "ĠÎļÎ¿": 1642,
      "ÏĦÏīÏĤ": 1643,
      "ĠÏĩÎ±ÏģÎ±ÎºÏĦÎ·": 1644,
      "ĠÏİÏģÎ±": 1645,
      "ĠÎ¼Î¿ÏħÏĥ": 1646,
      "ec": 1647,
      "ĠÎĳÏħÏĦÏĮ": 1648,
      "ĠÎµÎ¾Îµ": 1649,
      "ĠÏĢÎŃ": 1650,
      "ĠÎ¼ÎŃÏģÎ¿ÏĤ": 1651,
      "ĠÏĥÏįÎ¼ÏĨÏīÎ½Î±": 1652,
      "ĠÎ¿ÏģÎ³Î±Î½": 1653,
      "Î»ÎµÏĤ": 1654,
      "ĠÎŃÏĩÎ¿ÏħÎ¼Îµ": 1655,
      "Î¼ÎµÏĥÎ±": 1656,
      "ÎŃÎ±": 1657,
      "ÏĮÏĦÎ·ÏĦÎµÏĤ": 1658,
      "ĠÏĮÏĥ": 1659,
      "ÏĩÎ¿ÏĤ": 1660,
      "Î±Î¹Î½": 1661,
      "ia": 1662,
      "ĠÏĢÏħ": 1663,
      "ÏĦÎ·Î¼Î±": 1664,
      "ĠÎ±ÏģÎºÎµ": 1665,
      "ÏİÏĥÎµÎ¹": 1666,
      "ÏĩÏħ": 1667,
      "ĠÏĩÏģÎµÎ¹": 1668,
      "ĠÏĩÏģÎ¿Î½": 1669,
      "30": 1670,
      "ĠÏĢÎµÏģÎ¹Î¿ÏĩÎ®": 1671,
      "ĠÎºÎ¿Î½": 1672,
      "ĠÏĨÏħ": 1673,
      "ĠÏĢÎµÏģ": 1674,
      "Ġ[": 1675,
      "Î¼Î¹Ïĥ": 1676,
      "ĠÎ£Î±": 1677,
      "Î½Î¿Î´Î¿": 1678,
      "ÏĦÎ®ÏģÎ¹Î¿": 1679,
      "and": 1680,
      "Î¼ÎŃÎ½Î¿Î¹": 1681,
      "ÏĥÏħ": 1682,
      "Î³ÏīÎ½Î¹Ïĥ": 1683,
      "ÏĢÎ»Î·": 1684,
      "ÏĦÎ¹ÎºÏĮÏĦÎ·ÏĦÎ±": 1685,
      "ĠÎµÎ¯ÏĩÎ±Î½": 1686,
      "ĠÎºÎ±ÏĦÎ·Î³Î¿": 1687,
      "ĠÎ¼Î¹Î±ÏĤ": 1688,
      "ÏĢÎ»Î±": 1689,
      "ÏĩÎŃÏĤ": 1690,
      "ĠÎ¼Î±Î¸Î·": 1691,
      "ÎºÎµÏĤ": 1692,
      "ÏĦÎ±ÏĥÎ·": 1693,
      "ĠÎ²Î¿Î·": 1694,
      "ÏĨÎ±Î½": 1695,
      "ÎĵÎ¹Î±": 1696,
      "ĠÏĩÏİÏģÎ¿": 1697,
      "ĠÏĢÎ»ÎŃÎ¿Î½": 1698,
      "ÏĢÎ¿Î½": 1699,
      "us": 1700,
      "ĠÎºÎ¹Î½Î·": 1701,
      "ĠÎłÎµ": 1702,
      "Î¤ÎĻÎļ": 1703,
      "ĠÏĨÎ¯": 1704,
      "ĠÎ´Ïħ": 1705,
      "á½´": 1706,
      "ÏĦÏģÎ¿ÏĨ": 1707,
      "ĠÏĩÎ¬": 1708,
      "ĠÏĥÎµÎ¹": 1709,
      "ĠÎ±Î´": 1710,
      "ÎķÎļ": 1711,
      "ĠÎºÏģÎ¬": 1712,
      "ĠÎļÎĳÎĻ": 1713,
      "ĠÎ¿ÏįÏĦÎµ": 1714,
      "ĠÎ±ÏĢÎ±Î¹": 1715,
      "ĠÎ±Î½ÏĦÎ±": 1716,
      "ĠÎ±Î½ÏĦÎ¹Î¼Îµ": 1717,
      "ÏĦÎ®ÏĥÎµÎ¹": 1718,
      "Î»Î¹ÎºÎ¬": 1719,
      "ĠÎµÏĨÎ±ÏģÎ¼Î¿": 1720,
      "ÎµÎ¯Î¼Îµ": 1721,
      "Î´Î¿ÏĥÎ·": 1722,
      "ĠÎ²ÏģÎ¯ÏĥÎºÎµÏĦÎ±Î¹": 1723,
      "ÎķÎ¡": 1724,
      "ĠÎ¿Î´Î·Î³": 1725,
      "ĠÎ±Î³Î±": 1726,
      "ĠÎ±Î»Î»Î±": 1727,
      "ĠÏĮÎ»ÎµÏĤ": 1728,
      "ĠÎ±Î½Î¬Î³Îº": 1729,
      "Î¹Î¿Î½": 1730,
      "ĠÏĥÏĦÎ¹Î³Î¼Î®": 1731,
      "Î¯Î¶ÎµÏĦÎ±Î¹": 1732,
      "ĠÎ¹Î´Î¹Î±Î¯": 1733,
      "Î¶Î±": 1734,
      "ÏĢÎ±Î¹Î´ÎµÏħ": 1735,
      "Î¯ÎºÎ·": 1736,
      "Î²Î¿Ïħ": 1737,
      "ĠÏĪÎ·": 1738,
      "ÏĥÏĮ": 1739,
      "ĠÏħÏĢÎ¬ÏģÏĩÎ¿ÏħÎ½": 1740,
      "ÏģÎ¯Î¶ÎµÎ¹": 1741,
      "iv": 1742,
      "ĠÎ´ÏħÏĥ": 1743,
      "ÏģÎŃÏĤ": 1744,
      "Î³Î¼Î±ÏĦÎ±": 1745,
      "Ġ11": 1746,
      "ĠÎºÎ±Ïģ": 1747,
      "ĠÎ¼ÏĢ": 1748,
      "Î¤ÎŁ": 1749,
      "ĠÎ±ÏĢÎ¿ÏĦÎŃÎ»Îµ": 1750,
      "ĠÎµÏĢÎ¹Î»Î¿Î³": 1751,
      "ĠÏĢÎ»Î±Î¯Ïĥ": 1752,
      "ĠÏĢÎ¿Î»Ïħ": 1753,
      "Î»Î¬ÏĩÎ¹Ïĥ": 1754,
      "ĠÎ³ÎµÎ³Î¿Î½": 1755,
      "ĠÏĢÏģÎ¿ÏĥÏĦÎ±": 1756,
      "ĠÎ¹Î´Î¹": 1757,
      "ĠÏĢÎ¬Ïģ": 1758,
      "ÎºÎŃÏĤ": 1759,
      "ĠÎ´ÎµÎ´Î¿": 1760,
      "ĠÏĦÏį": 1761,
      "Î¾Î±Î½": 1762,
      "ĠÏĥÏĦÎ¿Î¹ÏĩÎµÎ¯Î±": 1763,
      "ĠÏħÏĢÎ¿ÏħÏģÎ³": 1764,
      "ÏİÎ½Î±": 1765,
      "Î½Î¿Î¯": 1766,
      "ÏĪÎµÎ¹ÏĤ": 1767,
      "Î½Î¿Î¼Î±": 1768,
      "ĠÎ§Î±": 1769,
      "ÏĦÎ¹ÎºÎ¿ÏįÏĤ": 1770,
      "ÏĦÎµÏģÎ¿": 1771,
      "ĠÎµÎ¯ÏĦÎµ": 1772,
      "ĠÎºÎ±Î»Î¬": 1773,
      "Ìģ": 1774,
      "ĠÎ¼Ïħ": 1775,
      "ĠÏĢÎ®": 1776,
      "Î¯Î¶Î¿ÏħÎ½": 1777,
      "ÏĢÎ±Î¯": 1778,
      "ĠÎĳÎ¸Î®": 1779,
      "ĠÏħÏĪÎ·": 1780,
      "ĠÎ´ÏģÎ¬": 1781,
      "ĠÎ´Î¹Î¬ÏģÎºÎµÎ¹Î±": 1782,
      "ĠÎ´Î¹Î±Î¸ÎŃ": 1783,
      "ĠÎľÎŃ": 1784,
      "ÎĻÎĿ": 1785,
      "ĠÎºÏģÎ¯": 1786,
      "ÏİÎ½ÎµÎ¹": 1787,
      "ÏĥÎ¯ÎµÏĤ": 1788,
      "Î¾Ïī": 1789,
      "ĠÎºÎ±ÏĦÎ±ÏĥÎºÎµÏħ": 1790,
      "ĠÎ¬Î»Î»Î·": 1791,
      "Ïĭ": 1792,
      "ĠÎºÏĮÏĥÎ¼Î¿": 1793,
      "ĠÎĵÎ¹": 1794,
      "ÏģÏħÎ¸": 1795,
      "Î¿ÏĢ": 1796,
      "ĠÎ±ÎºÎ¿Î»": 1797,
      "ĠÎ´Î¿Ïħ": 1798,
      "ĠÏĨÏĮ": 1799,
      "ĠÎ´Î¹Î±ÏĨÎ¿ÏģÎµ": 1800,
      "ĠÎ²Î»ÎŃ": 1801,
      "im": 1802,
      "ĠÏĩÏģÎ®ÏĥÎ·": 1803,
      "Î¼ÎµÎ½": 1804,
      "ÏĥÎ±Î¹": 1805,
      "ĠÎ´ÎµÏįÏĦÎµ": 1806,
      "Î»Î¬Î²": 1807,
      "Î¹ÏĥÏĦÎ±": 1808,
      "Î¹Î±Ïĥ": 1809,
      "ÏĢÎµÎ´Î¿": 1810,
      "á¿ĨÏĤ": 1811,
      "Î¯Î´Î¹": 1812,
      "ĠÎºÎ±ÏĦÎ¿": 1813,
      "ÏĨÎµÏģ": 1814,
      "Î½ÎµÏħ": 1815,
      "ĠÏĦÏģÎ±Î³": 1816,
      "ĠÎ±ÏĥÏĨÎ±": 1817,
      "Î¼Î¹Î¿": 1818,
      "ĠÎ¼Î¿Î½Î±": 1819,
      "ÏĨÎ±ÏĥÎ·": 1820,
      "ĠÎ³Î½Ïİ": 1821,
      "Ġo": 1822,
      "ig": 1823,
      "Ġ2018": 1824,
      "ĠÎŀ": 1825,
      "Î³ÏĮ": 1826,
      "ĠÎºÎ±á½¶": 1827,
      "ÏĢÏģÏĮ": 1828,
      "ÏĩÎ¿ÏħÎ½": 1829,
      "ĠÎ·Î¼Îµ": 1830,
      "ĠÎľÎ·": 1831,
      "Î¸Î¬": 1832,
      "12": 1833,
      "ÏĦÏģÎ¿Î½": 1834,
      "ĠÎłÎ±ÏģÎ±": 1835,
      "Î¼Î²Î±": 1836,
      "ĠÎĺÎ±": 1837,
      "ÎĻÎĳÎ£": 1838,
      "un": 1839,
      "ÏĥÏĦÎµÎ¯": 1840,
      "ĠÏĥÏĩÎŃÏĥÎ·": 1841,
      "ĠÎ»Ïį": 1842,
      "ĠÏĥÏĦÎ¬": 1843,
      "ÏĨÎ¿ÏĤ": 1844,
      "Î´Î¹ÎºÏĮ": 1845,
      "ĠÎķÎ½": 1846,
      "ĠÎ¿Ïħ": 1847,
      "Î¼Î²ÏģÎ¯Î¿Ïħ": 1848,
      "ÎŃÎ½Î±": 1849,
      "ĠÎµÎ¾Ïī": 1850,
      "Î¬Ïĥ": 1851,
      "ÏģÎ³Î¬Î½": 1852,
      "ĠÎĳÏģÏĩ": 1853,
      "Î³Î³ÎµÎ»Î¼Î±": 1854,
      "ĠÏĢÏģÎ¿ÏĥÏĢÎ¬": 1855,
      "Î¼ÎµÏĤ": 1856,
      "ĠÎ§ÏģÎ¹Ïĥ": 1857,
      "lo": 1858,
      "ĠÏĦÏģÎ¯": 1859,
      "ch": 1860,
      "ÎºÎµÎ¹ÏĦÎ±Î¹": 1861,
      "ÏĥÏĦÎ¿Î¹": 1862,
      "ĠÎ±ÏĢÎŃ": 1863,
      "Î¹ÎºÎ¿Î¯": 1864,
      "ĠÂµÎµ": 1865,
      "ÎµÎ½ÏĦÏģ": 1866,
      "Î¶ÏĮÎ¼Îµ": 1867,
      "ĠÎ»Î¿Î¹ÏĢÏĮÎ½": 1868,
      "ĠÏĦÏħ": 1869,
      "Î¸Î»Î·": 1870,
      "ĠÎ»Î¯Î³Î¿": 1871,
      "ĠÎ²Î¬ÏĥÎ·": 1872,
      "ĠÏĦÎ·Î»Îµ": 1873,
      "ÏħÎ¼": 1874,
      "ĠÎļÏį": 1875,
      "ĠÎ£ÏĦÎ±": 1876,
      "ĠÎ³ÏħÎ½Î±": 1877,
      "ĠÎ±Î½Î¬ÏĢÏĦÏħ": 1878,
      "Î²Î¿": 1879,
      "ÏĦÏģÎ¹Î±": 1880,
      "Î»ÎŃÏĤ": 1881,
      "Î¬Î»Î¹": 1882,
      "ĠÎĳÎĿ": 1883,
      "ĠÏĮÎ»Î¿ÏħÏĤ": 1884,
      "ĠÎµÎ¾ÎŃ": 1885,
      "Î»Î»Î®": 1886,
      "ĠÎĳÏĥ": 1887,
      "ĠÏĦÎ¿ÏĢÎ¿": 1888,
      "Î³ÎŃÏĤ": 1889,
      "Î¼Î¿ÏģÏĨ": 1890,
      "ĠÎ»Îµ": 1891,
      "ĠÏĩÎ¿": 1892,
      "ĠÎ±ÏĢÎ¿ÏĦÎŃÎ»ÎµÏĥÎ¼Î±": 1893,
      "ĠÎ´Î·Î»Î±Î´Î®": 1894,
      "Î»ÏĢ": 1895,
      "ÎºÎ»Î¿": 1896,
      "ĠÎ´ÏģÏĮ": 1897,
      "Î³Î®ÏĤ": 1898,
      "ĠÎ³Î¹": 1899,
      "ÏģÎ¹ÏĥÎ·": 1900,
      "Î¬Î¶ÎµÏĦÎ±Î¹": 1901,
      "ĠÎµÏĢÎµÎ¹": 1902,
      "ter": 1903,
      "ĠÏĥÏĢÎ¯": 1904,
      "ĠÏĦÎŃÎ»Î¿ÏĤ": 1905,
      "ĠÏĢÎ±ÏģÎ¿ÏħÏĥÎ¹Î¬": 1906,
      "ÏģÎ¹ÎºÎ®": 1907,
      "ĠÏĥÏĩÎµÏĦÎ¹ÎºÎ¬": 1908,
      "ÎŃÎ½ÏĦÏģÎ¿": 1909,
      "ÏģÎ±Ïĥ": 1910,
      "ĠÎĺÎµÏĥÏĥÎ±": 1911,
      "Ġw": 1912,
      "ĠÎ¿ÏĢÎ¿Î¯Î¿ÏĤ": 1913,
      "ÏĦÎ¿Î¼Î±": 1914,
      "ur": 1915,
      "ÎºÏĦÎ·": 1916,
      "Î¸Ïį": 1917,
      "ĠÎµÎ½ÎµÏģÎ³": 1918,
      "ÎĳÎ½": 1919,
      "ir": 1920,
      "ĠÎ³ÏģÎ¬": 1921,
      "ĠÎ¸Î¬": 1922,
      "ÏħÎ¼Î±": 1923,
      "ÎŃÎ»": 1924,
      "em": 1925,
      "ap": 1926,
      "ĠÎļÎ¬": 1927,
      "ĠÎµÎ¼ÏĨÎ±Î½": 1928,
      "Î¹Î¬ÏĤ": 1929,
      ".,": 1930,
      "ĠÏĥÏħÎ½ÎŃÏĩÎµÎ¹Î±": 1931,
      "ÏĥÎ¿Ïħ": 1932,
      "Î¼Î¿Î¹": 1933,
      "ĠJ": 1934,
      "ÏĦÎŃÏģÎ±": 1935,
      "ÎµÏģÎ¼Î±Î½": 1936,
      "Î¶Î¿": 1937,
      "ĠÎĳÏĢÎ¿": 1938,
      "ÏīÏĥÎµ": 1939,
      "ÏĩÏİ": 1940,
      "Ġh": 1941,
      "ĠÎ½Î·": 1942,
      "Ġ14": 1943,
      "ĠÎ´ÎŃ": 1944,
      "ĠÏĥÏİ": 1945,
      "ÏģÏĮÎ½": 1946,
      "ĠÎ¶Î®": 1947,
      "ÏĦÎ®ÏģÎ¹Î±": 1948,
      "ĠÎºÎ±Î¸Î±": 1949,
      "ĠÎºÎ¬ÏĢÎ¿Î¹Î±": 1950,
      "ĠÎºÎ±Î¯": 1951,
      "ĠÏĢÎ¿Î»Î»ÎŃÏĤ": 1952,
      "Î´ÎµÎ¯": 1953,
      "ĠÎµÎ³Îº": 1954,
      "Î²Î·": 1955,
      "ĠÏĢÏģÎ¿Î·Î³": 1956,
      "Î¼ÎµÎ¯ÏĤ": 1957,
      "ĠÎ®Î´Î·": 1958,
      "Î¤ÎĹ": 1959,
      "ÏģÎ¯ÏīÏĤ": 1960,
      "Î´Î¿Î½": 1961,
      "20": 1962,
      "ÏģÎ±Î¯": 1963,
      "Î±Î¯": 1964,
      "ÏįÎµÎ¹": 1965,
      "ÎĳÎ¡": 1966,
      "ÏĦÎ¹Î¿": 1967,
      "ĠÏĦÎ¿ÏĢ": 1968,
      "ĠÎłÎ¿Î»Î¹": 1969,
      "ĠÎŃÎ»Îµ": 1970,
      "ĠÎĽÎ±": 1971,
      "Î´Î¯Î±": 1972,
      "ÎºÎ±ÏĦÎ¬": 1973,
      "ĠÏĢÎ±ÏģÎ¿ÏħÏĥÎ¯Î±": 1974,
      "ÏĦÎµÏĩÎ½": 1975,
      "ĠÏĨÎ¬": 1976,
      "ĠÎ©": 1977,
      "ĠÎµÏĢÎŃ": 1978,
      "ĠÎ´ÏģÎ±ÏĥÏĦÎ·": 1979,
      "ĠÎ´Î¹ÎºÎ±Î¹": 1980,
      "ÎĲ": 1981,
      "Ġ30": 1982,
      "ÏĢÎ±Î¯Î´ÎµÏħ": 1983,
      "ĠÎ£ÏĦÎ¿": 1984,
      "ĠÏĮÎ»Î¿Î¹": 1985,
      "ĠÎºÎ¬ÏĦÏī": 1986,
      "ĠÏĨÏīÏĦÎ¿Î³ÏģÎ±ÏĨ": 1987,
      "ĠÎŃÎ³Î¹Î½Îµ": 1988,
      "11": 1989,
      "ĠÎµÎ¸Î½": 1990,
      "ÎķÎ¥": 1991,
      "ĠÎ³Ïį": 1992,
      "ĠÏĢÎ±ÏģÎµ": 1993,
      "ĠÎ¥ÏĢÎ¿ÏħÏģÎ³": 1994,
      "Î²Î¬Î»Î»": 1995,
      "ĠÎ¼ÏĢÎ±": 1996,
      "Î¼ÎµÏģÎ¹Î½": 1997,
      "Î¶Î®": 1998,
      "ĠÏĢÏģÏīÏĦÎ¿": 1999,
      "ĠÎ¼Î¿Ïģ": 2000,
      "ĠÎ´Î·Î¼ÏĮ": 2001,
      "ĠÏĢÎµÏģÎ¹ÏĥÏĥÏĮÏĦÎµÏģÎ¿": 2002,
      "ÎºÏĮÏĥ": 2003,
      "Î³ÏīÎ³Î®": 2004,
      "ĠÎµÎºÏĦÏĮÏĤ": 2005,
      "ĠÎ¸ÎµÏģ": 2006,
      "ĠÏĦÎµÎ»ÎµÏħÏĦÎ±Î¯Î±": 2007,
      "ĠÏĥÏħÎ¼Î¼ÎµÏĦÎ¿": 2008,
      "ay": 2009,
      "ÏħÎ½Î¬": 2010,
      "ÎŁÎļ": 2011,
      "ĠÎ±Î¹Ïĥ": 2012,
      "ÏĥÎµÏīÏĤ": 2013,
      "Ġ16": 2014,
      "ĠÏĨÎ¿ÏģÎŃÏĤ": 2015,
      "Î»ÏīÏĥÎ·": 2016,
      "ĠÎ±ÎºÏģÎ¹": 2017,
      "ÎłÎ±": 2018,
      "ĠÎµÎºÏĢÎ±Î¹Î´ÎµÏħ": 2019,
      "Î½ÏİÎ½": 2020,
      "Î¬Î»Î¹ÏĥÏĦÎ±": 2021,
      "ĠÏĢÎµÏģÎ¯ÏĢÎ¿Ïħ": 2022,
      "ĠÎµÎ¹ÎºÏĮ": 2023,
      "ĠÎĵÎµÎ½": 2024,
      "ÏĥÏĦÎµÏĤ": 2025,
      "ÏĥÎ¬": 2026,
      "Î²Î¬Î»Î»Î¿Î½": 2027,
      "ĠÎ±ÏĨÎ¿ÏģÎ¬": 2028,
      "ĠÏĢÏģÏİÏĦÎ¿": 2029,
      "Ġ25": 2030,
      "Î£Îµ": 2031,
      "ĠÏĨÎ±Î½": 2032,
      "ĠÎ±Î³Î¿ÏģÎ¬": 2033,
      "ÏĥÏīÏĦÎµÏģ": 2034,
      "ĠÎ¼ÎµÎ¹": 2035,
      "ÏĨÎ¯": 2036,
      "á½Ĳ": 2037,
      "ÏĩÎµÏĦÎµ": 2038,
      "Î³ÏģÎ¬Î¼": 2039,
      "ĠÎ¼ÎµÎ³Î¬Î»Î¿": 2040,
      "á¿ĸ": 2041,
      "ÏģÎ·Î¼Î±": 2042,
      "ĠÎ¼Î·ÏĩÎ±Î½": 2043,
      "ÏĦÎ¹ÎºÎ¿Î¯": 2044,
      "ĠÎ¹Î´": 2045,
      "ĠÎ¾ÎµÎ½Î¿Î´Î¿": 2046,
      "ĠÏĥÏħÎ¼ÏĨÏīÎ½": 2047,
      "ÎµÎ´ÏģÎ¿ÏĤ": 2048,
      "Ġ13": 2049,
      "ÏĦÏħÎ½Î¿Î¼": 2050,
      "ÏĦÎ¿ÏįÎ¼Îµ": 2051,
      "ĠÎµÎ½ÎŃÏģÎ³": 2052,
      "ĠÎ¾ÎµÏĩ": 2053,
      "Î¬Î½Î¹": 2054,
      "ĠÏĢÎµÎ¹": 2055,
      "Î³ÏģÎ±ÏĨÎ®": 2056,
      "ĠÎ¿ÏģÎ¹Ïĥ": 2057,
      "ĠÏĢÏģÏĮÎ³ÏģÎ±Î¼Î¼Î±": 2058,
      "ĠÎ±ÏĨÎ®": 2059,
      "ÎºÎ±Î½Îµ": 2060,
      "ĠÎłÎ¿": 2061,
      "Î©Î£": 2062,
      "ĠÏģÏĮ": 2063,
      "Î¸Î·ÏĥÎ·": 2064,
      "Î»Î¹ÎºÏĮ": 2065,
      "ĠÎºÎ¿Ïģ": 2066,
      "ÏĥÎ¿Î½": 2067,
      "ÏĨÎ±Î¹": 2068,
      "Î¹ÏĥÎ¼ÏĮ": 2069,
      "Î·Î¼Î±": 2070,
      "Î»Î¿ÏįÎ½": 2071,
      "ĠÎķÎ¸Î½": 2072,
      "Î´Î¹ÎºÎ®": 2073,
      "ĠÏĩÎ±ÏģÎ±ÎºÏĦÎ·ÏģÎ¹Ïĥ": 2074,
      "ĠÎķÏħÏģÏİ": 2075,
      "ĠÎ½ÎŃÎ¿": 2076,
      "ĠÏĢÎ»ÎµÏħ": 2077,
      "ÏĨÎµÏģÎµ": 2078,
      "ÏģÎ¹ÎºÎ¬": 2079,
      "ÏģÎµÎ¹ÏĤ": 2080,
      "ĠÎ¿ÏħÏĥ": 2081,
      "ĠÎºÎ±ÏĦÎŃ": 2082,
      "ĠÎºÎ¬Î½Î¿ÏħÎ½": 2083,
      "ÏģÎ¯ÏīÎ½": 2084,
      "ĠÏĦÎ¿Ïį": 2085,
      "ÏĥÎ¹ÏİÎ½": 2086,
      "ĠÏĢÎ¿ÏĦÎŃ": 2087,
      "ÏĢÎ¿ÏħÎ»Î¿ÏĤ": 2088,
      "Î¹ÏĥÎ¼Î¿Ïį": 2089,
      "Î³Î¹Î±": 2090,
      "ÏĥÏĦÎ±Î½": 2091,
      "Î¤Îķ": 2092,
      "ĠÏĥÏįÏĥÏĦÎ·Î¼Î±": 2093,
      "ĠÏĦÏģÎ¹": 2094,
      "ĠÏĢÎ±Î¯": 2095,
      "ÏĦÎµÎ¯Î±": 2096,
      "Ġl": 2097,
      "Î¸ÏĮ": 2098,
      "Î¹ÎºÎ¿Î½Î¿Î¼": 2099,
      "ÏĮÏĦÎµÏģÎ±": 2100,
      "ĠÎ²Î¹Î¿": 2101,
      "ĠÎ·Î»Î¹Îº": 2102,
      "Î¾Î±": 2103,
      "ĠÏĢÎŃÏģÎ±": 2104,
      "ĠÎ¼ÎµÎ³Î¬Î»": 2105,
      "ĠÎĵÎµ": 2106,
      "ĠÎ¤Î¹": 2107,
      "ĠÎ±ÎºÎ¿Î»Î¿Ïħ": 2108,
      "ĠÎºÏħÏģÎ¯ÏīÏĤ": 2109,
      "ĠÎ¼Î¹Ïĥ": 2110,
      "Ġ17": 2111,
      "ÏĥÏĦÏĮÏĥÎ¿": 2112,
      "ĠÎ£ÏħÎ¼Î²": 2113,
      "ÏĩÏį": 2114,
      "ÏĢÎ·ÏģÎµ": 2115,
      "ĠÏĨÎ¹Î»Î¿": 2116,
      "ĠÎ¼Î¹": 2117,
      "ÏĦÏĥÎ±": 2118,
      "Î¼Î·ÏĤ": 2119,
      "op": 2120,
      "ĠÎľÎ¬": 2121,
      "ĠÎ±Ïį": 2122,
      "ÏĦÎ·ÏĥÎ·ÏĤ": 2123,
      "Î¼Î¿Î¯": 2124,
      "Î»Î¯Î´Î±": 2125,
      "ĠÏĥÎºÎŃ": 2126,
      "ĠÎ»ÏĮ": 2127,
      "ÏĦÏģÎ¿ÏĢ": 2128,
      "ĠÏĥÎº": 2129,
      "ÏĨÏį": 2130,
      "Î»Î®Î¼Î±ÏĦÎ±": 2131,
      "ĠÎĴÎ±Ïĥ": 2132,
      "ĠÎ±ÏħÏĦÎ¿Îº": 2133,
      "ĠÎºÏħÎ²ÎŃÏģÎ½Î·ÏĥÎ·": 2134,
      "ĠÎ¬Î»Î»ÎµÏĤ": 2135,
      "á¿¶Î½": 2136,
      "ÏĨÎµÎ¹": 2137,
      "ĠÎķÏħÏģÏīÏĢÎ±ÏĬ": 2138,
      "ÏĮÎ¼ÎµÎ½Î·": 2139,
      "ĠÏħÏĢÎ¿Ïĩ": 2140,
      "âĤ": 2141,
      "ĠÎºÎ±ÏĦÎ¬ÏĥÏĦÎ±ÏĥÎ·": 2142,
      "ĠÏĢÎ»Î±Î¯ÏĥÎ¹Î¿": 2143,
      "ÏĥÎ¼ÏĮ": 2144,
      "Î´ÏĮÎ½": 2145,
      "Î²Î¹": 2146,
      "um": 2147,
      "ÏĥÏĥÎµ": 2148,
      "ĠÏĪÏħ": 2149,
      "ĠÎī": 2150,
      "ÏģÏīÎ¼Î±": 2151,
      "Î¼Î¿ÏħÏĤ": 2152,
      "ĠÎĺÎµÏĥÏĥÎ±Î»Î¿Î½": 2153,
      "ĠÎ¼Î¹ÎºÏģÏĮ": 2154,
      "ĠÎ´Î¹ÎµÏħ": 2155,
      "ÏĥÏĦÎ¬ÏĥÎµÎ¹ÏĤ": 2156,
      "Î²Î´Î¿": 2157,
      "âĤ¬": 2158,
      "ĠÏĢÎ»Î·ÏģÎ¿ÏĨÎ¿ÏģÎ¯ÎµÏĤ": 2159,
      "ÏģÎµÎ¯ÏĦÎµ": 2160,
      "ÏĦÎ·ÏĥÎµ": 2161,
      "ĠÏĢÏģÎ¿ÎŃ": 2162,
      "ĠÏĮÎ»Î¿": 2163,
      "ĠÎ¿ÏĢÎ¿Î¯ÎµÏĤ": 2164,
      "ĠU": 2165,
      "ÏģÎ½": 2166,
      "Ġ...": 2167,
      "Î¶Î±Î½": 2168,
      "ĠÏħÏĢÎ®": 2169,
      "ĠÎ¶ÏīÎ®ÏĤ": 2170,
      "ÏħÏĥÎ·": 2171,
      "Î¿ÏħÏĥÎ±": 2172,
      "ÏĪÎ·ÏĤ": 2173,
      "ĠÎŃÎºÎ±Î½Îµ": 2174,
      "ĠÎ±ÎºÏģÎ¹Î²": 2175,
      "ĠÏĥÎ¹": 2176,
      "ÏĦÏģÎ¿ÏĨÎ®": 2177,
      "ĠÎĴÎ±": 2178,
      "ĠÎ¿Î¹ÎºÎ¿Î³ÎŃÎ½": 2179,
      "Î½Î¿ÏįÏĤ": 2180,
      "ÎŁÎľ": 2181,
      "ĠÎ£ÏĦÎ·Î½": 2182,
      "NE": 2183,
      "ĠÎ·Î»ÎµÎºÏĦÏģÎ¿Î½": 2184,
      "ĠÏĢÎ¿Î»Î¹ÏĦÎ¹ÎºÎ®": 2185,
      "ĠÏħÏĢÎµÏģ": 2186,
      "ÏĥÏĢ": 2187,
      "ÎµÎ¯ÏĦÎµ": 2188,
      "ĠÎµÎ¯ÏĢÎµ": 2189,
      "ĠÏĥÏĦÎ®": 2190,
      "ĠÏĥÏħÎ¼ÏĢÎµÏģÎ¹": 2191,
      "ĠÏĦÎ¿á¿¦": 2192,
      "Î¶ÏĮ": 2193,
      "Î¶Î¿Î½ÏĦÎ±Î¹": 2194,
      "Î¹Î¿Î¹": 2195,
      "ĠÎ¹ÏĥÏĦÎ¿ÏģÎ¯Î±": 2196,
      "Î´Ïį": 2197,
      "ÎºÎ¿ÏĤ": 2198,
      "á½²": 2199,
      "ĠÏĮÎ»Î·": 2200,
      "Î¾Î¿": 2201,
      "ÏĦÎ¹ÏĥÎ¼Î¿Ïį": 2202,
      "Î¾Î¿ÏħÎ½": 2203,
      "Î»Î¹ÏĤ": 2204,
      "ĠÏĢÎ±Î³": 2205,
      "ĠÏĢÎ¹Î¸Î±Î½": 2206,
      "ĠÏĢÏģÏĮÎ²": 2207,
      "ÏĢÎµÎ¶": 2208,
      "ĠÎ²ÏģÎ¯ÏĥÎº": 2209,
      "ĠÏģÎ¿": 2210,
      "ÎºÎ¿Î»Î¿Ïħ": 2211,
      "ĠÎŃÏģÎ³Î¿": 2212,
      "ĠÎµÎ¼ÏĢÎµÎ¹": 2213,
      "ĠÏĢÏģÎ¿ÎºÎ±": 2214,
      "ĠÎĳÏĢ": 2215,
      "ĠÎ´Î¹Î±Î´Î¹ÎºÎ±ÏĥÎ¯Î±": 2216,
      "ĠÎ¼ÏĢÎ¿ÏģÎµÎ¯ÏĦÎµ": 2217,
      "ĠÎ±ÏģÎ³": 2218,
      "Ġ24": 2219,
      "Î¯ÏīÏĥÎ·": 2220,
      "ÏĢÎ¯ÏĥÎ·ÏĤ": 2221,
      "ÏĦÏģÎ¿ÏĢÎ®": 2222,
      "ÏĦÏģÎµ": 2223,
      "ÏģÎ®ÏĥÎµÎ¹ÏĤ": 2224,
      "ĠÎ»Î¿Î³": 2225,
      "Î»Î¿Î³Î¯Î±ÏĤ": 2226,
      "Î±ÏĥÎ¯Î±ÏĤ": 2227,
      "Î¿ÏħÎ»Î¯Î¿Ïħ": 2228,
      "Ġ)": 2229,
      "ĠÎŃÏģÎµ": 2230,
      "ĠÎķÎ¹": 2231,
      "ĠÎµÏĢÎ¹ÎºÎ¿Î¹Î½ÏīÎ½": 2232,
      "ÏģÏĩÎµÏĦÎ±Î¹": 2233,
      "ĠÎĳÎ¸Î®Î½Î±": 2234,
      "ĠÎµÎ½Î±": 2235,
      "ĠÎ´Î¹Î¬ÏĨÎ¿": 2236,
      "ĠÎ³ÎµÎ³Î¿Î½ÏĮÏĤ": 2237,
      "ĠÏĨÎ¹Î»": 2238,
      "ĠÏĦÎŃÏĦÎ¿": 2239,
      "50": 2240,
      "ÏĩÎµÎ¯Î¿": 2241,
      "ÏĩÎ¿ÏħÏĤ": 2242,
      "ĠÎ³Î±": 2243,
      "ers": 2244,
      "ĠÎķÎĽ": 2245,
      "ÏģÏħÏĥ": 2246,
      "ul": 2247,
      "Î®ÏĥÎµÎ¹": 2248,
      "ÏģÎ±Î¹": 2249,
      "ĠÏĢÎ¯ÏĥÏī": 2250,
      "ĠÎ¸ÎŃÎ»": 2251,
      "ĠÏģÎµ": 2252,
      "ĠÏĦÎ¼Î®": 2253,
      "ĠÎłÎĳ": 2254,
      "ĠÎµá¼": 2255,
      "ĠÎµÏĢÎ±Î½Î±": 2256,
      "Î²Î±Ïĥ": 2257,
      "ĠÎ¿Î»Î¿ÎºÎ»Î·": 2258,
      "ĠÏĩÏİÏģÎ±ÏĤ": 2259,
      "Î»Î¯Î±ÏĤ": 2260,
      "ĠÎºÎ±Î»Î¿": 2261,
      "ĠÎµÏĢÎ±Î³Î³ÎµÎ»Î¼Î±": 2262,
      "art": 2263,
      "ÎŁÎĵ": 2264,
      "Î±ÏĦÏģ": 2265,
      "ĠÎ±ÏĢÏĮÏĨÎ±ÏĥÎ·": 2266,
      "ĠÎ±ÏĢÎ¿ÏĦÎµÎ»ÎŃ": 2267,
      "ow": 2268,
      "ĠÏĢÏģÎ¿Ïĭ": 2269,
      "ĠÏĦÎµÏĩÎ½": 2270,
      "200": 2271,
      "ĠÎºÎ±Î¸Î·Î¼ÎµÏģÎ¹Î½": 2272,
      "ĠÎŃÏĩÏī": 2273,
      "ĠÎĴÎ¿Ïħ": 2274,
      "ÏĦÏģÎ¬": 2275,
      "ĠÏĢÏģÎ¿ÏĥÏĢÎ±": 2276,
      "Ġ2017": 2277,
      "ĠÎ²ÎµÎ»": 2278,
      "ÏĦÏĤ": 2279,
      "ĠÎºÎ±Î»Î»Î¹": 2280,
      "Î»Î±Ïĥ": 2281,
      "ĠÎłÎ±Î½Î±": 2282,
      "ri": 2283,
      "ĠÏĥÏĢÎ¯ÏĦÎ¹": 2284,
      "ĠÏĢÎµÏģÎ¹Î»Î±Î¼Î²": 2285,
      "ĠÎµÎ¾ÏīÏĦÎµÏģ": 2286,
      "ĠÏĢÏģÎ¿ÎºÎµÎ¹": 2287,
      "ĠÎµÎ¾Î±Î¹ÏģÎµ": 2288,
      "ĠÎºÎ¿Î¼": 2289,
      "Î¼ÎŃÎ½Î·ÏĤ": 2290,
      "ĠÏĦÎ¯ÏĦ": 2291,
      "Î´Î¿ÏħÏĤ": 2292,
      "ĠÎµÎ¯ÏĩÎ±": 2293,
      "ĠÎ¤ÎŁÎ¥": 2294,
      "Î»Î»Î·Î»Î±": 2295,
      "ĠÏĥÎµÎ¹ÏģÎ¬": 2296,
      "ÏĦÏģÏĮ": 2297,
      "ĠÏĢÏģÏĮÏĥÏī": 2298,
      "ÏģÎ·ÏĥÎ·ÏĤ": 2299,
      "Î£ÏĦÎ¿": 2300,
      "ÎĳÎļ": 2301,
      "ĠÎłÏģÏī": 2302,
      "ĠÎ²Î¿Ïħ": 2303,
      "ĠÎºÏģÎ¹": 2304,
      "Î¸ÏįÎ½": 2305,
      "Î¿Î»ÏĮÎ³": 2306,
      "Ġá½ģ": 2307,
      "ÏĮÏĦÎ¹": 2308,
      "ĠÎµÎºÎ»Î¿Î³": 2309,
      "ÎĻÎļÎĹ": 2310,
      "Î»ÎµÏįÎ¸Îµ": 2311,
      "ĠÎ±Î½Îµ": 2312,
      "ÏĥÎºÎµÏħÎ®": 2313,
      "ÏīÎ¸ÎµÎ¯": 2314,
      "Î¸ÎŃÏĥÎµÎ¹ÏĤ": 2315,
      "ĠÎłÎ±Î½ÎµÏĢÎ¹Ïĥ": 2316,
      "ĠÎ´ÏħÎ½Î±ÏĦÏĮÏĦÎ·ÏĦÎ±": 2317,
      "ÏģÎ¼Î±": 2318,
      "up": 2319,
      "ÏģÎ¯Î¶ÎµÏĦÎ±Î¹": 2320,
      "Ġin": 2321,
      "ĠÏĥÏħÏĥÏĦÎ®": 2322,
      "ĠÏģÏħÎ¸": 2323,
      "ĠÎ³Î¿Î½": 2324,
      "ĠÎľÏĢÎ¿": 2325,
      "ÏĢÎ¬Î½Ïī": 2326,
      "ĠÎ½Î¿Î¼": 2327,
      "ew": 2328,
      "ut": 2329,
      "ĠÏĦÎ¿ÏĢÎ¿Î¸Îµ": 2330,
      "ÎľÎķ": 2331,
      "ĠÎĵÎ±": 2332,
      "ÏĨÎ¬": 2333,
      "ÏģÎ¯Î´Î±": 2334,
      "Ġg": 2335,
      "ĠÎ»ÏĮÎ³Î¿": 2336,
      "ÏģÎ¹ÎºÏĮ": 2337,
      "ĠÎºÎ¯Î½": 2338,
      "ww": 2339,
      "Î¼ÎŃÎ½Î¿ÏħÏĤ": 2340,
      "ÏģÎ¹Î¿ÏĤ": 2341,
      "ĠÎľÎķ": 2342,
      "ĠÏİÏģÎµÏĤ": 2343,
      "ĠÏĢÏģÎ¿Î·Î³Î¿ÏįÎ¼Îµ": 2344,
      "ĠÎ¬Î»Î»ÏīÎ½": 2345,
      "ÏĢÏĦÏİÏĥÎµÎ¹ÏĤ": 2346,
      "Î¸Î·Î¼Î±": 2347,
      "ĠÎºÎ±Î½ÎµÎ¯ÏĤ": 2348,
      "ĠÏĥÏħÏĩÎ½": 2349,
      "ĠÏĥÎ·Î¼Î±Î½ÏĦÎ¹ÎºÏĮ": 2350,
      "ĠÎ²ÏģÎ±": 2351,
      "Î¼Î®ÏĤ": 2352,
      "ĠÎ¨": 2353,
      "CE": 2354,
      "ĠÏĦÎµÏĩÎ½Î¿": 2355,
      "ÏĦÎ®Î¼Î±ÏĦÎ±": 2356,
      "ÏĥÏĨÎ±Î¹": 2357,
      "Î¯ÏĥÎµÎ¹": 2358,
      "ÎºÎ¿Î¯Î½": 2359,
      "ÏģÎµÏĦÎ±Î¹": 2360,
      "ÏģÎ¹Î±ÎºÎ®": 2361,
      "Î®Î½": 2362,
      "ÎĶÎµÎ½": 2363,
      "ï¿": 2364,
      "ÎºÏĮÏĤ": 2365,
      "ĠÏĦÎ¹Î¼Î®": 2366,
      "ï¿½": 2367,
      "ĠÎĳÎ¹": 2368,
      "ĠÏĨÎ±Î¯Î½ÎµÏĦÎ±Î¹": 2369,
      "Î½ÏīÏĥÎ·": 2370,
      "ÎĳÏĢÏĮ": 2371,
      "ÏĢÎ¿Î¯Î·ÏĥÎ·ÏĤ": 2372,
      "ĠÎµÎ²Î´Î¿": 2373,
      "ÏĦÎµÏģÎ·": 2374,
      "ĠÎµÎ»ÎŃ": 2375,
      "ĠÏĥÏħÎ½Î´Ïħ": 2376,
      "ĠÎµÏģÎ³Î±ÏĥÎ¯Î±ÏĤ": 2377,
      "ĠÏĢÏģÎ¿ÏĥÏīÏĢÎ¹ÎºÏĮ": 2378,
      "ĠÎµÏĢÎµÎ¹Î´Î®": 2379,
      "ĠÏĢÎ±ÏģÎ±Î³ÏīÎ³": 2380,
      "Î¯Î³Î¿Ïħ": 2381,
      "Î»ÏİÏĤ": 2382,
      "ra": 2383,
      "ĠÎ±ÏħÏĦÏĮÏĤ": 2384,
      "ĠÏĦá¿ĨÏĤ": 2385,
      "Î¼ÎµÏģÎ¹Îº": 2386,
      "ĠÏĨÏĦÎ¬": 2387,
      "Î¶Î¹": 2388,
      "eb": 2389,
      "ĠÏĨÎŃÏģ": 2390,
      "Î»ÎµÎ¹Î±": 2391,
      "ĠÎµÎ¼ÏĢÎ¿": 2392,
      "ĠÎ¾ÎŃ": 2393,
      "ÎºÎ¿ÏĢ": 2394,
      "ĠÎµÏħÎºÎ±Î¹": 2395,
      "Î¸ÏħÎ½ÏĥÎ·": 2396,
      "Î´ÎµÎ¹Îº": 2397,
      "ĠÎºÏħÎºÎ»Î¿": 2398,
      "ĠÎ±Î½ÏĦÎ¹Î¼ÎµÏĦÏī": 2399,
      "ĠSt": 2400,
      "ÏĩÎ¬": 2401,
      "ĠÏĢÎµÏģÎ¹Î²Î¬Î»Î»Î¿Î½": 2402,
      "ĠÏĢÏģÎ¬Î³Î¼Î±ÏĦÎ±": 2403,
      "ÏĨÏģÎ¬": 2404,
      "ÎłÎķ": 2405,
      "ĠÎ¼ÎŃÎ»Î·": 2406,
      "Î½Î±Î¹": 2407,
      "ĠÎµÎ½Î·Î¼Îµ": 2408,
      "Î³Î³Îµ": 2409,
      "Î½Î¿ÏħÏĤ": 2410,
      "ĠÏħÏĢÎŃ": 2411,
      "ĠÎłÎ¬": 2412,
      "ÏģÎ®Î³Î¿": 2413,
      "Î´Î¹ÎºÎ¬": 2414,
      "ĠÏĢÏī": 2415,
      "ĠÏĩÏģÏİ": 2416,
      "ĠÎµÎ½Î´Î¹Î±ÏĨÎŃÏģÎ¿Î½": 2417,
      "ĠÏĢÏĮÎ»Î·": 2418,
      "ĠÎµÏĢÎ¹Î»ÎŃ": 2419,
      "ĠÎ´Î¹ÎµÎ¸Î½": 2420,
      "ĠÎ¹ÏĥÏĩÏħ": 2421,
      "ĠÎºÎ¿Î½ÏĦÎ¬": 2422,
      "Î±ÏħÏĦÏĮ": 2423,
      "ĠÎĶÎµ": 2424,
      "ĠÏĥÏįÎ³Ïĩ": 2425,
      "Ġe": 2426,
      "ĠÎ¿ÏĢ": 2427,
      "Î¹Î½Î¬": 2428,
      "18": 2429,
      "ÏģÎ¹ÏĥÏĦÎµ": 2430,
      "ĠÎ¸Ïħ": 2431,
      "Î¹ÏĥÎ¼ÏĮÏĤ": 2432,
      "ĠÏĢÎ±ÏģÎ±ÏĢÎ¬Î½Ïī": 2433,
      "ĠÏĢÏģÎ¿ÎºÎµÎ¹Î¼ÎŃÎ½Î¿Ïħ": 2434,
      "ĠÎ²ÏģÎ¬": 2435,
      "ĠÎµÏĥÏīÏĦÎµÏģ": 2436,
      "ĠÎ´Î¯Îº": 2437,
      "ĠÎŃÏĩÎµÏĦÎµ": 2438,
      "ÏĦÎ¹ÏĥÎ¼ÏĮ": 2439,
      "Î®Î¸": 2440,
      "ĠÏħÎ³Îµ": 2441,
      "ÏĨÎµÎ¯": 2442,
      "Î³ÎµÏĦÎ±Î¹": 2443,
      "ess": 2444,
      "ĠÎ¼ÎŃÏģÎ±": 2445,
      "ĠÎµÏģÏī": 2446,
      "ine": 2447,
      "ĠÏĥÎ·Î¼ÎµÎ¹": 2448,
      "ÏģÏģÎ¿": 2449,
      "Î»Î¹ÎºÎ®": 2450,
      "ĠÎ´Î¿ÏħÎ»ÎµÎ¹": 2451,
      "Î²Î¯": 2452,
      "ĠÎµÏĢÎ¯ÏĢÎµÎ´Î¿": 2453,
      "15": 2454,
      "Î¼Î·Î½": 2455,
      "ĠÏĮÎ»ÏīÎ½": 2456,
      "ÏĥÎµÏĤ": 2457,
      "ĠÎ´ÎµÎºÎ±": 2458,
      "Î²Î¿Î»Î®": 2459,
      "ab": 2460,
      "ĠÏĢÏģÏĮÎ²Î»Î·Î¼Î±": 2461,
      "ĠÎ£ÏĩÎ¿Î»": 2462,
      "ĠIn": 2463,
      "Î±Î¹Ïĥ": 2464,
      "ÏĦÎ¹ÏĤ": 2465,
      "ĠÎºÎ±Î¸Î¿": 2466,
      "Î»Î¬ÏĩÎ¹ÏĥÏĦÎ¿Î½": 2467,
      "ĠÏĢÎ»Î¬": 2468,
      "ĠÎºÎ¬ÏĢÎ¿Î¹": 2469,
      "Î³Î±Î½": 2470,
      "ÏĥÎ¯Î¿Ïħ": 2471,
      "ĠÎµÏĦÏİÎ½": 2472,
      "ĠÏĢÏģÎ¿ÏĥÎµ": 2473,
      "ĠÏĥÏĢÎ¿Ïħ": 2474,
      "ÏħÏĢ": 2475,
      "ĠÎ¼Î¬Î»Î¹ÏĥÏĦÎ±": 2476,
      "ĠÎłÎŃ": 2477,
      "!!!": 2478,
      "Î´ÎµÏį": 2479,
      "ĠÎ»ÎµÎ¹ÏĦÎ¿ÏħÏģÎ³Î¯Î±": 2480,
      "ĠÎ±Î³ÏİÎ½Î±": 2481,
      "ĠÏĢÏģÎ¿Î²Î»Î®Î¼Î±ÏĦÎ±": 2482,
      "ĠÎ»ÎŃÎµÎ¹": 2483,
      "ĠÏĩÎ±Î¼Î·": 2484,
      "Î¼Î¿ÎºÏģÎ±": 2485,
      "Î¹Î½Î±Î¹": 2486,
      "ĠÎ¹Î´Î¹Î±Î¯ÏĦÎµÏģÎ±": 2487,
      "ÎºÏģ": 2488,
      "ĠÎ±ÏĢÎ±Î½": 2489,
      "ĠÎ´ÏħÎ¿": 2490,
      "ĠÏĢÎ¿ÏĥÎ¿": 2491,
      "ĠÏĢÏİÏĤ": 2492,
      "Î¹Î½ÏĮ": 2493,
      "ĠÎŁÎº": 2494,
      "Î¬Î½ÏĦÎ·ÏĥÎ·": 2495,
      "ÎĻÎŁ": 2496,
      "ĠÏĦá½¸": 2497,
      "ik": 2498,
      "ation": 2499,
      "ÏĥÏĦÎ¹Î±": 2500,
      "Î¼Î¹ÎºÏĮ": 2501,
      "ĠÎ±ÏĥÏĨÎ¬Î»": 2502,
      "Ġn": 2503,
      "Î²Î¬Î»": 2504,
      "ĠÏĥÎ·Î¼ÎµÎ¯Î¿": 2505,
      "Î¼Î·ÏĥÎ·": 2506,
      "ĠÎ¬Î½Î¸ÏģÏīÏĢÎ¿Î¹": 2507,
      "Ġ=": 2508,
      "ÏĦÎ¯Î¿Ïħ": 2509,
      "Ġ'": 2510,
      "ĠÎºÎ±Î»ÏĮ": 2511,
      "ĠÎ´ÏģÎ±ÏĥÏĦÎ·ÏģÎ¹": 2512,
      "ĠÎµÏĢÎ¹Î¸Ïħ": 2513,
      "ÏģÎ¯Î¶Î¿ÏħÎ½": 2514,
      "ĠÎ´ÏįÎ½Î±": 2515,
      "ĠÏĦÎ±Î¹Î½": 2516,
      "ĠÎºÎµÏģ": 2517,
      "ĠÎ±ÏħÏĦÏİÎ½": 2518,
      "ĠÎºÎ±Î»Î®": 2519,
      "ĠÎ´Ïİ": 2520,
      "\",": 2521,
      "ĠÎĳÎ¸Î·": 2522,
      "ĠÎķÎ»Î»Î¬Î´Î±ÏĤ": 2523,
      "ĠÎ±ÏĢÎ±ÏģÎ±Î¯": 2524,
      "ÎŃÎ²Î±Î¹": 2525,
      "ÏĪÎ®": 2526,
      "ĠÎ±Î½Î¬ÏĢÏĦÏħÎ¾Î·": 2527,
      "Î³ÎºÎ±": 2528,
      "ĠÎ±Î½Î®": 2529,
      "ÏİÎ½ÎµÏĦÎ±Î¹": 2530,
      "ĠÎķÎł": 2531,
      "ĠÏĢÏģÎ¿Î³ÏģÎ¬Î¼": 2532,
      "ÏĦÎ¯ÎµÏĤ": 2533,
      "Î»ÎµÏħÎ¸Îµ": 2534,
      "ÏĦÎ®ÏĦÏīÎ½": 2535,
      "ĠÎ±Î½Î±ÎºÎ¿Î¯Î½": 2536,
      "ÏĦÎ·ÏĦÎµÏĤ": 2537,
      "Î²Î®": 2538,
      "com": 2539,
      "Î»ÎµÎ¹Î¿": 2540,
      "Î£ÏĦÎ·Î½": 2541,
      "ÏĢÎ±Ïģ": 2542,
      "ĠÎ¸ÎµÏģÎ±": 2543,
      "ĠÏĢÎ±Ïģ": 2544,
      "ÎµÎ¯Î±": 2545,
      "ÏħÎ³": 2546,
      "ÏĦÎ¬ÏĥÎµÎ¹ÏĤ": 2547,
      "ĠÎ£Î¬": 2548,
      "ĠÎ±ÎµÏģÎ¿": 2549,
      "Ġ21": 2550,
      "ÏĥÏĦÎ®ÏģÎ¹": 2551,
      "ĠÎ±ÏĨÎ¿": 2552,
      "ĠÏĥÎ¿Î²Î±": 2553,
      "ÏģÎ¿ÏįÎ¼Îµ": 2554,
      "Ġ100": 2555,
      "ĠÎ´Î±": 2556,
      "ĠÎ¸ÎŃÎ¼Î±ÏĦÎ±": 2557,
      "th": 2558,
      "ÏĮÏĦÎµÏģÎ¿": 2559,
      "ÏĦÏģÎ¿Ïħ": 2560,
      "ÏĢÏģÎµ": 2561,
      "Î´ÏĮÏĦÎ·": 2562,
      "ÏĢÎ»ÎŃÎ¿Î½": 2563,
      "ĠÎļÎ¹": 2564,
      "ÎºÎ»Î®": 2565,
      "Î¹ÏİÏģÎ³": 2566,
      "Î½Î¿Î¹Î±": 2567,
      "ÏĨÎ¬Î½": 2568,
      "ĠÏĥÏĩÎµÎ´Î¹Î±": 2569,
      "ĠÏĦÏĮÎ½": 2570,
      "á½´Î½": 2571,
      "Ġv": 2572,
      "ĠÎĵÏģÎ±": 2573,
      "ĠÏĢÎµÏģÎ¯Î¿Î´Î¿": 2574,
      "Î¼Î¹ÏĥÎ·": 2575,
      "ĠÎ±Î½ÏĦÎ¯ÏĥÏĦÎ¿Î¹": 2576,
      "ĠÎ¼ÎµÎ»ÎŃ": 2577,
      "ÏģÎ¹ÏİÎ½": 2578,
      "ĠÎµÎ½ÏĦÎ¿": 2579,
      "Î¹ÎºÎ±": 2580,
      "ĠÎµÏĢÎ¹ÏĥÎºÎŃ": 2581,
      "Î¸Î®ÎºÎµÏĤ": 2582,
      "Ġof": 2583,
      "Î¼Î¹ÎºÎ®": 2584,
      "ĠÎłÎ±Î¹": 2585,
      "Î·ÏĥÎµ": 2586,
      "ĠÏĦÎ±ÏħÏĦÏĮ": 2587,
      "ÏĨÎ¿ÏģÎŃÏĤ": 2588,
      "Î»Î±Îº": 2589,
      "ÏĢÎ¹Î±": 2590,
      "ĠÎ³Î¬": 2591,
      "ÏĨÎŃÏĤ": 2592,
      "ÏĥÏĦÎ±ÏĥÎ·ÏĤ": 2593,
      "Î´ÎµÎ¹Î³Î¼Î±": 2594,
      "ÏĢÎ¿Î¹Î·Î¸ÎµÎ¯": 2595,
      "ĠÎ±Î½Î±Îº": 2596,
      "ĠÎ£ÎµÏĢ": 2597,
      "ĠÎµÎ¹ÏĤ": 2598,
      "ĠÏħÏĢÎ¿ÏĩÏģÎµ": 2599,
      "Î¤Î·Î½": 2600,
      "ĠÎ³ÏģÎ®Î³Î¿": 2601,
      "ĠÎµÏĢÎ¹ÏĦÏħÏĩ": 2602,
      "ÏĢÎ¿ÏĦÎ±": 2603,
      "Î²Î±ÏĥÎ·": 2604,
      "ĠÎ¦Îµ": 2605,
      "ĠÎ·Î¼ÎŃÏģÎ±": 2606,
      "ĠÏĢÎ·": 2607,
      "ĠÏĢÎ±Î¹ÏĩÎ½Î¯Î´Î¹": 2608,
      "ĠÎĶÎ¹Î¿": 2609,
      "\".": 2610,
      "ĠÎķÎ¯": 2611,
      "ook": 2612,
      "ÏģÎµÎ¯Î±ÏĤ": 2613,
      "ĠÏĥÏħÎ½ÏĦÎ±": 2614,
      "ĠÎµÎ²Î´Î¿Î¼Î¬": 2615,
      "ÎºÎ¿Î»Î±": 2616,
      "oc": 2617,
      "ĠÏĢÎ¬Î»Î¹": 2618,
      "ĠÎŁÎ¹ÎºÎ¿Î½Î¿Î¼": 2619,
      "ĠÎ¿ÏĦÎ¹": 2620,
      "Ġ2016": 2621,
      "ĠÏĢÎµÏģÎ¹ÏĥÏĥÏĮÏĦÎµÏģÎ±": 2622,
      "ĠÎ³ÏįÏģÏī": 2623,
      "Î¸Î¹": 2624,
      "ÏĨÎ¹Î±": 2625,
      "ĠÎ¹ÏĥÎ¿": 2626,
      "ĠÎµÎ¹Î½Î±Î¹": 2627,
      "ĠÎ¬ÏģÎ¸ÏģÎ¿": 2628,
      "ÎłÎµ": 2629,
      "ÏģÏīÏĥÎ·ÏĤ": 2630,
      "Ġ50": 2631,
      "ĠÏħÏĢÏĮÎ»Î¿Î¹": 2632,
      "ĠÎ²Î¹Î²Î»Î¯": 2633,
      "ĠÏĥÏįÎ½Î¿": 2634,
      "ĠÎ±ÏħÏĦÎ¿ÏįÏĤ": 2635,
      "Î´ÏİÎ½": 2636,
      "ĠÎ½ÎµÏģÏĮ": 2637,
      "ĠÎ¼ÏĢÏģÎ¿": 2638,
      "ĠÎ¼Î¿Î½Î¬": 2639,
      "ak": 2640,
      "ĠÏĢÏģÎ±Îº": 2641,
      "ÏĩÎ±ÏģÎ¹Ïĥ": 2642,
      "ÎµÎ¯Î¼ÎµÎ½Î¿": 2643,
      "Î´Î¹ÏİÎ½": 2644,
      "ĠÎ±ÏħÏĦÏĮÎ½": 2645,
      "ĠÎľÎ±Ïģ": 2646,
      "ĠÎ¤Î·Î½": 2647,
      "ÏĮÎ´Î¿Ïħ": 2648,
      "ĠÎ´ÏĮ": 2649,
      "ĠÎ±ÏħÏĦÎ®ÏĤ": 2650,
      "Ġ22": 2651,
      "ĠÏĦÎ±Î¾": 2652,
      "ĠÎµÎ³Ïİ": 2653,
      "ÏĩÎ¸ÎµÎ¯": 2654,
      "ÎľÎĳ": 2655,
      "Î¯Î¶Î¿Î½ÏĦÎ±Î¹": 2656,
      "ÎºÎµÎ´Î¿Î½": 2657,
      "Î»Î¹Î½": 2658,
      "Î»Î¯ÎµÏĤ": 2659,
      "ÎķÎĻÎ£": 2660,
      "od": 2661,
      "ĠÎ±Î¸Î»Î·": 2662,
      "ÏīÎ½ÏĥÏĦÎ±Î½": 2663,
      "Î³Î¿ÏħÎ½": 2664,
      "ÏĦÎ®ÏģÎ±": 2665,
      "ÏİÎ½ÎµÏĤ": 2666,
      "est": 2667,
      "Î¯ÎºÎµÏĤ": 2668,
      "ĠÎľÏĢ": 2669,
      "ĠÎµÎ¬Î½": 2670,
      "ÏĨÏģÎ±": 2671,
      "ĠÏĥÏħÎ½ÎµÏģÎ³Î±ÏĥÎ¯Î±": 2672,
      "ĠÎ¤Î¿ÏħÏģÎº": 2673,
      "ĠÎ±ÏĢÎµ": 2674,
      "ÎłÏģÎ¿": 2675,
      "--": 2676,
      "ĠÎĻÏī": 2677,
      "ĠÎ±ÏĥÏĦÏħÎ½Î¿Î¼": 2678,
      "Î¡Îĵ": 2679,
      "Î¯Î´Î¹Î±": 2680,
      "ĠÎ´ÏħÎ½Î¬": 2681,
      "Î²Î±Î½": 2682,
      "ĠÏĥÎ·Î¼Î±Î¯Î½ÎµÎ¹": 2683,
      "ĠÎ±ÎºÎ¿Ïį": 2684,
      "Î¬ÏĤ": 2685,
      "ĠÏĦÏģÎµÎ¹ÏĤ": 2686,
      "Î³ÎµÏĤ": 2687,
      "ÎļÎ±Î¹": 2688,
      "ĠÎ´ÎµÎ¯ÏĩÎ½": 2689,
      "ĠÎĵÎµÏģÎ¼Î±Î½": 2690,
      "ĠÎļÏĮ": 2691,
      "ĠÏĥÏħÎ¼Î²Î±": 2692,
      "ĠÎ¥ÏĢÎ¿": 2693,
      "ÏīÏģÎ³": 2694,
      "ÏģÎ¹ÏĥÎ¼ÏĮ": 2695,
      "Î¯Î´Î±": 2696,
      "ĠÏĥÏħÎ»Î»Î¿": 2697,
      "ÏģÎµÎ¯ÏĦÎ±Î¹": 2698,
      "ĠÎŃÏģÎµÏħÎ½Î±": 2699,
      "ÏĥÏĦÎ·ÎºÎ±Î½": 2700,
      "ÏĦÎ·ÎºÎµ": 2701,
      "Î»ÎµÎ¹Ïĥ": 2702,
      "ĠÎºÏħÎ²ÎµÏģ": 2703,
      "ÎºÎµÏĨ": 2704,
      "ĠÎłÎ±ÏĢÎ±": 2705,
      "ĠÎĻÏĥ": 2706,
      "ĠÏĪÏħÏĩ": 2707,
      "ĠÎ±ÏģÎºÎµÏĦÎ¬": 2708,
      "Ġá½ħ": 2709,
      "ĠÎ±ÏģÏĩÎ®": 2710,
      "Î¬ÏģÎ¹Î±": 2711,
      "ĠÎļÎ±ÏĦÎ¬": 2712,
      "ĠÂ»": 2713,
      "ÏĢÏĦÎµÎ¹": 2714,
      "ĠÎ»Î®": 2715,
      "ĠÎķÎļ": 2716,
      "ÏĪÎ¿ÏħÎ½": 2717,
      "Î½Î¿ÏįÎ½": 2718,
      "ĠÎļÎ¿Ïħ": 2719,
      "ĠÏĥÏĩÎµÎ´ÏĮÎ½": 2720,
      "ÏĮÎ½Î¹": 2721,
      "ĠÎºÎ¿ÏģÏħ": 2722,
      "Î¬Î¶ÎµÎ¹": 2723,
      "ĠÎµÏĨÎ±ÏģÎ¼Î¿Î³Î®": 2724,
      "ĠÏĦÎ¿ÏħÎ»Î¬ÏĩÎ¹ÏĥÏĦÎ¿Î½": 2725,
      "ĠÏĢÎ±Î¹Î´Î¯": 2726,
      "ÎºÎ¿Ïĥ": 2727,
      "Î²Î²Î±": 2728,
      "Î»ÏİÏĥÎµÎ¹ÏĤ": 2729,
      "ĠÎ¤Îµ": 2730,
      "ÏĩÎ¿Ïħ": 2731,
      "ÏħÎ½Î±Î¹": 2732,
      "ĠÎ±ÏĢÎ»Î¬": 2733,
      "ĠÎ±Î½Î¸ÏģÏİÏĢÎ¿ÏħÏĤ": 2734,
      "ĠÎ¬ÏĦÎ¿Î¼Î±": 2735,
      "ÏĨÎŃÏģÎ¿ÏħÎ½": 2736,
      "ĠÎ¼ÎŃÏģÎµÏĤ": 2737,
      "ĠÎ³ÏģÎ±ÏĨ": 2738,
      "Î¬Î½Î¿ÏħÎ½": 2739,
      "ĠÎµÏĢÎ¹Î»Î¿Î³Î®": 2740,
      "ĠÎĵÎ¹ÏİÏģÎ³": 2741,
      "ĠÏĢÎ±ÏģÎ¿": 2742,
      "Î»Î·ÏĪÎ·": 2743,
      "ÏģÎ¹ÎºÎŃÏĤ": 2744,
      "ĠÏĥÎ¯Î³Î¿Ïħ": 2745,
      "Ġ2015": 2746,
      "Ġá¼Ķ": 2747,
      "Î¹Î»Î¹Î¬": 2748,
      "ÏĩÏīÎ½": 2749,
      "ĠÎ¼Î®Î½ÎµÏĤ": 2750,
      "ĠÏħÏĢÎ·ÏģÎµÏĥÎ¯ÎµÏĤ": 2751,
      "Î¼Î¯Î¿Ïħ": 2752,
      "ĠÎ´Î¹Î±ÏĦÎ¬": 2753,
      "ĠÎ·Î¼ÎŃÏģÎµÏĤ": 2754,
      "ĠÎ²ÏģÎµ": 2755,
      "ÎŃÎ²Î±Î¹Î±": 2756,
      "ĠÎ¿Î¹Îº": 2757,
      "ĠÎµÎ³Î³": 2758,
      "ĠÎ¼ÎŃÏĦÏģÎ±": 2759,
      "ĠÎ±ÏĢÎ¿ÏĦÎµÎ»Îµ": 2760,
      "ĠÎ´Î®Î»Ïī": 2761,
      "ĠÎľÎµÏĦÎ±": 2762,
      "ĠÏĨÎŃ": 2763,
      "ĠÎ±ÎºÏģÎ¹Î²ÏİÏĤ": 2764,
      "ĠÎ¹Î´Î¹Î¿": 2765,
      "ĠÎĳÎłÎŁ": 2766,
      "ÎķÎł": 2767,
      "Ġ199": 2768,
      "ĠÎĶÎ®Î¼Î¿Ïħ": 2769,
      "Ġ23": 2770,
      "Î¼ÎŃÎ±": 2771,
      "ĠÏĦÏģÎŃ": 2772,
      "ue": 2773,
      "ĠÎ¹ÏĥÏĩÏį": 2774,
      "ĠÏĨÎ¿ÏģÎ¿": 2775,
      "Î¯Î½Î¿Î½ÏĦÎ±Î¹": 2776,
      "ÎķÎ¯Î½Î±Î¹": 2777,
      "Î¸Ïİ": 2778,
      "ĠÎĮÏĦÎ±Î½": 2779,
      "ĠÏĥÏħÎ½Î±Î½": 2780,
      "ĠÏĩÏİÏģÎµÏĤ": 2781,
      "Î¹ÏĥÏĦÎ¿": 2782,
      "ÏģÎ¿ÏįÏĤ": 2783,
      "ĠÎ´Î¹Î±ÏĦÎ·": 2784,
      "ĠÎ¯ÏĥÏīÏĤ": 2785,
      "Î¬ÏĥÎµÎ¹ÏĤ": 2786,
      "ÎµÏģÎ¬": 2787,
      "ÎºÎ±Î»Ïį": 2788,
      "Î²Î»Î·": 2789,
      "ĠÎ±ÏħÏĦÎ®Î½": 2790,
      "14": 2791,
      "ÎºÎµÏħ": 2792,
      "ĠÏĢÎ¿Î»Î¯": 2793,
      "ÏĦÎ·Î³": 2794,
      "ÎµÎ¹ÎµÏĤ": 2795,
      "ĠÎ´Î¹Î¬ÏĥÏĦÎ·Î¼Î±": 2796,
      "ĠÎµÎºÏĢÎ±Î¯Î´ÎµÏħ": 2797,
      "Î»Î»ÎµÎ¹": 2798,
      "ĠÏĢÏģÎ¿ÏĬÏĮÎ½ÏĦÎ±": 2799,
      "ĠÎµÎ³ÎºÎ±ÏĦÎ±": 2800,
      "ĠÎķÏĢ": 2801,
      "ĠÏĢÎ¹ÏĥÏĦÎµÏį": 2802,
      "ĠÏĥÏħÎ¼Î¼ÎµÏĦÎ¿ÏĩÎ®": 2803,
      "ÏĩÏĮ": 2804,
      "ÏĦÎ¹Î½": 2805,
      "ĠÎĶÎ¹Îº": 2806,
      "ĠÎµÏĦÎ±Î¹ÏģÎµÎ¯Î±": 2807,
      "Î´Î±Ïĥ": 2808,
      "ĠÎµÏĢÎ¹ÏĩÎµÎ¯": 2809,
      "ĠÎ±Î»": 2810,
      "ÏĨÎ¿ÏģÎ¬ÏĤ": 2811,
      "ĠÎ¸ÎŃÎ»ÎµÎ¹": 2812,
      "ĠÎķÏģÎ³": 2813,
      "ĠÏĢÏģÎ¿ÏĭÏĢÎ¿": 2814,
      "ĠÎĳÎ½Î¬": 2815,
      "ĠÎ±Î½ÎµÎ¾": 2816,
      "ĠÎºÎ±Î½Î¿Î½": 2817,
      "á¾": 2818,
      "ĠÏĢÏģÏīÏĦÎ±": 2819,
      "ĠÎ´Î¹Î±Ïĥ": 2820,
      "ÏĢÎ·ÏĤ": 2821,
      "ĠÎ»ÎµÏĢÏĦÎ¬": 2822,
      "ĠÏĩÏģÎµÎ¹Î¬Î¶ÎµÏĦÎ±Î¹": 2823,
      "ÏĦÎ·Î¼Î¿Î½": 2824,
      "Î¬Î½Î½Î·ÏĤ": 2825,
      "ĠÏĢÏģÏĮÎºÎµÎ¹ÏĦÎ±Î¹": 2826,
      "Î»Î»Î·Î½ÎµÏĤ": 2827,
      "ÎĽÎĳ": 2828,
      "ĠÎºÎ¹Î½": 2829,
      "ÎµÎ½ÏĦ": 2830,
      "ĠÎ³Î»Ïİ": 2831,
      "ĠÎłÎķ": 2832,
      "Î¿ÏįÎ»Î¹Î¿": 2833,
      "Î»ÏħÎ¼ÏĢ": 2834,
      "ort": 2835,
      "Î»Î¿Î³Î¹ÎºÎ®": 2836,
      "ĠâĢ¦": 2837,
      "Î¼Î±ÏģÏĩ": 2838,
      "Î¸ÎŃÎ½": 2839,
      "ĠÎ¼ÏĮÎ»Î¹ÏĤ": 2840,
      "Î³ÏīÎ½": 2841,
      "ĠÎµÎ¯Î¼Î±ÏĥÏĦÎµ": 2842,
      "Î¯ÎºÎ·ÏĤ": 2843,
      "Î³Î½Ïİ": 2844,
      "Î¼Î¬ÏĦÎ¹": 2845,
      "ĠÏħÏĢÎ¿ÏĥÏĦÎ·": 2846,
      "ĠÏĥÏĦÎ±Î¸Îµ": 2847,
      "Î¼ÏĢÎ±": 2848,
      "ÏĩÏİÎ½": 2849,
      "ĠÎ²ÏģÎ¯ÏĥÎºÎ¿Î½ÏĦÎ±Î¹": 2850,
      "ĠÎ±ÏįÎ¾Î·": 2851,
      "ĠÎ±Î³ÏīÎ½Î¹Ïĥ": 2852,
      "ĠÎ´Î·Î¼Î¿ÏĥÎ¹Î¿": 2853,
      "ÎºÎ¬ÏĦÏī": 2854,
      "av": 2855,
      "ĠÎ¹ÏĥÏĦÎ¿ÏĥÎµ": 2856,
      "ÏĦÎ¿Î¼Î¼": 2857,
      "Î´ÎµÏĩ": 2858,
      "ub": 2859,
      "ĠÎļÎ±ÏĦÎ±": 2860,
      "Î³Î·ÏĥÎ·": 2861,
      "ÏħÎº": 2862,
      "ĠÎ¼ÏĢÎ¿ÏģÎ¿ÏįÏĥÎµ": 2863,
      "Î¯ÎºÎ±": 2864,
      "ÏĩÎµÏĦÎ±Î¹": 2865,
      "ÎŁÎĻ": 2866,
      "ĠÏĢÏģÎ¿ÏĥÏĨÎŃÏģÎµÎ¹": 2867,
      "ĠÎ¿ÏģÎ³Î¬Î½": 2868,
      "ĠÎ²Î¿Î®": 2869,
      "Î¹ÏĥÏĦÎ¬": 2870,
      "ĠÎ®Î¸Îµ": 2871,
      "ÎŃÎ±ÏĤ": 2872,
      "ĠÎ´Î¹Î±ÏĢ": 2873,
      "ĠÎĪÏĦÏĥÎ¹": 2874,
      "ÏĮÎ¼ÎµÎ½Î±": 2875,
      "16": 2876,
      "ĠÎ¬Î»Î»Î¿ÏħÏĤ": 2877,
      "13": 2878,
      "Î´ÏīÏĥÎµ": 2879,
      "ĠÎķÏĢÎ¯ÏĥÎ·ÏĤ": 2880,
      "ĠÏĢÏģÎ¿ÏĥÏĢÎ¬Î¸ÎµÎ¹Î±": 2881,
      "ĠÎ¿Î»ÏĮ": 2882,
      "Î¸Ïī": 2883,
      "ĠÎ¹Î´Î¹Ïī": 2884,
      "ĠÎ¼ÏĢÏģÎ¿ÏĥÏĦÎ¬": 2885,
      "Î¹Îµ": 2886,
      "ĠÎµÎ»Î»Î·Î½Î¹ÎºÎ®": 2887,
      "ĠÎ±Î³Î¬": 2888,
      "ĠÎ´Î¿ÎºÎ¹": 2889,
      "Î¼ÎŃÎ½ÎµÎ¹": 2890,
      "ĠÎµÎ¾Î¿Ïħ": 2891,
      "ĠÏĥÏħÎ¼ÏĨ": 2892,
      "ĠÎ³Ïħ": 2893,
      "ĠÎºÎŃÎ½ÏĦÏģÎ¿": 2894,
      "ĠÎµÏĢÎµÎ½": 2895,
      "ĠÎ¿ÏĢÎ¿Î¯Î¿Î¹": 2896,
      "Î¿ÏħÎ±": 2897,
      "ĠÎ±ÏĢÎ¿ÏĨÎ±Ïĥ": 2898,
      "ÎºÏīÎ½": 2899,
      "ÏĦÏģÎ¿ÏĢÎ®ÏĤ": 2900,
      "ĠÎ²Î¿Î·Î¸Î®": 2901,
      "ĠÎ±Î½Î¬Î¼ÎµÏĥÎ±": 2902,
      "17": 2903,
      "ĠÎ´Î·Î¼Î¿ÏĥÎ¹": 2904,
      "Î´Î¹Î¿Ïį": 2905,
      "ÎľÎĳÎ¤": 2906,
      "ĠÏĢÎµÏģÎ¬": 2907,
      "ard": 2908,
      "ail": 2909,
      "ÏģÏĨ": 2910,
      "ĠÎ½Î¿Î¼Î¿": 2911,
      "ĠÎļÏīÎ½ÏĥÏĦÎ±Î½": 2912,
      "Î¯Î½Î±": 2913,
      "Î»Î¿Î³Î·": 2914,
      "Ġá¼¡": 2915,
      "Î½Î±ÏĦÎ¿": 2916,
      "ĠÏĨÏħÏĥÎ¹ÎºÎ¬": 2917,
      "Î¡ÎŁÎ£": 2918,
      "ĠÎ±ÏģÏĩÎŃÏĤ": 2919,
      "ÏĦÎ¿Î¯": 2920,
      "Î¸Î¿ÏįÎ¼Îµ": 2921,
      "ĠÏħÏĢÎ¿Î»Î¿Î³Î¹Ïĥ": 2922,
      "ÏĦÎ±Î¾Î·": 2923,
      "ĠÎºÎ¬ÏĢÎ¿Î¹Î¿": 2924,
      "ÏĨÎŃÏģÎµÏĦÎ±Î¹": 2925,
      "ĠÏĥÏħÎ¼Î¼ÎµÏĦÎŃ": 2926,
      "ÏģÎ¹ÏĥÏĥÏĮÏĦÎµÏģÎ±": 2927,
      "ÏĥÎ¿ÎºÎ¿": 2928,
      "Î»Î·ÏĥÎ·": 2929,
      "LI": 2930,
      "Î¼Î·ÏĩÎ±Î½": 2931,
      "ĠÎ±ÏĢÎ¿ÏĦÎµÎ»ÎŃÏĥÎ¼Î±ÏĦÎ±": 2932,
      "ÏĮÎ»Î¿Ïħ": 2933,
      "ĠÎ±ÏĢÏĮÎ»Ïħ": 2934,
      "ĠÎ±ÏħÎ¾": 2935,
      "ĠÎ±Î³Î±ÏĢÎ·": 2936,
      "ĠÎ±Î½Î¬Î³ÎºÎ·": 2937,
      "Î½Î·ÏĥÎ·": 2938,
      "Î¼ÎµÎ¯Î¿": 2939,
      "ĠÎµÎ»ÎµÏįÎ¸Îµ": 2940,
      "ÏįÏĩ": 2941,
      "ĠÎ¾ÎŃÏģ": 2942,
      "ÎŃÏģÎ¹Î±": 2943,
      "ÎŁÎ¥Î£": 2944,
      "Î¬Î½ÎµÏĦÎ±Î¹": 2945,
      "ĠÎ´Î¯Î½ÎµÎ¹": 2946,
      "ĠÎĹÎłÎĳ": 2947,
      "Î³Î¹Î¿": 2948,
      "Î»Î¿Î³Î±": 2949,
      "ĠÎµÏĨÎ·": 2950,
      "ÏģÎµÎ¯ÏĤ": 2951,
      "Î»ÎµÏĦÎµ": 2952,
      "Î¸ÏħÏĢÎ¿ÏħÏģÎ³": 2953,
      "ĠÎĳÏģ": 2954,
      "ÏĨÎ¯Î±": 2955,
      "ÂµÎµ": 2956,
      "ĠÎ²Î¬ÏģÎ¿ÏĤ": 2957,
      "Î¾ÎµÏīÎ½": 2958,
      "ĠÏĦÎµÎ»Î¹ÎºÎ¬": 2959,
      "ĠÎºÎ±Î»Ïį": 2960,
      "Î¯Î¶Ïī": 2961,
      "ĠÎ¤ÎŁ": 2962,
      "ÎµÎ¯ÏīÎ½": 2963,
      "Î½Î¿Î¼Î¬": 2964,
      "ÎŃÎ½ÏĦÎµ": 2965,
      "ĠÏĮÏĥÎ±": 2966,
      "ĠÎµÎ½ÏĦÏĮÏĤ": 2967,
      "ÏĥÏĦÏİÎ½": 2968,
      "ĠÎµÎºÏĦÎµ": 2969,
      "ÎºÏĦÎ¹ÎºÎ®": 2970,
      "ĠÏĢÎµÏģÎ¹Ïĥ": 2971,
      "ĠÏĢÎ¿Ïį": 2972,
      "ĠÎ´Î¿ÏħÎ»ÎµÎ¹Î¬": 2973,
      "ĠÎ³Î»Ïħ": 2974,
      "Ġ2014": 2975,
      "ĠÎµÏĢÎ¿ÏĩÎ®": 2976,
      "Î¡ÎĻÎĸ": 2977,
      "ĠÎ²Î¹Î²Î»Î¯Î¿": 2978,
      "ÏģÎ®ÏĥÎµÎ¹": 2979,
      "ÎºÎ±ÏĤ": 2980,
      "ĠÎµÎ¾Ïħ": 2981,
      "ov": 2982,
      "ĠÎ²ÏĮ": 2983,
      "ÏīÎ´": 2984,
      "ĠÎŃÎ³Îº": 2985,
      "ÏĦÏħÏĢÏī": 2986,
      "ÏĦÏģÏīÎ½": 2987,
      "ĠÎºÎ»ÎµÎ¯": 2988,
      "ĠÎ¼Î¿ÏģÏĨÎ®": 2989,
      "ĠÎĶÎ·Î¼Î¿ÎºÏģÎ±": 2990,
      "Î²Î¬Î¸": 2991,
      "ĠÎ¼Î¿Î½ÏĦÎŃ": 2992,
      "Ġi": 2993,
      "ĠÎºÎ¬ÏĢÎ¿Î¹Î¿ÏĤ": 2994,
      "ĠÎºÎ±Î»ÏįÏĦÎµÏģÎ±": 2995,
      "Ġ28": 2996,
      "Î¶Î®ÏĦÎ·ÏĥÎ·": 2997,
      "ĠâĢĺ": 2998,
      "Î¶Ïī": 2999,
      "all": 3000,
      "ĠÎ¾Î±Î½Î±": 3001,
      "ĠÏĢÎµÏģÎ¹ÏĥÏĥÏĮÏĦÎµÏģÎµÏĤ": 3002,
      "ĠÎķÏħÏģÏİÏĢÎ·": 3003,
      "ĠÎ±ÏħÏĦÎ¿Î¯": 3004,
      "ĠÏĢÎ±ÏģÎ¬Î´ÎµÎ¹Î³Î¼Î±": 3005,
      "ĠÎµÎ½Î¿": 3006,
      "Î¶Î¬": 3007,
      "ĠÎºÎµÎ½ÏĦÏģ": 3008,
      "ĠÎµÏħÎºÎ±Î¹ÏģÎ¯Î±": 3009,
      "ĠÎľÏĮ": 3010,
      "ĠÎµÎ¼ÏĢÎµÎ¹ÏģÎ¯Î±": 3011,
      "ĠÏĥÏİÎ¼Î±": 3012,
      "ÏĩÎ¿Î¹": 3013,
      "ĠÎ¼Î½Î·": 3014,
      "Î²Î²Î±ÏĦÎ¿": 3015,
      "ĠÎ´Î¹ÏĢ": 3016,
      ".)": 3017,
      "Ġ>": 3018,
      "ÏĦÎ¬Ïģ": 3019,
      "ÏĦÏħÏĢ": 3020,
      "Î¯Î½Î¿Ïħ": 3021,
      "ĠÏĢÎ»ÎµÏħÏģÎ¬": 3022,
      "Î»Î»Î¿Î¯": 3023,
      "ÏģÎ¹ÏĥÎ·ÏĤ": 3024,
      "ce": 3025,
      "ÏĢÎµÎ¯": 3026,
      "ĠÎĵÎĻÎĳ": 3027,
      "ĠÏĥÏĦÎŃ": 3028,
      "ĠÏĥÎºÎ¿ÏĢÏĮ": 3029,
      "ÏĦÎ¹Ïī": 3030,
      "Î®Î»": 3031,
      "Î¿Î»Î±": 3032,
      "ÏĥÏĦÎ¿Ïħ": 3033,
      "ĠÎ±ÏĥÎ¸ÎµÎ½": 3034,
      "ĠÏģÎ±": 3035,
      "ĠÎ´ÎµÎ¹": 3036,
      "ĠÏĮÎ½Î¿Î¼Î±": 3037,
      "ĠÎ±Î½Î¿": 3038,
      "ĠÏĢÏģÎ¿ÏĥÎ±": 3039,
      "ĠÎ¼Î±Îº": 3040,
      "ĠÏĢÏģÎ¿ÏĥÎŃ": 3041,
      "ĠÎ±Î¾Î¹": 3042,
      "ĠÏĢÏģÎ¿Î²Î»ÎŃ": 3043,
      "ht": 3044,
      "ĠÎµÎ¾Î±Ïĥ": 3045,
      "ĠÏĢÏĮÎ»Î·ÏĤ": 3046,
      "ÏĦÎµÎ¿": 3047,
      "Î³Î¿Ïį": 3048,
      "á½·": 3049,
      "Î³ÎŃ": 3050,
      "Î®Î¼Î±": 3051,
      "ĠÏĥÏħÎ½Î´ÏħÎ±Ïĥ": 3052,
      "Î½Î±Î½ÏĦÎ¹": 3053,
      "ell": 3054,
      "ĠÏħÎ»Î¿": 3055,
      "Î£Ïį": 3056,
      "ĠÎ¾ÎµÎºÎ¯Î½Î·": 3057,
      "ÏĨÏİÎ½": 3058,
      "ÏĥÏĦÏģÎ±": 3059,
      "ĠÎ£Î¤": 3060,
      "ĠÎ¹Î´ÎŃ": 3061,
      "ĠÎ¤Î¼Î®": 3062,
      "ĠÎŁÎ»ÏħÎ¼ÏĢ": 3063,
      "ÏģÏĦÎ±": 3064,
      "Ġ+": 3065,
      "ĠÏĢÏģÎ±Î³Î¼Î±ÏĦÎ¹ÎºÎ¬": 3066,
      "ÎĨ": 3067,
      "ĠÎ¤ÎĹÎ£": 3068,
      "ÎĻÎĶ": 3069,
      "ÎŁÎ¡": 3070,
      "ÏģÎµÎ¬Î½": 3071,
      "ÏĦÎŃÏģÏī": 3072,
      "ĠÎ¼Î¿Î½Î¿": 3073,
      "ĠÏĢÎ»Î¿Ïį": 3074,
      "ĠÎ´Î¹ÎºÎ±Î¹Î¿": 3075,
      "ĠÎĶÎ·Î¼Î®": 3076,
      "ĠÏĢÎµÏģÎ¹ÎŃ": 3077,
      "ĠÎµÏĥ": 3078,
      "ĠCh": 3079,
      "ĠÎµÏħÏģÏīÏĢÎ±ÏĬ": 3080,
      "ĠÎµÎ½Î·Î¼ÎŃ": 3081,
      "ĠÏĨÎµ": 3082,
      "ÏĨÎ±Î»Î¯": 3083,
      "ÏģÎ¹ÏĥÎ¼Î¿Ïį": 3084,
      "ÏĦÎ¬ÏĤ": 3085,
      "ĠÏĦÎ¯ÏĢÎ¿ÏĦÎ±": 3086,
      "ĠÏĥÏħÏĥÎºÎµÏħ": 3087,
      "ĠÏĥÏħÎ½Î¸Î®ÎºÎµÏĤ": 3088,
      "ĠÎķÎĿ": 3089,
      "Ġthe": 3090,
      "ĠÎ¿Î»ÏĮÎºÎ»Î·": 3091,
      "ÏĦÎµÎ¯ÏĦÎ±Î¹": 3092,
      "ĠÏĥÏĦÏĮÏĩÎ¿": 3093,
      "Î³Î±ÏģÎ¹Î±": 3094,
      "Ġst": 3095,
      "Î¹Î¿Ïį": 3096,
      "ÏĦÏħÎ¿": 3097,
      "Ġk": 3098,
      "ĠÎ´Î·Î¼Î¹Î¿ÏħÏģÎ³Î¯Î±": 3099,
      "Î¬Î»Ïħ": 3100,
      "Î½ÎµÏħÎ¼Î±": 3101,
      "ĠÎĳÎ»Î»Î¬": 3102,
      "ĠÎ´Î¹Î±ÏĩÎµÎ¯": 3103,
      "ĠÎµÎ¹ÎºÏĮÎ½Î±": 3104,
      "ĠÏģÏĮÎ»Î¿": 3105,
      "ÏĦÏİÎ½ÏĦÎ±ÏĤ": 3106,
      "ĠÎŃÎ¾Ïī": 3107,
      "ĠÎµÎ¹ÏĥÎ±": 3108,
      "ĠÎºÎ±Î¼Î¯Î±": 3109,
      "ĠÎ¼ÎµÎ³Î±Î»ÏįÏĦÎµÏģÎ·": 3110,
      "Î¸ÎµÏĤ": 3111,
      "ĠÎºÎ»ÏĢ": 3112,
      "ĠÏĦÎ¿Î¼ÎŃÎ±": 3113,
      "ĠÎ¼ÏĢÎ¿ÏģÎ¿ÏįÎ¼Îµ": 3114,
      "ÎºÎ¯": 3115,
      "Ġ40": 3116,
      "ĠÎľÎ¿ÏħÏĥ": 3117,
      "ĠÎłÏĮ": 3118,
      "Î³ÏİÎ½": 3119,
      "ĠÏĩÏģÎ·Î¼Î±ÏĦÎ¿": 3120,
      "ĠÎµÎ±ÏħÏĦÏĮ": 3121,
      "ĠÎºÎ±ÏĦÎ±Î½": 3122,
      "ĠÏĩÏīÏģÎ¹": 3123,
      "ĠÏĢÎ¿ÏģÎµÎ¯Î±": 3124,
      "ĠÎ´Î¹ÎºÎ®": 3125,
      "ĠÎºÎ¿Î¹Î½ÏĮ": 3126,
      "Î¼Î¿Ïĥ": 3127,
      "ĠÎľÎ¹Î±": 3128,
      "Î¼ÎµÏģÎ¹ÎºÎ±Î½": 3129,
      "Î¿Î¹ÏĦÎ·": 3130,
      "25": 3131,
      "Î½Î¿ÏħÎ½": 3132,
      "ĠÎ±Î½Î¬Î³ÎºÎµÏĤ": 3133,
      "ÏĢÏģÎµÏĢÎµ": 3134,
      "ĠÎŃÏĨ": 3135,
      "ĠÎľÎ±ÎºÎµÎ´Î¿Î½": 3136,
      "ĠÎ´ÎµÎºÎ±Îµ": 3137,
      "ĠÎµÎºÎ´Î®": 3138,
      "ĠÎ¼ÎŃÎ»Î»Î¿Î½": 3139,
      "ÏĢÏģÎ±": 3140,
      "Î¸ÎµÏĥÎ·ÏĤ": 3141,
      "ĠÎ´Î±Î½": 3142,
      "ĠÎ´Î¹ÎºÎ±Ïĥ": 3143,
      "ÏģÎµÎ¹Î±": 3144,
      "ĠÎ±Î½Î¿Î¯": 3145,
      "ÏĢÎ¿Î¹Î®Î¸Î·ÎºÎµ": 3146,
      "ÏĢÎ¹Î½": 3147,
      "ÏģÎ·ÏĥÎµ": 3148,
      "ĠÎ´Î¹ÎºÎ±Î¯": 3149,
      "ĠÏĢÏģÎ¿Îµ": 3150,
      "ĠÎ±Î»Î®": 3151,
      "Î»Î±Î²Îµ": 3152,
      "Î´Î¯Î¿Ïħ": 3153,
      "Î¼Î¼Î±ÏĦÎ±": 3154,
      "Ġa": 3155,
      "Ġ26": 3156,
      "Î¼Î¿Î½Î®": 3157,
      "ĠÏĢÎ±ÏģÎ±Î´Î¿": 3158,
      "á½º": 3159,
      "Î¼ÏĢÎ¬": 3160,
      "ĠÎ±á½Ĳ": 3161,
      "ĠÎµÎ¯Î¼Î±Î¹": 3162,
      "ĠÏĨÏīÎ½": 3163,
      "ĠÏħÏĢÎµ": 3164,
      "Î¸ÏĮÎ½": 3165,
      "ĠÏĢÎ±ÏģÎ±ÎºÎ¬ÏĦÏī": 3166,
      "ĠÏĢÏģÏĮÏĥÏĨÎ±": 3167,
      "ĠÎ¹ÎºÎ±Î½": 3168,
      "Î²ÎµÎ¹": 3169,
      "ĠÎłÎ±ÏģÎ¬": 3170,
      "ip": 3171,
      "Î¿ÏįÏĥÎµ": 3172,
      "ĠÎ¤ÏģÎ¯": 3173,
      "Î¼Î¬ÏĤ": 3174,
      "Î»ÎµÎ¯Î±ÏĤ": 3175,
      "ĠÏĢÎµÏģÎ¹ÏĢÏĦÏİÏĥÎµÎ¹ÏĤ": 3176,
      "Î¸ÎµÎ¯ÏĦÎµ": 3177,
      "ĠÎ´Î¹ÎµÎ¾": 3178,
      "ĠÎĶÎµÏħ": 3179,
      "ĠÎŃÎºÎ±": 3180,
      "ĠÎ·Î¼ÎµÏģÎ¿": 3181,
      "ĠÎ¤ÎŃ": 3182,
      "ĠÎµÎ»ÎŃÎ³Ïĩ": 3183,
      "ĠÏįÏĪ": 3184,
      "Î¡ÎĻÎ£": 3185,
      "ĠÎ´Î¹ÏĮÏĦÎ¹": 3186,
      "ĠÏĥÏħÎ¶Î·": 3187,
      "ĠÎ´Î¹Î±Î²Î¬": 3188,
      "ĠÎºÎ¬Î½Î¿ÏħÎ¼Îµ": 3189,
      "ĠÎłÎ¡ÎŁ": 3190,
      "ĠÎ±ÏĢÎ±Ïĥ": 3191,
      "Î¶Î¿Î½ÏĦÎ±ÏĤ": 3192,
      "2018": 3193,
      "ĠÎ´ÏįÏĥÎºÎ¿": 3194,
      "ĠÎ¿Î¼Î¬Î´Î±ÏĤ": 3195,
      "ÏĪÎ±Î½": 3196,
      "ĠÎµÏħÎ¸Ïį": 3197,
      "ĠÎºÎµÏĨÎ¬Î»": 3198,
      "ĠÏĥÎ·Î¼ÎµÏģÎ¹Î½": 3199,
      "ÏĨÎµÏģÏĮ": 3200,
      "ĠÎŃÏĩÎµÎ¹ÏĤ": 3201,
      "Î·Ïĥ": 3202,
      "ĠÏħÏĢÎ¿ÏĥÏĦÎ®ÏģÎ¹": 3203,
      "ĠÎĶÎĹÎľ": 3204,
      "Î¸Î®ÎºÎ·": 3205,
      "ĠÏĦÎ¯ÏĦÎ»Î¿": 3206,
      "Î»Î±ÏĤ": 3207,
      "ÏĦÏħÏĩÏİÏĤ": 3208,
      "ĠÎµÎ»Î±": 3209,
      "ĠÎĪÎ»Î»Î·Î½ÎµÏĤ": 3210,
      "ĠÎ±ÏĢÎµÏħ": 3211,
      "ĠÎµÎºÎ´Î·": 3212,
      "ĠÏĩÎ±ÏģÎ±ÎºÏĦÎ·ÏģÎ¹ÏĥÏĦÎ¹ÎºÎ¬": 3213,
      "Î®Î¸ÏīÏĤ": 3214,
      "Î¸Î®Î¼Î±ÏĦÎ±": 3215,
      "ĠÎ¯Î´Î¹Î¿ÏĤ": 3216,
      "ÏģÎŃÎ±": 3217,
      "ĠÎ²Îµ": 3218,
      "ĠÐ": 3219,
      "ĠÎĪÎ½Î±": 3220,
      "ÏĨÎ±Î¯": 3221,
      "Î»Î»ÏĮÎ³": 3222,
      "ĠÏĢÏģÏİÏĦÎ±": 3223,
      "ĠÎµÎ¼ÎµÎ¯ÏĤ": 3224,
      "ĠÏĮÎ¼Î¿Ïģ": 3225,
      "40": 3226,
      "ÏģÎ¹ÎºÎ®ÏĤ": 3227,
      "ĠÎ»Î¹Î³": 3228,
      "ĠÎ¿ÏĨÎµÎ¯": 3229,
      "ÏĥÏĦÎ¹ÎºÎ®": 3230,
      "Î¾ÏĦÎµ": 3231,
      "ĠÎºÎ±ÏĦÎµ": 3232,
      "Ġ27": 3233,
      "ĠÎ´ÏģÏĮÎ¼Î¿": 3234,
      "ĠÎºÎµÏĨÎ±": 3235,
      "ĠÎ¹ÎºÎ±": 3236,
      "ĠÏĢÎ¿Ïĥ": 3237,
      "ÏĦÎ¿ÏħÎ½": 3238,
      "ĠÎ±ÏįÎ¾Î·ÏĥÎ·": 3239,
      "ĠÎľÎ¹": 3240,
      "ÏĥÏįÎ½Î·": 3241,
      "ĠÎ³ÏħÎ½Î±Î¯ÎºÎµÏĤ": 3242,
      "Î¹ÏĥÎ·": 3243,
      "Î´ÎµÎ¹ÎºÎ½": 3244,
      "ĠÎ²ÏģÎŃ": 3245,
      "Î¼Î¯Î±ÏĤ": 3246,
      "ÏĢÎ¿Î»Î¯": 3247,
      "ĠÏĦÎ¹Î¼ÎŃÏĤ": 3248,
      "ĠÎ¿Î¼Î¬Î´ÎµÏĤ": 3249,
      "Î½Î¿Î¹Ïĩ": 3250,
      "ÎĳÎ½Î±": 3251,
      "ĠÏĥÏħÎ½Î´ÎŃ": 3252,
      "îĦ": 3253,
      "ĠÏĢÏģÎ¿ÏĩÏī": 3254,
      "ĠÏĢÎ±Î³ÎºÏĮÏĥ": 3255,
      "ĠÎºÎ±ÏĦ": 3256,
      "ĠÏħÏĢÎ·ÏģÎµÏĥÎ¹ÏİÎ½": 3257,
      "ER": 3258,
      "ĠÎķÎķ": 3259,
      "ĠÎ¸Î·": 3260,
      "ĠÎĳÎ»": 3261,
      "ĠÎµÎ»": 3262,
      "ÏĥÎ·Î¼Î±": 3263,
      "ÏģÎµÏħÎ½Î·": 3264,
      "ĠÎ±ÏĢÎ¿ÏĥÏĦÎ¿": 3265,
      "Î¯Î½Î¿ÏħÎ¼Îµ": 3266,
      "Ġon": 3267,
      "Î¶Î¿ÏħÎ¼Îµ": 3268,
      "ÎºÏĦÎ¿": 3269,
      "ĠÎĺÎµÎ¿": 3270,
      "ĠÏĢÎµÏģÎ¹Î¿ÏĩÎŃÏĤ": 3271,
      "ĠÎĿÎŃÎ±": 3272,
      "ĠÎºÎ±ÏĦÎ±Ïĥ": 3273,
      "ĠÎ£Î¥Î¡ÎĻÎĸ": 3274,
      "ĠÎļÏİ": 3275,
      "ÎµÏħÏĥÎ·": 3276,
      "ĠÎ±Î½Î±Î³Î½Ïī": 3277,
      "ĠÎ±ÏĢÎ¿ÏĦÎµÎ»ÎµÏĥÎ¼Î±": 3278,
      "Î®Î¼Î±ÏĦÎ±": 3279,
      "ĠÏĩÏģÎŃ": 3280,
      "ĠÏĢÎ¿Î»Î¹ÏĦÎ¹Ïĥ": 3281,
      "ĠÎľÎ¿Î½": 3282,
      "ĠÎĻÎ±Î½": 3283,
      "ĠÎĿÎ¿Îµ": 3284,
      "ĠÏĢÎ±ÏģÏĮÎ½": 3285,
      "ÏĢÎµÏĦÎ±Î¹": 3286,
      "ĠÏĢÎ¬ÏģÎµÎ¹": 3287,
      "ÏĢÏģÎ¿Ïĥ": 3288,
      "ive": 3289,
      "ĠÎĳÏĦ": 3290,
      "ĠÎ»Î±Î¼Î²": 3291,
      "ĠÎµÏĢÎ±Î½": 3292,
      "ĠÎµÏĢÎµÎ¾": 3293,
      "ĠÎļÏħÏģÎ¹Î±ÎºÎ®": 3294,
      "ĠÎ±Î½ÏĦÎ¹ÎºÎ±": 3295,
      "ĠÏĥÏīÎ¼Î±": 3296,
      "ĠÎ±ÏĢÎ¿ÎºÎ»ÎµÎ¹Ïĥ": 3297,
      "ĠÎ»Î¿Î³Î±ÏģÎ¹Î±": 3298,
      "ĠÏĦÎ±Î¾Î¹": 3299,
      "ĠÏĢÏģÏĮÎµÎ´ÏģÎ¿ÏĤ": 3300,
      "ÏģÎ¹ÏĥÎ¼ÏĮÏĤ": 3301,
      "ĠÎ¾ÎµÏĩÏī": 3302,
      "ĠÎµÎ¾Î®ÏĤ": 3303,
      "ĠÎ´Î¹ÎºÏĮ": 3304,
      "ĠÎ±Î¼ÎŃ": 3305,
      "ĠÎ±Î½Î±Î³Îº": 3306,
      "ĠÎºÎ»ÎµÎ¹": 3307,
      "ĠÎµÎ¹Î´Î¹ÎºÎ¬": 3308,
      "ĠÎºÏħÎºÎ»Î¿ÏĨÎ¿": 3309,
      "Î´ÎµÎ½": 3310,
      "ÎĽÎĹ": 3311,
      "ĠÎµÏĢÎ¹ÏĦÏģÎŃ": 3312,
      "60": 3313,
      "ÏĢÎµÎ¯Î±": 3314,
      "ÏģÏĩÎ¿Î½ÏĦÎ±Î¹": 3315,
      "ĠÎ¥ÏĢÎ·ÏģÎµ": 3316,
      "ĠÏĦÎµÏģÎ¬": 3317,
      "ĠÎ¼Î¹ÎºÏģÎ¿": 3318,
      "ĠÎ¼Î±Î¸Î·ÏĦÎŃÏĤ": 3319,
      "ĠÎ²ÏģÎ¬Î´Ïħ": 3320,
      "Î»Î¿Î³Î¹ÎºÏĮ": 3321,
      "ĠÎĳÎ½ÏĦÎ¹": 3322,
      "ÏİÎ¼Î±ÏĦÎ±": 3323,
      "ĠÏħÏĢÎ®ÏģÏĩ": 3324,
      "ÏĢÎ½": 3325,
      "ĠÎ¬ÏģÏĩ": 3326,
      "ĠÎ±ÏĢÎ¿ÏĦÎµÎ»Î¿ÏįÎ½": 3327,
      "Î¾ÎµÎ½": 3328,
      "ĠÏĥÏħÏĩÎ½Î¬": 3329,
      "ĠÎ¬ÏģÎ¸ÏģÎ¿Ïħ": 3330,
      "ĠÎ³ÎµÏį": 3331,
      "ĠÏĥÏħÎ½ÎµÎ´": 3332,
      "ĠÎ¸ÎŃÏĥÎµÎ¹ÏĤ": 3333,
      "Ġx": 3334,
      "ĠÎľÎµÏĦÎ¬": 3335,
      "ĠÎºÎ»Î¬": 3336,
      "ÎķÎĻÎĳ": 3337,
      "ĠÎ¸ÎŃÎ±": 3338,
      "ĠÎµÏĢÎµÎ¾ÎµÏģÎ³": 3339,
      "ĠÎĽÎµ": 3340,
      "ĠÎºÎ±Î»ÏįÏĦÎµÏģÎ·": 3341,
      "ĠÎ¬Î¼Îµ": 3342,
      "ÏĥÏĦÎµÏħ": 3343,
      "//": 3344,
      "ĠÎµÏĢÎ¹ÏĩÎµÎ¹ÏģÎ·Î¼Î±": 3345,
      "ĠÎ£ÏĦÎ·": 3346,
      "ĠÎ¤ÎµÏĩ": 3347,
      "ÏĩÏģÎ¿Î½Î±": 3348,
      "ĠÏĦÏģÎ±Î³Î¿Ïį": 3349,
      "ÏģÎ¹ÏĥÎ¼Î±": 3350,
      "ÏĮÏģÎ±": 3351,
      "ĠÎ£Î¥Î¡ÎĻÎĸÎĳ": 3352,
      "Î½Î¹Î¿": 3353,
      "ie": 3354,
      "Î¼Î±Ïģ": 3355,
      "Î¬ÏģÏĦÎ·": 3356,
      "ĠÎ¡Ïī": 3357,
      "ĠÏĥÏĦÎ±Î¸": 3358,
      "ÏģÏĦÎ¿": 3359,
      "ĠÎ´Î®Î»ÏīÏĥÎµ": 3360,
      "ĠÎŃÏģÎ³Î±": 3361,
      "ÏĦÎ¯Î¸Îµ": 3362,
      "ack": 3363,
      "Î´ÏģÎ¬": 3364,
      "ant": 3365,
      "Î´ÏģÎ¿Ïħ": 3366,
      "ÏĢÎµÎ´Î±": 3367,
      "ĠÏĨÏģÎ¿Î½": 3368,
      "Î´ÏģÏĮ": 3369,
      "ĠÏĢÏģÎ¿ÎºÏį": 3370,
      "ĠÎĻÎ¿ÏħÎ½": 3371,
      "ĠÎµÏĢÎ¹ÏĥÎºÎŃÏĢ": 3372,
      "ÏĢÎ±ÏģÎ¬": 3373,
      "ĠÎºÎ±Î¸Îµ": 3374,
      "ÎµÎ¹Î¿": 3375,
      "ÏħÏģÎ¿": 3376,
      "ĠÎ»ÏįÏĥÎ·": 3377,
      "ÎµÏĨÎ±": 3378,
      "Î¯Î½ÏĦÎµÎ¿": 3379,
      "io": 3380,
      "Î¾Î¹Î¿": 3381,
      "Î¼Ïī": 3382,
      "ÎµÏįÎ¸ÏħÎ½ÏĥÎ·": 3383,
      "ĠÎ½ÎŃÎµÏĤ": 3384,
      "ĠÎºÏĮÏĥÎ¼Î¿Ïħ": 3385,
      "tp": 3386,
      "ÏİÎ¸Î·ÎºÎµ": 3387,
      "ÏĥÎ¼Îµ": 3388,
      "ĠÎŃÏĢÏģÎµÏĢÎµ": 3389,
      "Â·": 3390,
      "ĠÏĢÎ±Î¯Îº": 3391,
      "ÎµÏĥÎ·": 3392,
      "ĠÏĢÎ±ÏģÎ±ÏĦÎ·": 3393,
      "ĠÏĥÏįÎ³ÏĩÏģÎ¿": 3394,
      "ĠÏĢÎµÏģÎ¹ÎµÏĩ": 3395,
      "ĠÎ´ÏįÎ½Î±Î¼Î·": 3396,
      "ĠÏĢÎ¹Î±": 3397,
      "ĠÎ¿Î»Î¿ÎºÎ»Î·ÏģÏī": 3398,
      "ĠÏĦá½´Î½": 3399,
      "ÎĳÏħÏĦÏĮ": 3400,
      "Î¼ÎµÎ¹ÏĤ": 3401,
      "ĠÎ±Î³Î³": 3402,
      "ist": 3403,
      "Î¼Î¹ÎºÎ¬": 3404,
      "ÏĥÏĩÎµ": 3405,
      "ĠÏĦÎŃÏĥÏĥÎµ": 3406,
      "ĠÎķÏĢÎ¹Ïĥ": 3407,
      "ĠÏħÏĢÎŃÏģÎ¿": 3408,
      "ĠÏĢÏģÎ±Î³Î¼Î±ÏĦÎ¹ÎºÏĮÏĦÎ·ÏĦÎ±": 3409,
      "ĠÎ´Î¹ÎŃ": 3410,
      "ĠÏĨÎ±Î½ÏĦÎ±": 3411,
      "ĠÎ¬Î½Î¸ÏģÏīÏĢÎ¿ÏĤ": 3412,
      "ĠÎºÎ±ÏĦÎ·Î³Î¿ÏģÎ¯Î±": 3413,
      "ĠÎºÎ¿Î¹Î½ÏīÎ½Î¯Î±": 3414,
      "ĠÎ¼Î¿ÏħÏĥÎ¹ÎºÎ®": 3415,
      "Î¼Î¬Î½": 3416,
      "80": 3417,
      "22": 3418,
      "ĠÎ±Î¼ÏĨ": 3419,
      "ĠÎºÎ±ÏĦÎ±Î½Î±": 3420,
      "ÏģÏĦÎ¹": 3421,
      "ĠÎ³ÏģÎ±Î¼": 3422,
      "ÏģÏİÏĥÎµÎ¹": 3423,
      "ĠÎ³Î¹Î¿": 3424,
      "ast": 3425,
      "ĠÎºÏģÎµ": 3426,
      "ĠÎµÎ½Î¹Ïĥ": 3427,
      "Î¬Î½Î½Î·": 3428,
      "ÏĦÏħÎ±": 3429,
      "ĠÎºÏģÎ¯ÏĥÎ·": 3430,
      "ÏĥÎ¹Î½": 3431,
      "ĠÎĬ": 3432,
      "ĠÎĳÏĨ": 3433,
      "Î¸Î¹Ïĥ": 3434,
      "ĠÏĢÏģÎ¿Î¿": 3435,
      "ĠÏĥÎºÎ·Î½": 3436,
      "ÏģÏīÏĤ": 3437,
      "ĠÏĩÎŃÏģÎ¹Î±": 3438,
      "Î¸ÏħÏĥ": 3439,
      "ÏĦÎ¹ÎºÏĮÏĦÎ·ÏĦÎ±ÏĤ": 3440,
      "ĠÎ¶Ïİ": 3441,
      "ĠÎ±Î»Î»Î·": 3442,
      "ĠÎ±ÏħÏĦÎ¿ÎºÎ¯Î½Î·": 3443,
      "ĠÎ±ÏĢÎŃÎ½Î±Î½ÏĦÎ¹": 3444,
      "ĠÎµÏħÏĩÎ±ÏģÎ¹Ïĥ": 3445,
      "Î¯ÎºÎ·ÏĥÎ·": 3446,
      "ĠÎ²ÎŃÎ²Î±Î¹Î±": 3447,
      "ÎµÏħÎ¼Î±": 3448,
      "ĠÎºÎ»Î¯": 3449,
      "ĠÎºÎ±ÏĦÎ¬Î»Î»Î·": 3450,
      "ÎºÏĦÎ®": 3451,
      "ĠÎŃÏģÎ³Î¿Ïħ": 3452,
      "ĠÎļÏģÎ®": 3453,
      "Î¿ÏĢÎ»Î¹Ïĥ": 3454,
      "ÏĢÎµÏģ": 3455,
      "ÏĥÎºÎ±": 3456,
      "ĠÎŃÎ½ÏĦÎ¿": 3457,
      "ĠÏĢÎµÏģÎ¹Î¿ÏĩÎ®ÏĤ": 3458,
      "ĠÏĢÎ±ÏģÏĮ": 3459,
      "ĠÎĿÎĳ": 3460,
      "ĠÎłÎ±Î½ÎµÏĢÎ¹ÏĥÏĦÎ·": 3461,
      "ĠÎ¸ÎµÏĥ": 3462,
      "ĠÎ»ÎµÎ¹ÏĦÎ¿ÏħÏģÎ³Î¯Î±ÏĤ": 3463,
      "ĠÎĿÎ¯Îº": 3464,
      "ĠÎ¿ÏħÏĥÎ¹Î±Ïĥ": 3465,
      "ost": 3466,
      "Î¼ÎŃÎ½ÏīÏĤ": 3467,
      "ÎķÎĶ": 3468,
      "ĠÏħÏĢÎ±": 3469,
      "ĠÎµÏĢÎ¹ÏĥÏĦÎ·Î¼Î¿Î½": 3470,
      "ĠÏĥÎºÎ»Î·": 3471,
      "ĠÎ±Î³Î¬ÏĢÎ·": 3472,
      "Î¾ÎµÏĦÎµ": 3473,
      "Ġ2013": 3474,
      "ÏģÎ®ÏĥÎµÏīÎ½": 3475,
      "Î¬Î¶Î¿Î½ÏĦÎ±Î¹": 3476,
      "ĠÎŁÏħ": 3477,
      "ĠÎ±Î½ÏĦÎ¹Î¼ÎµÏĦÏİ": 3478,
      "ĠÎĶÎ·Î¼Î®ÏĦ": 3479,
      "ĠÎłÏģÎ¿Ïĥ": 3480,
      "ĠÏĦÎ¼Î®Î¼Î±": 3481,
      "ÏĢÎ¿Î»Î·": 3482,
      "ĠÎºÎ¿Î¹Î½Î¿": 3483,
      "ĠÏĥÏħÎ¼ÏĢÎ»Î·": 3484,
      "ĠÎĳÏħÏĦÎ®": 3485,
      "ÏĨÎ¿ÏħÏĤ": 3486,
      "ĠÏĢÏģÏīÎ¯": 3487,
      "ĠÎµÎºÎ±ÏĦÎ¿Î¼Î¼": 3488,
      "ÏĢÎ¹ÏĥÎ·": 3489,
      "Î¼Î²Î±ÏĥÎ·": 3490,
      "ĠÎĺÎµÏĥÏĥÎ±Î»Î¿Î½Î¯ÎºÎ·ÏĤ": 3491,
      "Î½ÏīÏĥÎ·ÏĤ": 3492,
      "Î´Î¿Ïį": 3493,
      "ĠÎĻÏĦÎ±": 3494,
      "Ġand": 3495,
      "ĠÎ±Î»Î»": 3496,
      "ĠÏīÏĥÏĦÏĮÏĥÎ¿": 3497,
      "ÏĦÎ¹ÎºÎ±": 3498,
      "ÏĢÎ»Î¿": 3499,
      "ĠÏĢÏĮÏĥÎ¿": 3500,
      "ĠÏĢÏģÏİÎ·Î½": 3501,
      "ĠÏħÏĢÎŃÏģ": 3502,
      "ÏģÎ¹ÏĥÎµ": 3503,
      "ĠÎ³ÏħÎ½Î±Î¯ÎºÎ±": 3504,
      "ĠÎ¹ÎºÎ±Î½Î¿": 3505,
      "Î¼Î¬ÏĦÎ¹Î±": 3506,
      "ex": 3507,
      "ÏĦÏĦÎ±": 3508,
      "Î»ÎµÎ³": 3509,
      "://": 3510,
      "ÏĦÎ·Î¸ÎµÎ¯": 3511,
      "Î½ÏĦÎ±": 3512,
      "ÏģÏĮÏĦÎ·ÏĦÎ±": 3513,
      "ĠÎ¾ÎµÎºÎ¹Î½Î®": 3514,
      "ĠÎ´ÏİÏĥÎµÎ¹": 3515,
      "Î³ÏģÎ±Î¼": 3516,
      "ĠÏĨÎ¿Î¹ÏĦÎ·": 3517,
      "ÏĦÏħÏĢÎ¿": 3518,
      "if": 3519,
      "ĠÎĿÎµ": 3520,
      "ÏĪÎ±": 3521,
      "ĠÎºÎ±Î»ÏįÏĦÎµÏģÎ¿": 3522,
      "Î¯Î¶Î¿Î½ÏĦÎ±ÏĤ": 3523,
      "ĠÎ²ÏģÎµÎ¯ÏĦÎµ": 3524,
      "ĠÏģÏī": 3525,
      "Î³Î¿Î½ÏĦÎ±ÏĤ": 3526,
      "ĠÎµÏĨÎ·Î¼Îµ": 3527,
      "ĠÎ´ÎµÏįÏĦÎµÏģÎ·": 3528,
      "ÎŃÏģÎ¹": 3529,
      "ĠÎ¬Î¼ÎµÏĥÎ±": 3530,
      "ĠÎĽÎ¹": 3531,
      "Î¡Î©": 3532,
      "ĠÏĦÏģÎ¬": 3533,
      "ĠÏīÏģÎ±": 3534,
      "ĠÎķÎºÎºÎ»Î·": 3535,
      "ĠÏĢÎ±ÏģÎµÎ»": 3536,
      "ĠÎŁÎ»ÏħÎ¼ÏĢÎ¹Î±": 3537,
      "ĠÎµÏĢÎ¹ÏĥÏĦÏģÎŃ": 3538,
      "ÎĳÏħ": 3539,
      "ĠÎ±Î¹Ïİ": 3540,
      "ÏĢÎ¿ÏħÎ½": 3541,
      "ĠÎµÎ¾Î¿": 3542,
      "á½±": 3543,
      "ÏģÎŃÏĥÎµÎ¹": 3544,
      "ĠÏĩÎ¹Î»Î¹Î¬": 3545,
      "ĠÎ´Î¹Î±Î¸ÎŃÏĦÎµÎ¹": 3546,
      "ĠÎ±ÏĢÏİ": 3547,
      "ĠÎ¤ÏĥÎ¯": 3548,
      "ÏĨÎµÏģÎµÎ¹Î±": 3549,
      "ÎĻÎļÎŁ": 3550,
      "ĠÎ´ÏīÏģÎµÎ¬Î½": 3551,
      "Î´Î¹ÎºÎ±": 3552,
      "ĠAn": 3553,
      "ÏĢÎµÏħ": 3554,
      "ĠÎĳÎ¸Î·Î½ÏİÎ½": 3555,
      "ÏĩÎ¿ÏħÎ¼Îµ": 3556,
      "ĠÏĢÎ±ÏģÎ±ÎºÎ¿Î»Î¿Ïħ": 3557,
      "ies": 3558,
      "ĠÏĢÎŃÎ½ÏĦÎµ": 3559,
      "ĠÎµÎ¾ÎŃÎ»Î¹": 3560,
      "Î¶ÎŃ": 3561,
      "ÏĦÎ®ÏĥÎ¿ÏħÎ½": 3562,
      "Î¬Î»Î»": 3563,
      "ĠÎ²Î¿ÏħÎ»ÎµÏħ": 3564,
      "ĠÎ¼ÎµÎ¯ÏīÏĥÎ·": 3565,
      "ĠÎµÏĢÎ¹ÏĦÏħÏĩÎ¯Î±": 3566,
      "24": 3567,
      "ĠÎĵÎ¹Î±ÏĦÎ¯": 3568,
      "ĠÎ´ÎµÎ´Î¿Î¼ÎŃÎ½Î±": 3569,
      "ÏģÎ¯ÏĥÎµÎ¹": 3570,
      "Î£ÏįÎ¼ÏĨÏīÎ½Î±": 3571,
      "ĠÎµá¼¶": 3572,
      "ĠÏĢÏģÎ¿ÏĬÏĮÎ½ÏĦÏīÎ½": 3573,
      "ĠÎķÎ¾": 3574,
      "eg": 3575,
      "ĠÏĦÎŃÏĦÎ¿Î¹Î±": 3576,
      "Î²ÏģÎ¯Î¿Ïħ": 3577,
      "ĠÏĪÎ®": 3578,
      "ÏĨÏĮÏĥÎ¿Î½": 3579,
      "Î´ÎµÎ¹Î¾Î·": 3580,
      "ĠÏĢÎµÎ»Î¬": 3581,
      "ĠÎ¦ÎµÎ²": 3582,
      "ÏĢÎ¿Î¹ÎµÎ¯ÏĦÎ±Î¹": 3583,
      "ĠÎ³Î¯Î½Î¿Î½ÏĦÎ±Î¹": 3584,
      "Î¼ÎµÏĦÎ±": 3585,
      "Î¯ÏģÎ¹": 3586,
      "ĠÎ´Î¹Î±ÏĦÎ¬Î¾ÎµÎ¹ÏĤ": 3587,
      "Î»Î±Î¹Î¿": 3588,
      "ĠÏĢÎ»Î¿": 3589,
      "ĠÏĦÏįÏĢÎ¿Ïħ": 3590,
      "ĠÏĥÏħÎ³Î³ÏģÎ±ÏĨ": 3591,
      "ÎľÎ±": 3592,
      "ĠÏģÎ¯": 3593,
      "our": 3594,
      "Î¤ÎĻ": 3595,
      "ÏĩÎµÎ¯ÏīÎ½": 3596,
      "ĠÎºÎ¹Î½Î®": 3597,
      "ÏĢÏģÎ¿ÏĥÏī": 3598,
      "Î¼Î¿ÏħÎ½": 3599,
      "ĠY": 3600,
      "ÏģÎ¯Î¶Î¿Î½ÏĦÎ±Î¹": 3601,
      "ĠÎ±ÏģÎ¹ÏĥÏĦÎµ": 3602,
      "ĠÎºÎŃÏģ": 3603,
      "ÏİÎ½Î¿ÏħÎ½": 3604,
      "ĠÎ¼Î®Î½Î±": 3605,
      "ÏĨÎ®ÏĤ": 3606,
      "ÏĦÎŃÏģÎ±ÏĤ": 3607,
      "ĠÏĥÏħÏĥÏĦÎ®Î¼Î±ÏĦÎ¿ÏĤ": 3608,
      "Î¾Î¿ÏħÎ¼Îµ": 3609,
      "ĠÎ´Î¹ÎºÎ±Î¯ÏīÎ¼Î±": 3610,
      "ÎłÎµÏģÎ¹ÏĥÏĥÏĮÏĦÎµÏģÎ±": 3611,
      "Î¿Î½ÏĦÎ±Î½": 3612,
      "Î¹ÎºÎ¿Î½": 3613,
      "ÏĥÏĦÎ·ÏĤ": 3614,
      "Ġ29": 3615,
      "ĠÎ±Î½Î±ÏĨÎŃÏģÎµÎ¹": 3616,
      "ĠÎµÎ¹Î´Î¹ÎºÏĮ": 3617,
      "ĠÎķÏĦÎ±Î¹": 3618,
      "Î¼Î±ÏĦÎ¬": 3619,
      "ĠÎ¿Î¹ÎºÎ¿Î½Î¿Î¼Î¹ÎºÎ®": 3620,
      "ÏĩÎ½Î·": 3621,
      "Î±ÏĥÏĦÎµÎ¯": 3622,
      "ÏįÏģÎ¹Î±": 3623,
      "Î±ÏĥÎ¯ÎµÏĤ": 3624,
      "uro": 3625,
      "Ġ2012": 3626,
      "ĠÎºÎ±Î¹ÏģÏĮ": 3627,
      "ĠÎ³ÏħÎ½Î±Î¹": 3628,
      "ÎŃÎ½Î±ÏĤ": 3629,
      "Î»Î¿Î³Î¿": 3630,
      "Î¨": 3631,
      "ĠÏĢÎ¿ÏĥÎ¿ÏĥÏĦÏĮ": 3632,
      "Î»Î¹ÎºÎ®ÏĤ": 3633,
      "ĠÎ¦Î¹": 3634,
      "ĠÏĢÏģÏīÎ¸ÏħÏĢÎ¿ÏħÏģÎ³": 3635,
      "ĠÎ´ÎµÎ¯ÏĦÎµ": 3636,
      "ĠÎ¼Î¿Î¹": 3637,
      "ĠÎĳÎ»ÎŃ": 3638,
      "Î¯Î¶Î¿ÏħÎ¼Îµ": 3639,
      "ĠÎµÏĢÎ¹ÏĩÎµÎ¹ÏģÎ®ÏĥÎµÎ¹ÏĤ": 3640,
      "ĠÎ´ÏģÎ¬ÏĥÎ·": 3641,
      "Î¤ÎĹÎ£": 3642,
      "ĠÎµÎºÏĨÏģÎ¬": 3643,
      "ĠÎµÎ¯ÏĥÎ±Î¹": 3644,
      "ĠÎ¼Î¹ÎºÏģÎ®": 3645,
      "ĠÎ±Î½Î¸ÏģÏī": 3646,
      "ĠÏĦá¿¶Î½": 3647,
      "ÎĳÎł": 3648,
      "Î³Î¹Î¬": 3649,
      "ĠÏĦÎ®Î½": 3650,
      "ĠÎ³Î½ÏīÏģÎ¯Î¶": 3651,
      "ĠÏĢÏģÎ¿ÏĥÏĦÎ±ÏĥÎ¯Î±": 3652,
      "ĠÎ¸Î¬Î»Î±": 3653,
      "ÏĮÏĦÎ±": 3654,
      "á½¹": 3655,
      "Î±Ïħ": 3656,
      "ĠÎ²Î¹": 3657,
      "ĠÎľÎ¿": 3658,
      "ĠÏĦÏģÎ¿ÏĢÎ¿": 3659,
      "ĠÎ±ÏģÎ¼ÏĮ": 3660,
      "ĠÏĢÎ½ÎµÏħÎ¼Î±": 3661,
      "Î¼ÏĮÏģÏĨ": 3662,
      "ĠÏĢÎµÏģÎ¹Î»Î±Î¼Î²Î¬Î½ÎµÎ¹": 3663,
      "Î´ÏģÏħ": 3664,
      "ĠÎŁÎºÏĦÏī": 3665,
      "ĠÎºÎ¯Î½Î´Ïħ": 3666,
      "ÎĻÎļÎĹÎ£": 3667,
      "ĠÎ´ÎµÏįÏĦÎµÏģÎ¿": 3668,
      "ĠÎ¤Î·": 3669,
      "ev": 3670,
      "ĠÏĥÏįÎ½Î¿Î»Î¿": 3671,
      "ĠÏĢÎ±ÏģÎµÎ»Î¸ÏĮÎ½": 3672,
      "Î½ÎµÏį": 3673,
      "ÏģÎµÏĦÎµ": 3674,
      "ĠÎ±ÏĤ": 3675,
      "ĠÏĥÏĦÏģÎ±ÏĦÎ·Î³": 3676,
      "ĠÎ±Î½ÏĦÎ¹Î¼ÎµÏĦÏīÏĢ": 3677,
      "ÏĦÎµÎ¯Î±ÏĤ": 3678,
      "ĠÎ³ÏģÎ®Î³Î¿ÏģÎ±": 3679,
      "ĠÎµÏįÎºÎ¿": 3680,
      "ÎºÏĦÎ¹ÎºÎ¬": 3681,
      "ph": 3682,
      "Î´ÏĮÏĥÎµÎ¹ÏĤ": 3683,
      "Î±Î½Î¿": 3684,
      "ĠÏĮÏĥÎ¿ÏħÏĤ": 3685,
      "ÏĢÏģÏĮÏĥÏī": 3686,
      "ĠÎ±ÏģÎ¹Î¸Î¼ÏĮ": 3687,
      "ĠÎ±Î»Î®Î¸ÎµÎ¹Î±": 3688,
      "ĠÎŃÏĦÎ¿ÏĤ": 3689,
      "Î¹Î±Î´Î®ÏĢÎ¿ÏĦÎµ": 3690,
      "ĠÏĢÎ¿Î»Î¯ÏĦÎµÏĤ": 3691,
      "ÏĢÎ¬Ïģ": 3692,
      "ĠÎ¾ÎµÎ½Î¿Î´Î¿ÏĩÎµÎ¯Î¿": 3693,
      "ĠÎ¶Îµ": 3694,
      "ĠX": 3695,
      "Î»Î¬Î²ÎµÎ¹": 3696,
      "ĠÎ½Î¬": 3697,
      "ĠÏĩÏģÏĮÎ½Î¿Ïħ": 3698,
      "ĠÎµÎºÎµÎ¯Î½Î·": 3699,
      "ÏĮÏĦÎ±Î½": 3700,
      "ĠÏĦÏģÎ¯Î±": 3701,
      "ĠÏĢÎ¿Î»Î¹ÏĦÎ¹ÎºÎ®ÏĤ": 3702,
      "ĠÎ¾Î±Î½Î¬": 3703,
      "ÎºÎºÎ¹": 3704,
      "ill": 3705,
      "ĠâĤ¬": 3706,
      "ĠÎ±ÏĢÎ¿Ïģ": 3707,
      "ÏĦÎ·ÏģÎ¯Î¿Ïħ": 3708,
      "ĠÏĢÏĮÎ»Îµ": 3709,
      "ct": 3710,
      "ĠÎ±Î½Î¸ÏģÏİÏĢÎ¹": 3711,
      "ĠÎłÎµÎ¹": 3712,
      "ÏģÎ¹ÏĤ": 3713,
      "ÏĥÎŃ": 3714,
      "ĠÎ´ÏħÏĥÎºÎ¿Î»": 3715,
      "ĠÎłÎ±ÏģÎ±ÏĥÎºÎµÏħÎ®": 3716,
      "ĠÎ´ÎµÎ´Î¿Î¼ÎŃÎ½ÏīÎ½": 3717,
      "ĠÎ±Î½Î±ÎºÎ¿Î¹Î½": 3718,
      "ĠÎ¸ÏģÎ·": 3719,
      "ont": 3720,
      "ĠÏĨÎ±Î³Î·": 3721,
      "ĠÎ½Î¯ÎºÎ·": 3722,
      "ÏĩÎ¸Î·ÎºÎµ": 3723,
      "Î»Î¿Î³Î¹ÎºÎ¬": 3724,
      "Î¸Î·ÏĥÎ±Î½": 3725,
      "ĠÏĢÏģÏĮÏĥÏīÏĢÎ¿": 3726,
      "ĠÎĶÎĻÎĳ": 3727,
      "ĠÎ¼ÎµÎ³Î±Î»ÏįÏĦÎµÏģÎ¿": 3728,
      "ÏĢÎ¿Î¹Î®ÏĥÎµÎ¹": 3729,
      "ĠÎ¸ÎŃÎ»Î¿ÏħÎ½": 3730,
      "ĠÎŃÎºÎ´Î¿ÏĥÎ·": 3731,
      "ĠÎ¬Î»Î»Î¿Î¹": 3732,
      "ĠÎŁÎºÏĦÏīÎ²ÏģÎ¯Î¿Ïħ": 3733,
      "Î¼Î¹Î¬": 3734,
      "ÎłÎŁÎ¥": 3735,
      "ĠÎ¤ÎĹÎĿ": 3736,
      "ÏĮÎ¼ÎµÎ½ÎµÏĤ": 3737,
      "Î´Î¹Ïĥ": 3738,
      "Ġá¼Ħ": 3739,
      "ĠÎ´Î¹Î±Î³ÏīÎ½Î¹Ïĥ": 3740,
      "ĠÎ´ÎŃÏģ": 3741,
      "ĠÎ±ÏĥÏĨÎ±Î»Î¹Ïĥ": 3742,
      "ĠÏĩÏģÏİÎ¼Î±": 3743,
      "ĠÎºÏģÎ¬ÏĦÎ¿ÏĤ": 3744,
      "ĠÎ¬ÏĢÎ¿": 3745,
      "one": 3746,
      "ÏĢÎ±Ïĥ": 3747,
      "ĠÎµÎºÎºÎ»Î·": 3748,
      "ÎŃÎ½Îµ": 3749,
      "ĠÎļÎ¿Î¹Î½ÏīÎ½": 3750,
      "ÎŃÏģÎ¿Î½": 3751,
      "ĠÏĢÎ±ÏģÎ±Î´Î¿ÏĥÎ¹Î±": 3752,
      "ÏĦÎ±Î½Î¬": 3753,
      "ĠÎµÏģÎ³Î±Î¶ÏĮÎ¼Îµ": 3754,
      "ĠÏĢÎ¬ÎµÎ¹": 3755,
      "ÎķÎº": 3756,
      "ĠÎµÏįÎºÎ¿Î»Î±": 3757,
      "Î¿Î½ÏĦÎ±": 3758,
      "ĠÎĿÏĮ": 3759,
      "ĠÎĶÎ¹Îµ": 3760,
      "og": 3761,
      "Î¿Î»Î¬": 3762,
      "ĠÎ´Î¹Î¿ÏģÎ³Î±Î½": 3763,
      "ÏİÏĥÎµÏīÎ½": 3764,
      "Î½Î±Î½ÏĦÎ¯": 3765,
      "ĠÎ³Î½ÏīÏĥÏĦÏĮ": 3766,
      "Î³Î¿ÏĤ": 3767,
      "ĠÎ²Î¬Î»": 3768,
      "ÎļÎķ": 3769,
      "Î¬Î½Îµ": 3770,
      "ĠÏĥÏĩÎŃÎ´Î¹Î¿": 3771,
      "ĠÏģÏį": 3772,
      "ĠÎ¼Î±Ïį": 3773,
      "ĠÎ±Î³ÏīÎ½": 3774,
      "ĠÎµÎ¾Î¿ÏĢÎ»Î¹Ïĥ": 3775,
      "ĠÏĨÏīÏĦÎ¿Î³ÏģÎ±ÏĨÎ¯ÎµÏĤ": 3776,
      "Î³ÏģÎ±ÏĨÎ¯Î±": 3777,
      "21": 3778,
      "ĠÎµÏĨÎ±ÏģÎ¼ÏĮ": 3779,
      "ĠÎ´Î·Î¼ÏĮÏĥÎ¹Î±": 3780,
      "ÎĳÎĺ": 3781,
      "ÎĺÎ±": 3782,
      "ĠÏĥÏħÎ¼ÏĨÏīÎ½Î¯Î±": 3783,
      "ĠÎµÏĢÎ¹ÏĥÏĦÎ®": 3784,
      "Î¯ÏĥÏĩÏħ": 3785,
      "ĠÎºÏģÏį": 3786,
      "ĠÎ½ÎŃÏīÎ½": 3787,
      "ĠÎ¼ÎŃÎ»Î¿ÏĤ": 3788,
      "ÂµÎ¿": 3789,
      "Î¼ÎµÎ½Î±": 3790,
      "ĠÎĵÎ±Î»Î»": 3791,
      "Î¼ÏĮÏĦÎ·ÏĦÎ±": 3792,
      "ÏĨÏī": 3793,
      "ĠÎļÎĳÎ¤": 3794,
      "Î¸Î¿Ïħ": 3795,
      "ĠÎ±Î½Î¿Î¹Ïĩ": 3796,
      "ĠÎŃÎºÎ¸ÎµÏĥÎ·": 3797,
      "ÏĦÎ¹ÏĥÎ¼ÏĮÏĤ": 3798,
      "ĠÏĢÏģÎ¿ÏĥÎ¸ÎŃ": 3799,
      "ĠÎ±ÏĢÎµÎ¹": 3800,
      "Î¸Î·ÏĥÎµ": 3801,
      "ĠÎºÎ¯Î½Î·": 3802,
      "ĠÏĢÎ¿Î¹Îº": 3803,
      "Î»Î¹ÎºÎ¿Ïį": 3804,
      "ĠÎ³Î¿Î½ÎµÎ¯ÏĤ": 3805,
      "ĠÏĢÎ¿Î¹Î¿": 3806,
      "ĠÎºÎ¬Î½ÎµÏĦÎµ": 3807,
      "ĠÎµÎ¾ÎµÎ»Î¯": 3808,
      "ĠÎ±ÏĨÎ¿ÏģÎ¿ÏįÎ½": 3809,
      "Î¯Î½Î·ÏĤ": 3810,
      "ect": 3811,
      "ĠÎ±ÏĢÎ±ÏģÎ±Î¯ÏĦÎ·": 3812,
      "Î¬Î½Ïī": 3813,
      "ĠÎ±Î¹ÏİÎ½Î±": 3814,
      "ĠÎĽÎ¬": 3815,
      "ĠÎ¼ÎµÎ³Î¬Î»ÎµÏĤ": 3816,
      "log": 3817,
      "ÏĢÎ¿Î¼ÏĢ": 3818,
      "ĠÎ±Î½Î¸ÏģÏİÏĢÏīÎ½": 3819,
      "ĠÎłÎ±Î½Î±Î³": 3820,
      "ĠÏĩÎ±ÏģÎ¬": 3821,
      "ĠÎºÏĮÏĥÏĦÎ¿ÏĤ": 3822,
      "Î´Î¿ÏĥÎ·ÏĤ": 3823,
      "Î¶ÏĮÎ½": 3824,
      "ĠÎµÏĢÎ¹Î²": 3825,
      "ÏĥÏĦÎ¿Ïį": 3826,
      "ĠÎ£Î¿": 3827,
      "ĠÎĺÎµÏĥÏĥÎ±Î»Î¿Î½Î¯ÎºÎ·": 3828,
      "ĠÎµÏĢÎ·ÏģÎµ": 3829,
      "ÏģÎŃÎ±ÏĤ": 3830,
      "ĠÏĮÏĢÎ¿": 3831,
      "ĠÏĥÏħÎ½Î®Î¸ÏīÏĤ": 3832,
      "ĠÎŃÎ»ÎµÎ³": 3833,
      "ÎµÏģÎ¼Î±": 3834,
      "ĠÎĿÎ¿ÎµÎ¼Î²ÏģÎ¯Î¿Ïħ": 3835,
      "ide": 3836,
      "ÏĥÏħÎ½": 3837,
      "ĠÎ³Î·": 3838,
      "ĠÎ±Î¾Î¹Î¿Î»ÏĮÎ³": 3839,
      "ÎĶÎ¹Î±": 3840,
      "îĪ": 3841,
      "ĠÎĮÏĢÏīÏĤ": 3842,
      "ĠÏĥÏįÎ½Î´Îµ": 3843,
      "ĠÏĢÏģÎ¬Î³Î¼Î±": 3844,
      "ĠÎºÎ¬ÏĢÎ¿Î¹ÎµÏĤ": 3845,
      "ĠÎµÎºÎ±ÏĦ": 3846,
      "ore": 3847,
      "ĠÎ»ÏĮÎ³Î¿ÏħÏĤ": 3848,
      "Î¸ÎµÏĥ": 3849,
      "ÏĥÏĦÎŃÏĤ": 3850,
      "ĠÏħÏĢÎµÏį": 3851,
      "Î»Î±Î²": 3852,
      "ĠÎ±Î½Î±Î³Î½Ïİ": 3853,
      "ÎºÏģÎ¬": 3854,
      "ĠÏĦÎµÎ»ÎµÏħÏĦÎ±Î¯Î¿": 3855,
      "ĠÏĩÏģÎ¿Î½Î¹Î¬": 3856,
      "ÏĥÎ¿ÏĤ": 3857,
      "ĠÎľÏĢÎ±": 3858,
      "ÏħÎ½ÏĥÎ·": 3859,
      "ĠÎ½ÎŃÎ¿Ïħ": 3860,
      "ĠÏĢÎ±ÏģÎ±Î³ÏīÎ³Î®": 3861,
      "ĠÎ±ÏģÎ½Î·": 3862,
      "ĠÎ¶ÏīÎ½": 3863,
      "ĠÎ¼Î¹Î»Î¬": 3864,
      "Î¹ÏĤ": 3865,
      "ĠÎ±Î½Î±Î¶Î·": 3866,
      "ĠÎ»ÏĮÎ³Î¿ÏĤ": 3867,
      "Î¹Î±ÏĤ": 3868,
      "ĠÏĥÏĦÏģÎ±ÏĦÎ¹Ïī": 3869,
      "ĠAl": 3870,
      "Î¾Î¯Î±": 3871,
      "Î»Î·ÏģÎ¿": 3872,
      "Î½ÎŃ": 3873,
      "ÎºÎ±Î¼Îµ": 3874,
      "ÎºÏģÎ¯": 3875,
      "ÏĢÎ¿Î»Î¹": 3876,
      "23": 3877,
      "Î¿ÏįÏģ": 3878,
      "Î³Î¿Î½ÏĦÎ±Î¹": 3879,
      "ĠÎ±Î½Î±Î¼ÎŃÎ½": 3880,
      "ĠÎ²Î¿Î®Î¸ÎµÎ¹Î±": 3881,
      "Î¼ÎµÎ½Î¿": 3882,
      "ĠÎµÏģ": 3883,
      "ÏģÏĩÎ¿ÏħÎ½": 3884,
      "ĠÎºÎ±Î¸Î·Î³Î·": 3885,
      "ÏĦÎ¿ÏįÏĤ": 3886,
      "ĠÎ´Î·Î¼Î¹Î¿ÏħÏģÎ³Î®": 3887,
      "ĠÎ¹Î´Î±Î½": 3888,
      "ĠÏĥÏħÎ½ÎµÎ¹": 3889,
      "LINE": 3890,
      "ĠÎºÎ±ÏģÎ´Î¹Î¬": 3891,
      "ĠÎµÎ½ÏĦÏħÏĢÏī": 3892,
      "ĠÎ£ÏħÎ¼Î²Î¿ÏħÎ»Î¯Î¿Ïħ": 3893,
      "ĠÏĢÏģÎ¿ÏĢÎ¿": 3894,
      "ĠÏĢÏģÎ¿Î³ÏģÎ¬Î¼Î¼Î±ÏĦÎ¿ÏĤ": 3895,
      "ĠÎĻÏĥÏĦÎ¿": 3896,
      "ĠÎ½á½°": 3897,
      "ĠÏĢÏģÎ¿Î³ÏģÎ±Î¼Î¼Î±": 3898,
      "Î¤ÎĳÎ£": 3899,
      "ÏĥÎ±ÏĤ": 3900,
      "ĠÎĻÎ¿ÏħÎ½Î¯Î¿Ïħ": 3901,
      "Î´ÏģÎ¿Î¼Î®": 3902,
      "ÎºÎ»Î·ÏĥÎ·": 3903,
      "ĠÎ¼ÏħÏĥ": 3904,
      "Ð¾": 3905,
      "Ġ60": 3906,
      "ÏĨÎ±Ïĥ": 3907,
      "ÎŁÎ¥ÎĿ": 3908,
      "ÏĥÎ¼Î¿Ïį": 3909,
      "ÏĨÎ¹Ïĥ": 3910,
      "ĠÎµÎ»Î¬ÏĩÎ¹Ïĥ": 3911,
      "ĠÏĨÏģÎ¿Î½ÏĦÎ¯": 3912,
      "ĠÎ¥Î³Îµ": 3913,
      "ĠÎºÎ¹Î½Î´": 3914,
      "ÏĦÏĥÎ¹Î±": 3915,
      "ĠÎ£ÎµÏĢÏĦÎµ": 3916,
      "ĠÏĥÏħÎ½Î±Î¹Ïĥ": 3917,
      "):": 3918,
      "ÏĥÏĦÎ¹ÎºÏĮ": 3919,
      "ĠÎķÏĢÎ¹ÏĦÏģÎ¿ÏĢÎ®": 3920,
      "ĠÎŃÎ»ÎµÎ³ÏĩÎ¿": 3921,
      "ĠÎ»ÏĮÎ³Î¹Î±": 3922,
      "ĠÎ±Î½Î±ÏĢÏĦ": 3923,
      "Î¬Î½ÏĦÎ±": 3924,
      "Î½ÏĦ": 3925,
      "ĠÎ£Î¬Î²Î²Î±ÏĦÎ¿": 3926,
      "ĠÎ½ÎµÎº": 3927,
      "ĠÎĴÎ±ÏĥÎ¯": 3928,
      "ÏĮÎ´Î¿": 3929,
      "ĠÎļÎ±ÏģÎ±": 3930,
      "ĠÏĢÎ¿Î´Î¿": 3931,
      "ĠÎµÏģÏİ": 3932,
      "ĠÏĥÎºÏĮ": 3933,
      "ĠÎµÎºÎ´Î®Î»ÏīÏĥÎ·": 3934,
      "ĠÎłÎ±Î³": 3935,
      "ĠÏĨÏĦÎ¹Î¬": 3936,
      "ĠÎļÏįÏĢ": 3937,
      "ĠÎĽÎŃ": 3938,
      "ÎĪÎ½Î±": 3939,
      "Î»Î»Î®Î½ÏīÎ½": 3940,
      "ass": 3941,
      "ĠÏĪÎ¬": 3942,
      "ĠÎµÎ¯Î´Î·": 3943,
      "ĠÎ¿ÏĢÎ¿Î¹Î±Î´Î®ÏĢÎ¿ÏĦÎµ": 3944,
      "ite": 3945,
      "ĠÎ²Î¯Î½ÏĦÎµÎ¿": 3946,
      "ud": 3947,
      "ĠÎ´Î¹Î±ÏģÎº": 3948,
      "ĠÎ´ÏħÎ½Î¬Î¼ÎµÎ¹ÏĤ": 3949,
      "Î¥ÎĿ": 3950,
      "ĠÎ£Î¥ÎĿ": 3951,
      "ÏĢÎ¿Î¹ÎµÎ¯": 3952,
      "Ġ#": 3953,
      "ĠÎ·Î»Î¹ÎºÎ¯Î±": 3954,
      "ĠÏĢÏģÏĮÏĦÎ±ÏĥÎ·": 3955,
      "ark": 3956,
      "ĠÏĢÎ¿Î»Î»Î¿Î¯": 3957,
      "Ġ31": 3958,
      "ĠÎ½ÎµÎ¿": 3959,
      "Î³Ïİ": 3960,
      "ĠÏĢÎ»Î·Î¸ÏħÏĥ": 3961,
      "ĠÏĢÎ¹ÏĥÏĦÎ¿": 3962,
      "Î²Î¿Î»Î®ÏĤ": 3963,
      "ÎļÎĳ": 3964,
      "Ġá¼Ī": 3965,
      "ĠÎŃÏĦÎ¿Î¹": 3966,
      "ï¿½ï¿½": 3967,
      "ĠÏĢÎ¿ÏĥÏĮ": 3968,
      "ĠÎºÎ±Î¹Î½Î¿Ïį": 3969,
      "ĠÎ¾Ïį": 3970,
      "ĠÎµÎºÎ»Î¿Î³ÎŃÏĤ": 3971,
      "ĠÏĥÏĦÎ®ÏģÎ¹": 3972,
      "ĠÎ»Î±ÏĬ": 3973,
      "ĠÎµÏģÎµÏħÎ½Î·": 3974,
      "Î¥Î£": 3975,
      "ĠÎ±Î¼ÎŃÏĥÏīÏĤ": 3976,
      "ĠÎ¿ÏĢÎ¿Î¯ÏīÎ½": 3977,
      "ĠÎĳÎ½Î´": 3978,
      "ĠÎ»ÎµÏħ": 3979,
      "ĠÎŃÏģÏĩÎµÏĦÎ±Î¹": 3980,
      "ĠÎµÎ²Î´Î¿Î¼Î¬Î´Î±": 3981,
      "ĠÎ¸Ïį": 3982,
      "ÏģÎ±Î³Ïī": 3983,
      "ĠÎ¤Î¿ÏħÏģÎºÎ¯Î±": 3984,
      "ÏĢÎ¿ÏįÎ»Î¿Ïħ": 3985,
      "Î¸ÎµÎ¹ÎµÏĤ": 3986,
      "ĠÎµÎºÏĦÎ¹": 3987,
      "Î¸ÏģÎ¿": 3988,
      "ÏĦÏģÎ¿ÏĨÎ®ÏĤ": 3989,
      "ĠÎ£ÎµÏĢÏĦÎµÎ¼Î²ÏģÎ¯Î¿Ïħ": 3990,
      "ÎµÎ¯Î¼ÎµÎ½Î±": 3991,
      "ĠÏĦÏģÏĮÏĢÎ¿ÏĤ": 3992,
      "ÎºÎ±ÏĦÎ¬ÏĥÏĦÎ±ÏĥÎ·": 3993,
      "ĠÎ¼Î¬ÏĦÎ¹Î±": 3994,
      "ĠÎ·Î¼ÎµÏģÎ¿Î¼Î·Î½": 3995,
      "ĠÎ¿Î¼Î¿": 3996,
      "ĠÎ¼Î±Î³": 3997,
      "ĠÎ±ÏĢÎ¿Î´Î¿": 3998,
      "Î¿Î»Î®": 3999,
      "ÏĦÎ®ÏģÎ·ÏĥÎ·": 4000,
      "ĠÎ´Î¹Ïĥ": 4001,
      "ĠÎ¬Ïģ": 4002,
      "ĠSp": 4003,
      "ÏģÎ¸Îµ": 4004,
      "ĠÏĥÏĩÎŃÏĥÎµÎ¹ÏĤ": 4005,
      "ĠÎ±Î»Î»Î±Î³Î®": 4006,
      "ĠÏħÎ³ÎµÎ¯Î±ÏĤ": 4007,
      "ĠÎ¼Î±Ïģ": 4008,
      "ĠÎµÎ¼ÏĨÎ¬Î½Î¹": 4009,
      "ĠÎµÏĦÎ±Î¹ÏģÎµÎ¯Î±ÏĤ": 4010,
      "Î¼Î¹ÎºÎ¿Ïį": 4011,
      "ĠÎķÎ£": 4012,
      "ÎºÎ¿Î»Î¿Ïį": 4013,
      "ĠÎ¿ÏģÎ¸": 4014,
      "ĠÎ¿Î¹ÎºÎ¿Î³ÎŃÎ½ÎµÎ¹Î±": 4015,
      "ĠÎ½Î¹Ïİ": 4016,
      "ĠÎ¯Î´Î¹": 4017,
      "ĠÏĥÎ·Î¼Î±ÏĥÎ¯Î±": 4018,
      "ĠÎ¤Îĳ": 4019,
      "ĠÎ±ÏģÎ³ÏĮÏĦÎµÏģÎ±": 4020,
      "ÎºÏĦÎ¹ÎºÏĮ": 4021,
      "Î£ÏħÎ½": 4022,
      "ĠÎ´Î·Î¼Î¿ÎºÏģÎ±": 4023,
      "ĠÏĥÎ·Î¼ÎµÎ¯Î±": 4024,
      "ĠÏĢÎµÎ¯": 4025,
      "ĠÎ¼ÎµÎ»ÎŃÏĦÎ·": 4026,
      "Î·Î³Î®": 4027,
      "ĠÎŃÎ´ÏīÏĥÎµ": 4028,
      "ÎºÏī": 4029,
      "ĠÎķÏĢÎ¹ÏĦÏģÎ¿ÏĢÎ®ÏĤ": 4030,
      "ÏĥÏĦÏī": 4031,
      "ÎĮÏĢÏīÏĤ": 4032,
      "ĠÎĵÎµÏīÏģÎ³": 4033,
      "ge": 4034,
      "Î¯ÎºÎ·ÏĥÎ·ÏĤ": 4035,
      "ÏģÎµÏĥÎ·": 4036,
      "ĠÏĢÎ±Î»Î¹": 4037,
      "ĠÏĩÎ±ÏģÎ±ÎºÏĦÎ®ÏģÎ±": 4038,
      "Î»ÎµÎ¯ÏĦÎ±Î¹": 4039,
      "ĠÎµÎ»Î»Î·Î½Î¹ÎºÏĮ": 4040,
      "Î»ÎµÎ¯Î±": 4041,
      "âĢĵ": 4042,
      "ÏĦÎ®Î¸Î·ÎºÎµ": 4043,
      "ÎľÎ¹Î±": 4044,
      "Î¬Î½Î¿Î½ÏĦÎ±Î¹": 4045,
      "Î¼Î½Î·": 4046,
      "Î²ÎŃÏģÎ½Î·": 4047,
      "ĠÎŃÏģÎ¸": 4048,
      "WLINE": 4049,
      "Î»Î®Î¼Î±ÏĦÎ¿ÏĤ": 4050,
      "ĠÎ£ÏħÎ½ÎŃ": 4051,
      "ff": 4052,
      "ĠÎĳÎ»Îµ": 4053,
      "ĠÏĢÎ¯Î½Î±": 4054,
      "ĠÎºÏģÏħ": 4055,
      "ĠÎºÎ±Î½ÎŃÎ½Î±": 4056,
      "ĠÎ²Î±Î¸Î¼ÏĮ": 4057,
      "ĠÎĻÎ½": 4058,
      "Î´ÎµÎ¯Î±ÏĤ": 4059,
      "ĠÎ´Î·Î¼Î¿ÏĥÎ¹ÎµÏį": 4060,
      "ĠÎ±Î¹ÏĥÎ¸Î·": 4061,
      "ĠÏĢÎ±Î¹ÏĩÎ½Î¯Î´Î¹Î±": 4062,
      "ĠÎ¤Î¿Ïį": 4063,
      "ĠÎµÏĢÎ¹Î²Îµ": 4064,
      "ĠÎºÏĮÏĥÎ¼Î¿ÏĤ": 4065,
      "Î¿ÏħÎ»": 4066,
      "ĠÎ¼Î¬Î»Î»Î¿Î½": 4067,
      "ĠÏĢÏģÎ¿ÎµÏĦÎ¿Î¹": 4068,
      "ity": 4069,
      "ÎĻÎŁÎ¥": 4070,
      "ÏĦÎ®Î¼Î¹Î¿": 4071,
      "ĠÏĩÏģÎ®ÏĥÎ·ÏĤ": 4072,
      "ĠÎ»ÎµÏĢÏĦÎ¿": 4073,
      "ĠÎºÏħÎ²ÎŃÏģÎ½Î·ÏĥÎ·ÏĤ": 4074,
      "á¼±": 4075,
      "ĠÏĢÎ®ÏģÎµ": 4076,
      "ĠÎĽÎµÏħ": 4077,
      "ĠÎ³ÎŃ": 4078,
      "ĠÏĦÏģÎ±Î³Î¿Ïħ": 4079,
      "ÏĢÎµÎ¹ÏĦÎ±": 4080,
      "ĠÏĢÎ±Î¹Î´Î¹ÏİÎ½": 4081,
      "ĠÎµÎ½ÎŃÏģÎ³ÎµÎ¹Î±": 4082,
      "ĠÎºÎ¿Ïĥ": 4083,
      "ĠÏħÏĢÎ¿Î´Î¿": 4084,
      "ĠÎ¸ÎŃÎ»ÎµÏĦÎµ": 4085,
      "ob": 4086,
      "ĠÎ³ÏģÎ±Î¼Î¼": 4087,
      "ĠÎĵÎ¹ÏİÏģÎ³Î¿ÏĤ": 4088,
      "Î¾Î¹Î±": 4089,
      "ĠÎ¤ÎµÏĦÎ¬Ïģ": 4090,
      "ĠÎ±ÏħÎ¾Î·": 4091,
      "ÏĩÎ·Î¼Î±": 4092,
      "ÏĮÏĦÎµÏģÎ·": 4093,
      "ÎºÏģÎ¹Î¬": 4094,
      "70": 4095,
      "ÏĢÎµÏĤ": 4096,
      "ÏĩÎµÏĤ": 4097,
      "ÏĢÎ¿Î¯Î·": 4098,
      "ĠÏĢÏģÎ¿ÏĦÎµ": 4099,
      "ĠÎ³Î»ÏİÏĥÏĥÎ±": 4100,
      "Î²Î¿Ïį": 4101,
      "ÏĩÎ½Î·ÏĤ": 4102,
      "ĠÎ³Î¯Î½Î¿ÏħÎ½": 4103,
      "ĠÏħÎ»Î¹ÎºÏĮ": 4104,
      "ĠÎĳÎ³Î¯Î¿Ïħ": 4105,
      "ĠÎ¹Î±": 4106,
      "ĠÎµÏĢÏĮÎ¼ÎµÎ½Î·": 4107,
      "ĠÎ´Î¹ÎµÎº": 4108,
      "ĠÎ¹ÏĥÏĩÏįÎµÎ¹": 4109,
      "Î»ÎµÏħÏĥÎ·": 4110,
      "ĠÏĦÎ±Î¹Î½Î¯Î±": 4111,
      "Î³Î¹Ïĥ": 4112,
      "ĠÎ½Î¿Î¼Î¿Î¸Îµ": 4113,
      "ĠÎ±Î½ÏĦÎ±Î³ÏīÎ½Î¹Ïĥ": 4114,
      "ÎľÎµÏĦÎ¬": 4115,
      "ĠÏĦÎ±ÏĩÏį": 4116,
      "AN": 4117,
      "ĠÎłÎ±Î½ÎµÏĢÎ¹ÏĥÏĦÎ·Î¼Î¯Î¿Ïħ": 4118,
      "ĠÏĢÎ¹Î¬": 4119,
      "Î½Î¯": 4120,
      "Ġá½ĳ": 4121,
      "ĠÎ¼Ïį": 4122,
      "ĠÏĢÎ±ÏģÎ±Î³ÏīÎ³Î®ÏĤ": 4123,
      "ĠÏĥÎ¯Î³Î¿ÏħÏģÎ±": 4124,
      "ĠÏĥÏħÎ³ÎºÎµÎºÏģÎ¹Î¼ÎŃÎ½Î±": 4125,
      "Î½Î±ÏĬ": 4126,
      "Î¼Î¹Î±ÏĤ": 4127,
      "ĠÎ±Î¾Î¯Î±": 4128,
      "ĠÏĢÎ¿Î¹ÏĮÏĦÎ·ÏĦÎ±": 4129,
      "ĠÏĥÏħÎ³ÎºÎµÎºÏģÎ¹Î¼ÎŃÎ½Î¿": 4130,
      "ĠÎ§ÏģÎ®": 4131,
      "Î»Î»ÏĮÎ³Î¿Ïħ": 4132,
      "ĠÎ¼Î®Î½": 4133,
      "Ġ2011": 4134,
      "ĠÎ´ÏģÎ¿": 4135,
      "ĠÎ¿Î¼Î¹": 4136,
      "ĠÎĻÎ¿ÏħÎ»Î¯Î¿Ïħ": 4137,
      "ĠÎµÎ¾ÎŃÎ»Î¹Î¾Î·": 4138,
      "ÏģÎ±Î¼Î±": 4139,
      "ĠÎŃÎ½Î±Ïģ": 4140,
      "ĠÎ¼Î¯": 4141,
      "ĠÎĶÏħ": 4142,
      "ĠÎ±Î¯Ïĥ": 4143,
      "ĠLe": 4144,
      "ĠÎ½ÏįÏĩ": 4145,
      "ÎµÎ´ÏģÎ¿": 4146,
      "ÎĿÎ±": 4147,
      "ĠÎ¶Î®ÏĦÎ·Î¼Î±": 4148,
      "Î¯Î½Ïī": 4149,
      "ĠÎ¼ÏĢÎ¬": 4150,
      "ĠÎ·Î³Îµ": 4151,
      "ĠÎ²ÏģÎ®": 4152,
      "ĠÎ´Î¯ÏĢÎ»Î±": 4153,
      "ind": 4154,
      "ĠÎ±Î½Î±ÏĨÎŃÏģÎµÏĦÎ±Î¹": 4155,
      "ĠÎµÎ¯ÏĥÏĦÎµ": 4156,
      "ĠÏĦÎ±ÏħÏĦÏĮÏĩÏģÎ¿Î½Î±": 4157,
      "ĠÎ¬Î½Î¿Î¹": 4158,
      "ÏĢÎ¬ÏģÏĩÎ¿ÏħÎ½": 4159,
      "ÏĥÏįÎ½Î·ÏĤ": 4160,
      "ĠÏħÎ³ÎµÎ¯Î±": 4161,
      "ĠÎµÏĢÎ¯ÏĥÎ·": 4162,
      "ĠÎ´Î¹Î±ÎºÎ¿ÏĢ": 4163,
      "ÎĶÎĳ": 4164,
      "ÏģÎ¹ÏĥÏĦÎ¿": 4165,
      "ÏĦÏģÎ¯": 4166,
      "âĢĿ.": 4167,
      "ĠÎ´ÎµÎ¯ÏĩÎ½ÎµÎ¹": 4168,
      "ĠÎłÎŁÎĽ": 4169,
      "ĠÏħÏĢÎ®Ïģ": 4170,
      "ĠÎ¼Î±Î¶": 4171,
      "Î¼Ïį": 4172,
      "ĠÎ¦ÎµÎ²ÏģÎ¿Ïħ": 4173,
      "ĠÎ´Î¿ÏįÎ¼Îµ": 4174,
      "âĢ¢": 4175,
      "ĠÎ¹Ïĥ": 4176,
      "ÎºÎ¿ÏįÏĤ": 4177,
      "Î´ÎµÎ¹Î±": 4178,
      "ÏĨÏīÎ½Î¿": 4179,
      "ĠÎºÎ±ÏĦÎ¿Î¹Îº": 4180,
      "ÎºÎ±Î´Î·": 4181,
      "ĠÏĢÏģÎ¿ÏĥÎ±Ïģ": 4182,
      "ÏĦÎµÏħÎ¾Î·": 4183,
      "Ð°": 4184,
      "ÏĩÏģÎ¿Î½": 4185,
      "ĠÎ£Îķ": 4186,
      "ate": 4187,
      "ÏīÏĥÏĦÎµ": 4188,
      "ÎŃÎ½ÏĦ": 4189,
      "ĠÎ³ÎµÏī": 4190,
      "ÏĦÎ¿Î¼Î¿": 4191,
      "ÏĥÎ¹Î¼Î±": 4192,
      "ĠÎµÏĨÏĮÏĥÎ¿Î½": 4193,
      "âĢĿ,": 4194,
      "Î³Î³ÎŃ": 4195,
      "ĠÎ±Î»Î»Î±Î³ÎŃÏĤ": 4196,
      "Î»Î·ÏĥÎ·ÏĤ": 4197,
      "ÏĥÏĦÎ¿ÏĤ": 4198,
      "ĠÎŃÎ¾": 4199,
      "ÏĥÏĩÎŃ": 4200,
      "ĠÎ¹Î´Îµ": 4201,
      "Î¸Î»Î·Î¼Î±": 4202,
      "ĠÏħÏĢÏĮÎ¸ÎµÏĥÎ·": 4203,
      "ÏīÏģÎ¯ÏĤ": 4204,
      "ÏĨÎ¿Ïħ": 4205,
      "ÎµÏģÏĮ": 4206,
      "ĠÏĢÎ»Î·ÏģÏī": 4207,
      "ĠÎ±Î½Î±Î¼ÎŃÎ½ÎµÏĦÎ±Î¹": 4208,
      "ĠÎĳÏģÎ³": 4209,
      "ĠÏĥÏįÎ³Îº": 4210,
      "ÏĥÎºÎµÏĪÎ·": 4211,
      "Î´Î¯Î´": 4212,
      "ĠÏĢÎ¿Î¹ÏĮÏĦÎ·ÏĦÎ±ÏĤ": 4213,
      "Î¼Î²Î¿Ïħ": 4214,
      "Î¹ÏĥÎ±": 4215,
      "Î³ÏĩÎ¿ÏĤ": 4216,
      "ĠÏĥÎµÎ¾": 4217,
      "ĠÎľÎ±Î½": 4218,
      "ÏģÎ±Î²": 4219,
      "ĠÎĶÎµÏħÏĦÎŃÏģÎ±": 4220,
      "ĠÎľÎ±ÏģÏĦÎ¯Î¿Ïħ": 4221,
      "ĠÎ±Î½Î¬Î»Î¿Î³Î±": 4222,
      "ĠÎ¹ÏĥÏĦÎ¿ÏĥÎµÎ»Î¯Î´Î±": 4223,
      "ĠÏĩÎ¹Î»Î¹Î¬Î´ÎµÏĤ": 4224,
      "ĠÏĥÎ·Î¼Î±Î½ÏĦÎ¹ÎºÎ®": 4225,
      "ÎĽÎĹÎĿ": 4226,
      "ĠÎ¸ÎµÏģÎ¼Î¿ÎºÏģÎ±": 4227,
      "ĠÎĽÎ¿": 4228,
      "Î»Î±Î²Î±": 4229,
      "2017": 4230,
      "ÏĨÎ¬Î½ÎµÎ¹Î±": 4231,
      "ÏĦÎ®ÏĥÎµÏīÎ½": 4232,
      "ÏĦÏįÎ¿Ïħ": 4233,
      "ĠÎļÎŃÎ½ÏĦÏģÎ¿": 4234,
      "ĠÎ´Î¹Î¬ÏĨÎ¿ÏģÎ±": 4235,
      "ĠÎłÎµÎ¹ÏģÎ±Î¹": 4236,
      "ĠÎĳÎ½Î±ÏĦÎ¿": 4237,
      "ÎļÎ¬": 4238,
      "Î½Î±Î½ÏĦÎ¯Î¿Î½": 4239,
      "ĠÏĢÎ±ÏģÎ¬Î»Î»Î·Î»Î±": 4240,
      "ĠÎºÎ¬Î½Ïī": 4241,
      "Î¼ÎŃÎ½Î¿ÏħÎ½": 4242,
      "âĢ¦]": 4243,
      "ran": 4244,
      "ÎµÎ½Î¬": 4245,
      "ĠÎ´Î·Î¼Î¿ÏĥÎ¯": 4246,
      "Î¼Î¿ÏĥÏĢÎ¿Î½": 4247,
      "ÏģÎ¹ÎºÏİÎ½": 4248,
      "Î¼ÏĢÏĦÎ·": 4249,
      "ĠÎºÏĦÎ¯": 4250,
      "ĠÎ¿Î»Î¿ÎºÎ»Î®": 4251,
      "ĠÎ»ÎµÎ¹ÏĦÎ¿ÏħÏģÎ³ÎµÎ¯": 4252,
      "ĠÎµÎ¯ÏĩÎ±Î¼Îµ": 4253,
      "ĠÎ¾ÎµÎºÎ¯Î½Î·ÏĥÎµ": 4254,
      "ĠÎ´Î¹Î±Î¼Î¿ÏģÏĨ": 4255,
      "ĠÎŃÎ²": 4256,
      "ĠÏĪÏħÏĩÎ¿": 4257,
      "Î¸ÎµÏĥÎµ": 4258,
      "ÏĨÎ¸ÎµÎ¯": 4259,
      "ĠÏĥÏħÎ¶Î®ÏĦÎ·ÏĥÎ·": 4260,
      "ĠÎºÎ¯Î½Î·ÏĥÎ·": 4261,
      "Î¾Î®": 4262,
      "ĠÏĥÎ·Î¼Î±Î½ÏĦÎ¹ÎºÎ¬": 4263,
      "Î³ÏģÎ±ÏĨÎ¿": 4264,
      "ĠÏħÏĢÎ¿ÏĪÎ®": 4265,
      "ÎµÏģÎ±": 4266,
      "ĠÎ´Î¹Î¬Î¸ÎµÏĥÎ·": 4267,
      "ÎºÏĦÎ¿Î½": 4268,
      "ews": 4269,
      "ÏİÏĦÎ±": 4270,
      "ÏĦÏģÎŃÏĢÎµÎ¹": 4271,
      "ĠÏĩÏģÎ®Î¼Î±ÏĦÎ±": 4272,
      "45": 4273,
      "Î»Î¿ÏįÎ¼Îµ": 4274,
      "!!!!": 4275,
      "Î¼Î¿ÏįÎ½": 4276,
      "ÏĮÎ¼Î±ÏĥÏĦÎµ": 4277,
      "ĠÏĥÏħÎ½Îµ": 4278,
      "Ġy": 4279,
      "ĠÎļÎ¿Î¹": 4280,
      "ÎºÎ±Î¯ÏģÎ¹": 4281,
      "ĠÏħÎ³Î¹": 4282,
      "ÏĥÏīÎ½": 4283,
      "ĠÏĥÏĦÎ¬ÏĥÎ·": 4284,
      "ĠÎŁÏģÎ³Î±Î½": 4285,
      "Î£ÏĦÎ·": 4286,
      "ĠÏħÏĢÎ¿ÏħÏģÎ³ÏĮÏĤ": 4287,
      "ĠÏĦÎ¿ÏħÏģÎº": 4288,
      "ÏĥÎ¼ÏĮÏĤ": 4289,
      "ĠÎµÏĢÎµ": 4290,
      "ĠÏĨÎŃÏĦÎ¿ÏĤ": 4291,
      "ĠÎ»ÎŃÎ½Îµ": 4292,
      "ÏħÎ¼Î½Î±": 4293,
      "ĠÎ±ÏĦ": 4294,
      "ĠÎ±Î³ÏģÎ¿": 4295,
      "ĠÏĢÎ¿Î»Îµ": 4296,
      "ĠÎ¼Î±Î½": 4297,
      "ÏĦÎŃÏģ": 4298,
      "ÎķÏĢÎ¹": 4299,
      "Î»ÎµÏĢ": 4300,
      "Î£Ïħ": 4301,
      "Î¼Ïİ": 4302,
      "ĠÎłÎĳÎ£": 4303,
      "ens": 4304,
      "ĠÎµÏģÎ³Î±ÏĥÎ¯Î±": 4305,
      "ĠÏĢÎ±Î»Î±Î¹": 4306,
      "ÏĦÎ¹ÏİÎ½": 4307,
      "ĠÎĨÎ½": 4308,
      "ĠÎ£Î·": 4309,
      "Î³ÏīÎ³Î®ÏĤ": 4310,
      "ĠÎºÎ»Î¹": 4311,
      "ĠÏĦÏģÎ±ÏħÎ¼Î±": 4312,
      "á¾¶": 4313,
      "ĠÏĩÎ¸ÎµÏĤ": 4314,
      "ĠÎºÏī": 4315,
      "Ðµ": 4316,
      "ĠÎĳÎĵ": 4317,
      "ĠÎ³Î¹Î¿Ïģ": 4318,
      "ĠÏĢÎµÏģÎ¹Î¿ÏģÎ¹Ïĥ": 4319,
      "ĠÎµÏĢÎ¹ÏĢÎ»ÎŃÎ¿Î½": 4320,
      "Î¬Î¶Î¿ÏħÎ½": 4321,
      "ÎķÎ¯": 4322,
      "ĠÎµÏģÎ³Î¿": 4323,
      "Î¼ÎµÎ¯Î¿Ïħ": 4324,
      "ĠÎ¼Î¹Î»": 4325,
      "ÎºÎ¹Î½": 4326,
      "ĠÎĶÎ·Î¼ÏĮ": 4327,
      "ĠÎķÎ»Î»Î®Î½ÏīÎ½": 4328,
      "ĠThe": 4329,
      "ÏĥÎ¹Î¼Î·": 4330,
      "ĠÎµÎ»ÎµÏħÎ¸Îµ": 4331,
      "ĠÏĦÏģÎ±ÏĢÎµÎ¶": 4332,
      "ĠÎ¿Î½Î¿Î¼Î±": 4333,
      "Î´Î¯ÏīÎ½": 4334,
      "line": 4335,
      "Î²Î±Î¯": 4336,
      "ep": 4337,
      "ĠÏĦÎŃÏĦÎ¿Î¹Î¿": 4338,
      "ĠÏĢÏģÎ¿ÏĥÎ¿": 4339,
      "ĠÎµÏĨ": 4340,
      "ĠÎ±Î»Î·": 4341,
      "ĠÎ¿ÏĢÏĮÏĦÎµ": 4342,
      "ĠÎ¤Ïį": 4343,
      "Î³ÎµÏħÎ¼Î±": 4344,
      "Î»Î·ÏĥÎµ": 4345,
      "ĠÏĥÏħÎ³Ïĩ": 4346,
      "ĠÎºÎ±ÏĦÎ±Î½Î¿": 4347,
      "ÏģÎ¿ÏįÎ½ÏĦÎ±Î¹": 4348,
      "ĠÎµÏħÎ¸ÏįÎ½Î·": 4349,
      "ĠÏĦÎµÎ»ÎµÎ¹": 4350,
      "ĠÎ±ÏĥÏĨÎ¬Î»ÎµÎ¹Î±": 4351,
      "ĠÎļÎ±Ïģ": 4352,
      "ĠÎµÎ½ÎŃÏģÎ³ÎµÎ¹Î±ÏĤ": 4353,
      "ĠÎ¹Î±ÏĦÏģ": 4354,
      "ÏĦÏĥÎ¿": 4355,
      "ĠÏĩÎŃÏģÎ¹": 4356,
      "ĠÎ±ÏģÏĩÎ±": 4357,
      "Î¯ÏĥÎ¿ÏħÎ¼Îµ": 4358,
      "ĠÏĥÏĩÎ®": 4359,
      "AR": 4360,
      "ĠÏĥÏĩÎ¿Î»ÎµÎ¯Î¿": 4361,
      "ĠÎ¦ÏħÏĥ": 4362,
      "ĠÎĶÎ¹Î¬": 4363,
      "ÏĩÎŃ": 4364,
      "ĠÎ´Î¹Î¿Î¹ÎºÎ·": 4365,
      "ÎĻÎļÎĳ": 4366,
      "ĠÎ¼ÏħÎ±": 4367,
      "Î¼ÏĢÎ¿Ïħ": 4368,
      "ĠÎ´ÎŃÎ½": 4369,
      "35": 4370,
      "ĠÏĥÏħÎ³ÎºÎµÎºÏģÎ¹Î¼ÎŃÎ½Î·": 4371,
      "ĠÎľÎ¿Ïħ": 4372,
      "ĠÎ´Î¹Î±ÏĢÎ¹Ïĥ": 4373,
      "ĠÎ²Î¬Ïģ": 4374,
      "ĠÏĩÏİÏģÎ¿ÏħÏĤ": 4375,
      "ĠÎ¦Ïī": 4376,
      "ĠÎłÏģÏĮÎµÎ´ÏģÎ¿ÏĤ": 4377,
      "ĠÎĴÏģÎµ": 4378,
      "ĠÎ¼Î½Î®": 4379,
      "á½³": 4380,
      "Î´ÎµÎº": 4381,
      "Î±ÏĢÏĮ": 4382,
      "ĠÎºÎ¿Î¼Î¼Î¬ÏĦÎ¹": 4383,
      "ÏģÏİÎ½ÎµÎ¹": 4384,
      "ĠÏĢÎ»Îµ": 4385,
      "ĠÎķÎºÎµÎ¯": 4386,
      "ĠÎľÎ¬Ïģ": 4387,
      "ĠÏĥÏħÎ½ÏĦÎ¬": 4388,
      "26": 4389,
      "ĠÎºÎ»Î¯Î¼Î±": 4390,
      "ĠÏģÎ¹": 4391,
      "ĠÏĢÎ»Î®ÏģÎ·": 4392,
      "ĠÎ²ÎµÎ»ÏĦÎ¹": 4393,
      "ĠÏĩÏģÎ¹Ïĥ": 4394,
      "ĠÎŃÏĦÎ¿ÏħÏĤ": 4395,
      "ÎĲÎ¿Ïħ": 4396,
      "Î´ÏģÎ±ÏĥÎ·": 4397,
      "ÏİÎ½Î·": 4398,
      "ÏģÎµÎ¯ÎµÏĤ": 4399,
      "Ġht": 4400,
      "28": 4401,
      "ĠÎµÏĦÎ¿Î¹": 4402,
      "ÎĳÎĵ": 4403,
      "ĠÎµÏĢÎ¯ÏĢÎµÎ´Î±": 4404,
      "Î¼Ïħ": 4405,
      "ĠÏĢÎ·Î³": 4406,
      "ĠÎ±Î½Î¬ÏĢÏĦÏħÎ¾Î·ÏĤ": 4407,
      "ĠÎ±Î³ÏİÎ½ÎµÏĤ": 4408,
      "Î¼Î¹Îº": 4409,
      "ĠÏĥÎµÎ»Î¯Î´Î±": 4410,
      "Î¯Î½ÎµÏĦÎµ": 4411,
      "ĠÎ±Î½Î±ÏĢÏĦÏį": 4412,
      "Î¯Î½ÎµÏĤ": 4413,
      "Î¯ÏĥÏĦÎ·ÎºÎµ": 4414,
      "Î¾Î¹Î¬": 4415,
      "ÏĦÏīÏĥÎ·": 4416,
      "ÎŃÎ¼Î²": 4417,
      "ĠÎµÎ¯Î´Î¿ÏħÏĤ": 4418,
      "ĠÎĿÎŃ": 4419,
      "Î¿Î½ÏĦÎµÏĤ": 4420,
      "ĠÎ¼ÎµÏĦ": 4421,
      "ÎľÎķÎĿ": 4422,
      "Î¹Î¬Î¶ÎµÎ¹": 4423,
      "ÏĢÎ¿ÏħÎ»Î¿": 4424,
      "ĠÎ¾ÎµÏĩÏīÏģÎ¹Ïĥ": 4425,
      "ĠÎķÎºÏĢÎ±Î¯Î´ÎµÏħ": 4426,
      "ÏĩÎ¸": 4427,
      "ĠEuro": 4428,
      "Ġr": 4429,
      "ÎĻÎ¤": 4430,
      "ĠÎµÎ½Î±Î½ÏĦÎ¯Î¿Î½": 4431,
      "Î»ÏİÎ½ÎµÎ¹": 4432,
      "ian": 4433,
      "ek": 4434,
      "Ġ2010": 4435,
      "ĠÎĺÎŃ": 4436,
      "ĠÎĴÎ¿": 4437,
      "ĠÎłÎµÏģÎ¹ÏĨÎŃÏģ": 4438,
      "ĠÎºÎ¬Î½ÎµÎ¹ÏĤ": 4439,
      "Î¿Î¯": 4440,
      "ÎĮÏĦÎ±Î½": 4441,
      "Ġ198": 4442,
      "ĠÎķÎ¬Î½": 4443,
      "Î³ÏģÎ±ÏĪÎµ": 4444,
      "Î´Î¹Ïİ": 4445,
      "ĠÎ³ÎµÎ¼Î¬": 4446,
      "ĠÎ©ÏĥÏĦÏĮÏĥÎ¿": 4447,
      "ĠÎ´Î¹Î±ÏĨÎ¿ÏģÎ¬": 4448,
      "ĠÎ¼ÎµÎ³Î¬Î»Î±": 4449,
      "ord": 4450,
      "ĠÎºÎ±ÏĦÎ±Î»Î®": 4451,
      "ĠÎ¬Î½Ïī": 4452,
      "ĠÎµÎ½Î´ÎµÏĩ": 4453,
      "27": 4454,
      "ĠÏĦÏĥÎ¹": 4455,
      "ĠÎµÎ¼Î¬ÏĤ": 4456,
      "ĠÎ¼ÏĢÎ¿ÏģÎµÎ¯ÏĤ": 4457,
      "ĠÎ±ÏĢÎ¬Î½ÏĦÎ·ÏĥÎ·": 4458,
      "ĠÎ³Î®": 4459,
      "Î¼Î¯ÏĥÎµÎ¹ÏĤ": 4460,
      "Î»Î·ÏĢ": 4461,
      "ĠÏĥÏĢÎ¹": 4462,
      "ÏĥÎ¿Î¹": 4463,
      "ĠÎ¿Î¹ÎºÎ¿Î³ÎµÎ½": 4464,
      "Ġhttp": 4465,
      "ĠÏĥÏĩÏĮ": 4466,
      "ĠÎ²Î¹Î¿Î¼Î·ÏĩÎ±Î½": 4467,
      "ĠÎ´ÎµÏħ": 4468,
      "ĠÎ¥Î³ÎµÎ¯Î±ÏĤ": 4469,
      "ÎłÏģÏĮ": 4470,
      "ĠÎ»Î¿Ïħ": 4471,
      "ÏĢÏĦÎ¿ÏħÎ½": 4472,
      "ĠÏĢÎ±ÏģÎ¿Ïį": 4473,
      "ĠÏĢÏģÏĮÏĥÎ²Î±ÏĥÎ·": 4474,
      "ĠÎµÎºÏĢÎ¿Î¼ÏĢ": 4475,
      "ĠÎĳÏħÏĦÎ¿": 4476,
      "Î³Î¼Î±ÏĦÎ¿ÏĤ": 4477,
      "ĠÎ±Î½Î±ÎºÎ¿Î¯Î½ÏīÏĥÎ·": 4478,
      "Î¼Î¹Î¿Ïį": 4479,
      "ĠÎ£ÏĦÏģÎ±": 4480,
      "ĠÏĢÏģÎ¬Î¾Î·": 4481,
      "Ġ35": 4482,
      "ÏĥÏĦÎ¿ÏįÎ½": 4483,
      "ĠÎ£ÏįÎ¼ÏĨÏīÎ½Î±": 4484,
      "ĠÏĩÎ¹": 4485,
      "Î»Î±Ïį": 4486,
      "Ġ[âĢ¦]": 4487,
      "ĠÏĦÎ±Î¾Î¯Î´Î¹": 4488,
      "ĠÎºÎ±ÏĦÎ±ÏĥÏĦÎ®": 4489,
      "ĠÏĥÏħÎ¼Î²Î±Î¯Î½ÎµÎ¹": 4490,
      "ĠÎ·Î»ÎµÎºÏĦÏģ": 4491,
      "ĠÎ±ÏģÎ¹Î¸Î¼ÏĮÏĤ": 4492,
      "Î´ÏģÎ±ÏĤ": 4493,
      "ĠÏĥÏħÎ¼Î²Î¿Ïħ": 4494,
      "ÏģÎ¿Î¯": 4495,
      "ĠÏĢÎ¿Î»Î»Î¿ÏįÏĤ": 4496,
      "ĠÎĶÎ¹Î¿Î¹ÎºÎ·": 4497,
      "ĠÎľÎ±ÎĲÎ¿Ïħ": 4498,
      "ĠÎ¼ÎŃÏģÎ·": 4499,
      "ÏĥÏĥÎ±ÏĤ": 4500,
      "ĠÎµÎ¾ÏīÏĦÎµÏģÎ¹ÎºÏĮ": 4501,
      "ĠÎºÏįÎº": 4502,
      "ĠÎĿÎĶ": 4503,
      "ÏĥÏĦÎµÏģÎ±": 4504,
      "ĠÎµÎ½Î¯ÏĥÏĩÏħ": 4505,
      "ĠÏĩÏİÏģÎ¿Ïħ": 4506,
      "ÏĮÎ½ÎµÏĤ": 4507,
      "ÏģÎ¿ÏħÎ½": 4508,
      "ÏģÏİÏĥÎµÎ¹ÏĤ": 4509,
      "ĠÎĳÎ£": 4510,
      "Î¸Î¿ÏħÏĤ": 4511,
      "ÏĢÏģÎ¿ÏĥÏİ": 4512,
      "ĠÎ¬Î½Îµ": 4513,
      "ĠÏĥÏħÎ½Î¬Î½ÏĦÎ·ÏĥÎ·": 4514,
      "Î´ÏĮÏĦÎ·ÏĥÎ·": 4515,
      "ÏĦÏħÏĢÎ±": 4516,
      "ĠÏĨÏīÏĤ": 4517,
      "Î¼ÎµÎ¯Î±": 4518,
      "ĠÏĥÏĦÎ±Î¼Î±": 4519,
      "ĠÎĺÎµÏĮ": 4520,
      "ÏĢÎµÎ¹Î±": 4521,
      "Î¬ÎºÎ¹": 4522,
      "ÏĢÎ½Î¿": 4523,
      "Î´ÎµÎ¹ÎºÎ½Ïį": 4524,
      "Î¼Î¿Î»ÏĮÎ³": 4525,
      "ĠÎĳÎ½Î¬ÏĢÏĦÏħ": 4526,
      "ĠÎµÎ¾Î±ÏĥÏĨÎ±Î»Î¯": 4527,
      "ĠÎµÎ»Î»Î·Î½Î¹ÎºÎ®ÏĤ": 4528,
      "ĠÎµÎºÏĢÎ±Î¯Î´ÎµÏħÏĥÎ·": 4529,
      "ĠÏĩÏīÏģÎ¹ÏĮ": 4530,
      "Î»ÎµÎ¯Î¿Ïħ": 4531,
      "ĠÎķÎ»Î»Î¬Î´Î¿ÏĤ": 4532,
      "ĠÎºÎ±ÏĦÎ¿Î¯Îº": 4533,
      "ĠÎļÎ±Ïĥ": 4534,
      "ĠÎŃÎºÎ±Î½Î±Î½": 4535,
      "ĠÎ¤ÏģÎ¬": 4536,
      "ÎłÎ¿": 4537,
      "ĠÎĪÏĩÎµÎ¹": 4538,
      "ÏĦÎ¿Î¹Îº": 4539,
      "Î¸Î·ÏĥÎ·ÏĤ": 4540,
      "ial": 4541,
      "ĠÏĢÎ±Î¯Ïģ": 4542,
      "ĠÏħÏĢÎµÏįÎ¸Ïħ": 4543,
      "ĠÎĶÎ¹ÎµÏħ": 4544,
      "ÎºÎ·Î½Î¿": 4545,
      "199": 4546,
      "ÏĦÎ±ÏĥÎ·ÏĤ": 4547,
      "ÏĢÎµÏį": 4548,
      "ĠÎĳÎ¼Îµ": 4549,
      "ĠÎīÏĦÎ±Î½": 4550,
      "ĠÎ£ÏįÎ½": 4551,
      "ice": 4552,
      "ĠÏĥÏĩÎµÏĦÎ¹ÎºÎ®": 4553,
      "ĠÎ´ÏįÏĥ": 4554,
      "ĠÎ»Î¬Î¸Î¿ÏĤ": 4555,
      "ĠÎºÎ±ÏĦÎ±ÏĥÎºÎµÏħÎ®": 4556,
      "ĠÎ±ÏĨÎ¿Ïģ": 4557,
      "ÏĢÎ»Î¬": 4558,
      "ĠÎ±ÏĦÏĮ": 4559,
      "ĠÎĪÎ½ÏīÏĥÎ·ÏĤ": 4560,
      "ĠÎŃÎ»Î»ÎµÎ¹": 4561,
      "ĠÏĮÏģÎ¿ÏħÏĤ": 4562,
      "ĠÎ´Î¹Î¬ÏĨÎ¿ÏģÎµÏĤ": 4563,
      "ĠÎ±Î½ÏĦÎ¯Î¸Îµ": 4564,
      "ÏĥÎºÎ·ÏĥÎ·": 4565,
      "ĠÏĨÎ¬ÏĥÎ·": 4566,
      "ÏĨÎµÏģÎ±Î½": 4567,
      "ĠÎ½Î¿ÏĥÎ¿ÎºÎ¿": 4568,
      "ĠÏĥÏħÎ½Î·": 4569,
      "Î²ÎµÏģ": 4570,
      "ĠÏĨÎ±Î¹Î½": 4571,
      "ĠÎ½Î±Ïħ": 4572,
      "ON": 4573,
      "ÏĨÎŃÏģÎ¿Î½ÏĦÎ±Î¹": 4574,
      "Î»Î±Î¯Î¿Ïħ": 4575,
      "Î´Î¯Î±ÏĤ": 4576,
      "ĠÎ¼Ïī": 4577,
      "ÎºÎ¯Î½Î·": 4578,
      "ÎĳÎľ": 4579,
      "ÏĢÏĦÏħÏĩ": 4580,
      "ĠÎ¬ÏĢÎ¿ÏĪÎ·": 4581,
      "ĠÎ»Î¿Î³Î¹Ïĥ": 4582,
      "ÏĢÎ¿Î»Î·ÏĤ": 4583,
      "ĠÎĴÏĮ": 4584,
      "ĠÏĨÎ¯Î»Î¿ÏħÏĤ": 4585,
      "ĠÏĩÏģÎ·ÏĥÎ¹Î¼Î¿ÏĢÎ¿Î¹Î®": 4586,
      "ĠÎºÎµÎ¯Î¼ÎµÎ½Î¿": 4587,
      "ĠÎ³ÎµÎ¹": 4588,
      "ĠÏĢÏģÏīÏĦÎ¿Î²Î¿Ïħ": 4589,
      "ÏģÎ¹ÏĥÎºÏĮ": 4590,
      "ax": 4591,
      "ÏĦÎ®ÏģÎ¹": 4592,
      "ĠÎµÎ¾ÎµÏĦÎ¬": 4593,
      "ĠÎ±Î³Î¿ÏģÎ¬ÏĤ": 4594,
      "Î»ÎµÎ¯Î¿": 4595,
      "29": 4596,
      "ÏĥÏĥÎµÏĦÎ±Î¹": 4597,
      "ÎĻÎĽ": 4598,
      "ĠÎĳÎ¡": 4599,
      "ÏģÏīÏĥÎµ": 4600,
      "ĠÎºÎ±Î»Î¿ÎºÎ±Î¯ÏģÎ¹": 4601,
      "ĠÎ³ÎµÎ½Î¹ÎºÏĮ": 4602,
      "ĠÏĨÎŃÏģÎµÎ¹": 4603,
      "Î³ÎµÏģ": 4604,
      "ĠÎ²ÎµÎ»ÏĦÎ¯": 4605,
      "ĠÏĢÎµÎ½": 4606,
      "ĠÎ¿Î¹ÎºÎ¿Î½Î¿Î¼Î¯Î±": 4607,
      "ĠÎ¼Î±Ïĥ": 4608,
      "ÏĦÎ¯Î¸ÎµÏĦÎ±Î¹": 4609,
      "ÏĢÏģÎ¬": 4610,
      "ĠÎŃÎ¼ÏĢ": 4611,
      "ĠÏĢÎ±ÏģÎŃÏĩÎµÎ¹": 4612,
      "ÏĩÎµÎ¹ÏģÎ¹Ïĥ": 4613,
      "Ġâ": 4614,
      "ÎļÎŁ": 4615,
      "ĠÏĢÎ¬ÏģÎ±": 4616,
      "Î²Î±Î»Î»Î¿Î½": 4617,
      "Ġre": 4618,
      "are": 4619,
      "ĠÎ½Î·ÏĥÎ¯": 4620,
      "ĠÎ¤ÎµÏĦÎ¬ÏģÏĦÎ·": 4621,
      "ĠÎļÎ±Î»Î±": 4622,
      "Î¹ÏĥÏĦÎµÎ¯": 4623,
      "ĠÏĥÏħÎ½ÎŃÎ½": 4624,
      "ĠÎĳÎ³Î³": 4625,
      "ĠÎºÎ¿Î»": 4626,
      "ÏĦÎ®ÏĥÏĦÎµ": 4627,
      "Î»Î¬Ïĥ": 4628,
      "ne": 4629,
      "ĠÎµÎ¾Î±Ïģ": 4630,
      "ÏģÎ¹ÎºÎ¿Ïį": 4631,
      "ĠÎµá¼°": 4632,
      "ÏģÎ¹Î¿Ïį": 4633,
      "ĠÎ¿Î´Î®": 4634,
      "ĠÎ±Î¯Î¸": 4635,
      "ĠÎĵÏģÎ±Î¼Î¼Î±": 4636,
      "ĠÎ¿Î¸ÏĮ": 4637,
      "ĠÎĸÎ±": 4638,
      "Î²ÏĮ": 4639,
      "ÏĦÎ¹ÎºÎ·": 4640,
      "ĠÎµÎ¾ÏħÏĢÎ·ÏģÎµ": 4641,
      "ĠÎµÏĢÎ¹Î»Î¿Î³ÎŃÏĤ": 4642,
      "ĠÎ¿Î½Î¿Î¼Î¬": 4643,
      "ĠÎµÎ½ÏĦÏħÏĢÏīÏĥÎ¹Î±": 4644,
      "ĠÎµÎºÏĢÏģÏĮÏĥÏī": 4645,
      "ÏĪÎ·ÏĨ": 4646,
      "ĠÎ£ÏĦÎ¹ÏĤ": 4647,
      "ĠÎ²Ïħ": 4648,
      "Î¼ÏĢÎ¹": 4649,
      "ÏģÎ¬Î½": 4650,
      "ĠÎ¤Îķ": 4651,
      "tern": 4652,
      "ĠÎµÎ½ÏĦÎµ": 4653,
      "Î´Î¹ÎºÎ®ÏĤ": 4654,
      "ĠÎ±Î´ÏħÎ½Î±": 4655,
      "ĠÏĢÎµÏģÎ±Ïĥ": 4656,
      "ÏģÏįÏĦÎµ": 4657,
      "ĠÏħÏĢÎ·ÏģÎµÏĥÎ¯Î±": 4658,
      "ÏĪÎ¹": 4659,
      "ĠÎ¼Î±ÎºÏģÎ¹Î¬": 4660,
      "ÏĦÎµÎ»Îµ": 4661,
      "ĠÎĶÎµÎºÎµ": 4662,
      "ĠÎ¼Î±Î»Î»": 4663,
      "ĠÎ¼ÎµÏģÎ¹ÎºÎŃÏĤ": 4664,
      "ĠÏįÏĢÎ±Ïģ": 4665,
      "ĠÎ±Î½Ïī": 4666,
      "qu": 4667,
      "2016": 4668,
      "ĠÎ´ÏģÎ±ÏĥÏĦÎ·ÏģÎ¹ÏĮÏĦÎ·ÏĦÎµÏĤ": 4669,
      "ÏĢÎ»Î·ÏģÏī": 4670,
      "ĠÎĳÎł": 4671,
      "ĠÏĢÏģÎ¿Î³ÏģÎ¬Î¼Î¼Î±ÏĦÎ±": 4672,
      "ĠÎ½ÎµÎ±": 4673,
      "ĠÎµÎ¾Î±Î¹ÏģÎµÏĦÎ¹ÎºÎ¬": 4674,
      "ĠÎºÎ±ÏĦÎ±Î½Î±Î»Ïī": 4675,
      "end": 4676,
      "ĠÏħÏĢÎ®ÏģÏĩÎµ": 4677,
      "ÎĳÏģÏĩ": 4678,
      "ĠÏĥÏħÎ¼ÏĨÎŃÏģÎ¿Î½": 4679,
      "Î»Î¹Î¿ÏĤ": 4680,
      "ÏĨÎ¿ÏģÏİÎ½": 4681,
      "ĠÏĢÎ¿Î»Î»Î±": 4682,
      "ĠÏĩÎµÎ¹ÏģÎ¿": 4683,
      "ĠÎµÎºÎ±ÏĦÎ¿Î¼Î¼ÏįÏģÎ¹Î±": 4684,
      "Î¼Î¹Î½": 4685,
      "ĠÎºÎ¬Î»Ïħ": 4686,
      "otel": 4687,
      "ÏĦÎ±Î¾Î·ÏĤ": 4688,
      "ĠÎ»Î¯Î³ÎµÏĤ": 4689,
      "ÏĥÏĢÎ±Ïĥ": 4690,
      "ĠÏĦÎ¿ÏħÏģÎ¹Ïĥ": 4691,
      "ĠÎ£Î¿Ïħ": 4692,
      "ĠÎ²Î®Î¼Î±": 4693,
      "ĠÏħÎ»Î¹ÎºÎ¬": 4694,
      "ÏĦÎ±Î¯": 4695,
      "ĠÎ´Î¹Î¿ÏģÎ³Î¬Î½": 4696,
      "Î¿ÏįÏĥÎ±Î½": 4697,
      "ĠÎ¤Î¿Î½": 4698,
      "ĠÏĢÎ»Î±Î½": 4699,
      "Î»Î±Î¼Î²Î¬Î½ÎµÎ¹": 4700,
      "ĠÎºÎ±ÏģÎº": 4701,
      "ÎķÎ½": 4702,
      "Î¼Î¬ÏĦÎ¹Î¿": 4703,
      "ĠÏĢÎ±ÏģÎ±Î¼ÎŃÎ½ÎµÎ¹": 4704,
      "Î´ÎµÎ»": 4705,
      "ĠÎµÎ¼ÏĨÎ¬Î½Î¹ÏĥÎ·": 4706,
      "ĠÎĶÎķ": 4707,
      "ÎķÎĻÎŁ": 4708,
      "ĠÏĦÎŃÏĦÎ¿Î¹": 4709,
      "ĠÏĢÏģÎ¿ÏĢÎ¿Î½Î·": 4710,
      "%.": 4711,
      "ĠÎ¹Î´ÎŃÎ±": 4712,
      "ĠÏĢÏģÎ¿ÏĦÎ¹": 4713,
      "ĠÎ±ÏĥÏĩÎ¿Î»": 4714,
      "ĠÏĥÏĩÎ·Î¼Î±": 4715,
      "ĠÎĽÎ¿Ïħ": 4716,
      "ÏĥÏĦÎ±ÏĤ": 4717,
      "ĠÎķÏĢÎ±": 4718,
      "ĠÎ¿Î¼Î±": 4719,
      "ĠÏĢÏģÎ¿ÏĥÏİ": 4720,
      "ĠÎ¿Î½ÏĮ": 4721,
      "Î³ÎºÎ¿": 4722,
      "Î³Î¹Î½Î±Î½": 4723,
      "Î²ÎŃ": 4724,
      "ĠÎŃÎ½Î½Î¿Î¹Î±": 4725,
      "ĠÎ·Î»Î¹ÎºÎ¯Î±ÏĤ": 4726,
      "ĠÎłÎ¡ÎŁÎ£": 4727,
      "ĠÎ¼ÎµÏĦÎŃ": 4728,
      "ĠÎ²Î¿Î·Î¸Î®ÏĥÎµÎ¹": 4729,
      "ĠÎµÏĢÎ¹ÏĦÏħ": 4730,
      "ĠÏĢÏģÎ¿ÏĭÏĢÎ¿Î»Î¿Î³Î¹Ïĥ": 4731,
      "Î¸ÎŃÏĦÎ·ÏĥÎ·": 4732,
      "Ġ197": 4733,
      "Î·Î¸ÎµÎ¯": 4734,
      "iz": 4735,
      "ĠÎ§Î¬": 4736,
      "ĠÎºÏħÏģÎ¹": 4737,
      "ĠÎ¤ÏĮ": 4738,
      "ain": 4739,
      "ĠÎĮÎ¼ÏīÏĤ": 4740,
      "ÏģÎ®ÏĤ": 4741,
      "Î¬Î½ÏĦÎ¹Î±": 4742,
      "ĠÏĥÏĦÎ¿Î¹ÏĩÎµÎ¯ÏīÎ½": 4743,
      "ĠÎ±ÏĦÎ¿": 4744,
      "ĠÎ±ÏĢÎ¿ÏĨÎ¬Ïĥ": 4745,
      "Î´Î¯Îº": 4746,
      "Ġde": 4747,
      "ĠÎĵÎµÏģÎ¼Î±Î½Î¯Î±": 4748,
      "Î»ÏīÎ¼Î±": 4749,
      "Î³ÏģÎ¬ÏĨÎ¿Ïħ": 4750,
      "ĠÎ£ÏħÎ¼Î²Î¿ÏįÎ»Î¹Î¿": 4751,
      "ĠÎ²Î»ÎŃÏĢ": 4752,
      "ĠÎ¸Î¬Î»Î±ÏĥÏĥÎ±": 4753,
      "ÏĮÎ½ÏĦÏīÎ½": 4754,
      "ĠÏĢÏģÏİÏĦÎµÏĤ": 4755,
      "az": 4756,
      "ĠÏĢÏģÏĮÏĥÏīÏĢÎ±": 4757,
      "ÎľÎŃ": 4758,
      "ĠÎ´Î±Ïĥ": 4759,
      "ĠÏĢÏģÎµ": 4760,
      "ĠÎ¾ÎµÏĢ": 4761,
      "ĠÎ½ÎµÏģÎ¿Ïį": 4762,
      "ÏĢÎ¿ÏħÎ»Î¿Ïħ": 4763,
      "ÎľÎŁÎ£": 4764,
      "Î³Î³ÎµÎ»Î¯Î±": 4765,
      "Ġto": 4766,
      "ĠÎºÎ±ÏĦÏĮ": 4767,
      "ĠÎ¼ÎŃÏĥÎ¿": 4768,
      "IN": 4769,
      "ĠÎ¤Î¶": 4770,
      "Î¹ÏĥÎ±Î½": 4771,
      "OS": 4772,
      "ĠÎºÏħÏģÎ¹Î±": 4773,
      "ĠÏĨÏħÏĥÎ¹ÎºÏĮ": 4774,
      "ÏĢÎµÎ¶Î±": 4775,
      "Î¼ÎµÎ½Î·": 4776,
      "ĠÏĨÎ±Î³Î·ÏĦÏĮ": 4777,
      "Î£ÏĦÎ¹ÏĤ": 4778,
      "ĠÎ³ÎµÏģÎ¼Î±Î½": 4779,
      "ĠÎºÎ»Î±": 4780,
      "ĠÎµÎ¯Î´Î¿ÏĤ": 4781,
      "ĠÎ¿Î´Î·Î³Î®": 4782,
      "Î´ÏģÎµÏĤ": 4783,
      "age": 4784,
      "ĠÎµÎ¼ÏĢÏĮ": 4785,
      "ĠÏĨÎ¹Î»Î¿Î¾ÎµÎ½": 4786,
      "ĠÎĶÎµÎºÎµÎ¼Î²ÏģÎ¯Î¿Ïħ": 4787,
      "ĠÏĢÎ±ÏģÎ¬Î³Î¿Î½": 4788,
      "ĠÎĳÎ¹Î³Î±": 4789,
      "ÏĪÎ¿ÏħÎ¼Îµ": 4790,
      "ĠÏĥÎºÎµ": 4791,
      "Ġ!": 4792,
      "ĠÏĮÏĥÎ¿Î¹": 4793,
      "ÏĦÎ¹Î±Î½": 4794,
      "ÏĥÏĦÎ¹ÎºÎ¬": 4795,
      "ÏģÎ¹Î»Î¯Î¿Ïħ": 4796,
      "ÏĦÎ¬Î¸Î»Î·Î¼Î±": 4797,
      "ĠÎ´Î¹ÎµÏįÎ¸ÏħÎ½ÏĥÎ·": 4798,
      "ÏģÏİÎ¼Î±ÏĦÎ±": 4799,
      "ĠÎĶÎ·Î¼Î¿ÎºÏģÎ±ÏĦÎ¯Î±ÏĤ": 4800,
      "ĠÎºÎ±ÏĦÎ±Î½Î¬Î»": 4801,
      "ĠZ": 4802,
      "ĠÎľÎ¹Îº": 4803,
      "Î»Î¿Î³Î®": 4804,
      "ĠÏĥÏħÎ³ÎºÎµÎ½ÏĦ": 4805,
      "ĠÎ¼ÏĢÎ¿ÏģÏİ": 4806,
      "ĠÎļÎ±Î½": 4807,
      "ĠÏĩÎ±Ïģ": 4808,
      "ĠÏĥÏħÏĥÏĦÎ±": 4809,
      "ĠÎ´Î¬": 4810,
      "ÏįÎ½ÎµÎ¹": 4811,
      "ĠÏĢÎ±Î½ÎµÏĢÎ¹Ïĥ": 4812,
      "ĠÎ±ÏĨÎ¿ÏģÎ¼Î®": 4813,
      "ÎºÎ¿ÏħÏĤ": 4814,
      "ĠÎļÎµÎ½ÏĦÏģ": 4815,
      "ĠÎµÏĢÎµÎ½Î´Ïį": 4816,
      "ĠÎ¼ÎµÎ»ÏİÎ½": 4817,
      "ÎŁÎĽÎŁÎĵ": 4818,
      "ĠÎķÎ¥": 4819,
      "ĠÎ¬Î½Î¸ÏģÏīÏĢÎ¿": 4820,
      "îĢ": 4821,
      "ĠÎ´á½²": 4822,
      "ĠÎ´Î¹ÎºÎ±Î¹ÏİÎ¼Î±ÏĦÎ±": 4823,
      "ĠÎ³Î½ÏİÏĥÎ·": 4824,
      "Ð¸": 4825,
      "Î»Î¼": 4826,
      "ĠÎºÎŃÎ½": 4827,
      "ĠÏĥÏħÎ½ÎµÏģÎ³Î¬": 4828,
      "ÎĹÎ£ÎĹ": 4829,
      "Î³Î¿ÏįÏĥÏĦÎ¿Ïħ": 4830,
      "ĠÎºÎ±ÏĦÎ±ÏĥÎºÎµÏħÎ±Ïĥ": 4831,
      "ÏħÎ¼Î¿": 4832,
      "ĠÎĵÎ¹Î¬Î½Î½Î·ÏĤ": 4833,
      "Î¿ÏħÎ±ÏģÎ¯Î¿Ïħ": 4834,
      "ÏĦÎ¬ÎµÎ¹": 4835,
      "ĠÎĹÎ»ÎµÎº": 4836,
      "ĠÎ²Î¹Î²Î»Î¯Î±": 4837,
      "ĠÎ±Î½ÎŃÏĨÎµÏģÎµ": 4838,
      "Ġ*": 4839,
      "ĠÎŃÏĩÎ¿Î½ÏĦÎ±ÏĤ": 4840,
      "ĠÎµÎ¾Î±Î¹": 4841,
      "ÏĥÏĦÎ®ÏĤ": 4842,
      "ĠÏĥÏħÎ½Î´ÏħÎ±ÏĥÎ¼ÏĮ": 4843,
      "Î¸ÎŃÎ±": 4844,
      "Î»Î¯Î´ÎµÏĤ": 4845,
      "ĠÏĢÎ»Î±Î¯ÏĥÎ¹Î±": 4846,
      "ĠÎĽÎ¯": 4847,
      "ĠÏĦá½¸Î½": 4848,
      "ÏĩÏģÎ¿Î½Î¿ÏĤ": 4849,
      "ĠÎ¼Î¬Ïģ": 4850,
      "ĠÎµÏĢÎ¹ÏĥÎºÎµÏĨ": 4851,
      "ĠÎ¼ÏĢÎ¿Ïħ": 4852,
      "Î³ÏģÎ±ÏĨÎŃÏĤ": 4853,
      "ĠÎ±Î³Ïī": 4854,
      "ĠÎ®ÏģÎ¸Îµ": 4855,
      "ĠÏĢÏģÎ¿ÏĥÏĨÎ¿ÏģÎ¬": 4856,
      "ĠÎŃÎ½Î±Î½ÏĦÎ¹": 4857,
      "Î´ÎŃÎ»": 4858,
      "Î¼Î¹ÎºÎ®ÏĤ": 4859,
      "ĠÎ»Î¹Î³ÏĮÏĦÎµÏģÎ¿": 4860,
      "ebook": 4861,
      "Î¤ÎĳÎĻ": 4862,
      "ÎŁÎĶ": 4863,
      "ĠÎ¤ÏģÎ±": 4864,
      "ĠÎµá¼¶Î½Î±Î¹": 4865,
      "ĠÃ": 4866,
      "ĠÏĩÏģÏĮÎ½Î¿ÏĤ": 4867,
      "ĠÎ³ÎºÎ¿Î»": 4868,
      "ĠÎķÎ»Î»Î·Î½Î¹ÎºÎ®": 4869,
      "Î¸Î·Î½Î±ÏĬ": 4870,
      "ĠÎ³ÏģÎ±Î¼Î¼Î®": 4871,
      "Î»Î¹ÎºÏİÎ½": 4872,
      "ĠÎ¼Î®Î½ÏħÎ¼Î±": 4873,
      "ĠÎ±ÏģÏĩÎ¹": 4874,
      "Î¼ÎµÏĦÎ¬": 4875,
      "ĠÎĳÏĢÏģÎ¹Î»Î¯Î¿Ïħ": 4876,
      "Î¬ÏģÏĦÎ·ÏĥÎ·": 4877,
      "Î£ÏĦÎ±": 4878,
      "ĠÏĩÏģÏħÏĥ": 4879,
      "ĠSh": 4880,
      "ÎµÏĨÎ±Î»Î®ÏĤ": 4881,
      "ĠÎĳÏħÎ³Î¿ÏįÏĥÏĦÎ¿Ïħ": 4882,
      "Î¸ÏİÎ½": 4883,
      "ĠÎ¿ÏĢÎ¿Î¹Î¿": 4884,
      "ĠÏĢÎ»ÎµÎ¹Î¿": 4885,
      "ĠÎ¸ÎµÏīÏģÎµÎ¯ÏĦÎ±Î¹": 4886,
      "ĠÎłÎ¹": 4887,
      "ĠÎ¾ÎµÎºÎ¹Î½Î¬": 4888,
      "ĠÎ±ÏĢÎ¿Î»Ïį": 4889,
      "ÏĨÎ¿Î½": 4890,
      "ĠÏĢÏħÏģÎ¿": 4891,
      "ĠÎºÎ±ÏĨÎŃ": 4892,
      "36": 4893,
      "ĠÎºÎ¿Î¹Î½ÏīÎ½Î¹ÎºÎ®": 4894,
      "ĠÎłÎ±Î³ÎºÏĮÏĥ": 4895,
      "ĠÎ´Î¹Î±ÏĩÎµÎ¯ÏģÎ¹ÏĥÎ·": 4896,
      "ĠÏĢÎ¿Î´Î¿ÏĥÏĨÎ±Î¹": 4897,
      "Î¼Î¹ÎºÏİÎ½": 4898,
      "Î±ÏĨ": 4899,
      "IS": 4900,
      "ĠÎĳÎ¸Î®Î½Î±ÏĤ": 4901,
      "Î¶ÏĮÏĦÎ±Î½": 4902,
      "Î¼Î±ÏģÏĩÎ¿ÏĤ": 4903,
      "ÏĢÎ¬ÏģÏĩÎµÎ¹": 4904,
      "ÏĢÎ¹ÏĦÎ±": 4905,
      "Î¶Î¿Î¼ÎŃÎ½ÏīÎ½": 4906,
      "ĠÏĢÎµÏģÎ¬ÏĥÎµÎ¹": 4907,
      "ĠÎ¼ÎµÏģÎ¹ÎºÎ¬": 4908,
      "ĠAr": 4909,
      "ber": 4910,
      "ĠÎ´ÏħÎ½Î±ÏĦÏĮÎ½": 4911,
      "ÎĶÎ·": 4912,
      "ĠÎĻÎ±Î½Î¿ÏħÎ±ÏģÎ¯Î¿Ïħ": 4913,
      "ĠÎµÎ½ÎµÏģÎ³Î¿": 4914,
      "of": 4915,
      "ĠÏĢÎ»Î®ÏģÏīÏĤ": 4916,
      "ĠPro": 4917,
      "ĠÎ±Î¼ÎµÏģÎ¹ÎºÎ±Î½": 4918,
      "ĠÎ»Î¿Î³Î¿": 4919,
      "AS": 4920,
      "ĠÏĩÎµÎ¹ÏģÏĮ": 4921,
      "ÎºÏģÎ¹Î½": 4922,
      "ÏģÎ¿ÏħÏģÎ³": 4923,
      "ÎĹÎľÎĳ": 4924,
      "ÏĢÎ¿ÏįÏĤ": 4925,
      "Î»ÎµÎ¹ÏĤ": 4926,
      "ĠÎºÎ±Î¸ÎµÏĥÏĦ": 4927,
      "ÏĢÏīÏĥÎ·": 4928,
      "ĠÎĳÎºÏĮ": 4929,
      "ÏĢÏģÎ¹Î±": 4930,
      "ĠÎ£Ïī": 4931,
      "ĠÎ±ÏĢÎ¿Ïĥ": 4932,
      "ĠÎķÎ»ÎŃ": 4933,
      "Î¸Î¼Î¹ÏĥÎ·": 4934,
      "ĠÎ¤Î¿ÏįÏģÎº": 4935,
      "ĠÎĳÎĽ": 4936,
      "ĠÏĢÎ¿Î»Î¹ÏĦÏİÎ½": 4937,
      "Î¡Îķ": 4938,
      "ĠÏĢÏģÏīÏĦÏĮ": 4939,
      "90": 4940,
      "ĠÎ±Î½Î±Î»Ïħ": 4941,
      "Î¾ÎŃ": 4942,
      "Î»ÎŃÏĥÎµÎ¹": 4943,
      "ĠÎ¬Î¼ÎµÏĥÎ·": 4944,
      "ÎµÎ»Î¹": 4945,
      "ĠÎ´ÏįÏĥÎºÎ¿Î»Î¿": 4946,
      "ĠÎŁÎ¹ÎºÎ¿Î½Î¿Î¼Î¹ÎºÏİÎ½": 4947,
      "ĠÎľÎ±ÎºÎµÎ´Î¿Î½Î¯Î±ÏĤ": 4948,
      "ĠÎ±ÏĢÎ¿ÏĨÎ¬ÏĥÎµÎ¹ÏĤ": 4949,
      "ĠÎĳÏĥÏĦÏħÎ½Î¿Î¼": 4950,
      "ÏĥÏĦÎ¹Î²Î¬Î»": 4951,
      "Î¬Î»ÏħÏĥÎ·": 4952,
      "ĠÎłÎŃÎ¼ÏĢÏĦÎ·": 4953,
      "ÏħÏĢÎ¿": 4954,
      "ĠÎ£Î¤ÎŁ": 4955,
      "ĠÎ¤Î¼Î®Î¼Î±": 4956,
      "ÏĥÎ¯ÏīÎ½": 4957,
      "ÏĢÎ·ÏģÎŃ": 4958,
      "ĠÎ¬Îº": 4959,
      "ĠÎµÎºÏĦÎŃÎ»Îµ": 4960,
      "ĠÎ£Î¹": 4961,
      "ĠÎ±Î½ÏĦÎ¹Î¼ÎµÏĦÏİÏĢÎ¹ÏĥÎ·": 4962,
      "ĠÎµÏĢÎ¹ÏĩÎµÎ¯ÏģÎ·ÏĥÎ·": 4963,
      "Î³ÎµÎ¸Î¿ÏĤ": 4964,
      "ĠÎ±ÏĢÎ¿ÎºÎ±Î»Ïį": 4965,
      "Î½Î®Î¸Î·ÎºÎµ": 4966,
      "ry": 4967,
      "ĠÎłÎķÎ¡ÎĻ": 4968,
      "Ġ80": 4969,
      "ÏĦÎµÎ¯ÏĦÎµ": 4970,
      "ĠÎ¼Î¹ÎºÏģÎ¬": 4971,
      "ĠÎ±ÎºÎ¿Î»Î¿ÏħÎ¸Î®": 4972,
      "ĠÎ´ÏģÎ±ÏĥÏĦÎ·ÏģÎ¹Î¿": 4973,
      "ĠÏĩÎ¿ÏģÎ·": 4974,
      "ĠÎŃÏĨÏĦÎ±": 4975,
      "ĠÏĨÏģÎ¬": 4976,
      "ÏģÏİÎ¸Î·ÎºÎµ": 4977,
      "ĠÏĦÏĮÏĢÎ¿": 4978,
      "ĠÎŃÎ³Î¹Î½Î±Î½": 4979,
      "Î¡ÎĻÎĳ": 4980,
      "ĠÎķÏĢÎ¹Îº": 4981,
      "Î¼ÎµÎ½Î¿ÏĤ": 4982,
      "Î¯Î½ÏīÎ½": 4983,
      "ĠÏĥÏħÎ½Î¿Î»Î¹ÎºÎ¬": 4984,
      "ĠÎµÏĢÎ¹Î¸Îµ": 4985,
      "ĠÏĩÎ¬ÏģÎ·": 4986,
      "ĠÎĪÎ½ÏīÏĥÎ·": 4987,
      "ĠÎķÏħÏģÏİÏĢÎ·ÏĤ": 4988,
      "ĠÏĢÏģÎ¿ÏĥÏĦÎ±ÏĦÎµÏį": 4989,
      "Î»Î¿Î³Î¹ÎºÎŃÏĤ": 4990,
      "ĠÏĢÏģÎ±Î³Î¼Î±ÏĦÎ¿ÏĢÎ¿Î¹Î®Î¸Î·ÎºÎµ": 4991,
      "ck": 4992,
      "Îī": 4993,
      "se": 4994,
      "Î¯Î¿ÏĤ": 4995,
      "ĠÎµÎ³ÎºÎ±": 4996,
      "ĠÎ¬Ïĥ": 4997,
      "ĠÎ¾ÎŃÏģÏī": 4998,
      "Î³Î³Ïį": 4999,
      "ĠÎ´Î¹Î±ÏĦÎ±": 5000,
      "ĠÏĮÏģÎ³": 5001,
      "Ġá¼ĺ": 5002,
      "ĠÎ´Î¹Î±ÏĨÎ¿ÏģÎµÏĦÎ¹ÎºÎ¬": 5003,
      "ÎĳÏĢÎ¿": 5004,
      "ĠÎºÎ®": 5005,
      "ÎľÏĢÎ¿": 5006,
      "ĠÎ¼ÏĮÎ½Î¹": 5007,
      "ĠÎµÏĦÎ±Î¹ÏģÎµÎ¯ÎµÏĤ": 5008,
      "Î±Î¹ÏĥÎ¸Î·": 5009,
      "ĠÎ¸ÎµÏģÎ±ÏĢÎµÎ¯Î±": 5010,
      "ĠÎłÎ±Î½ÎµÏĢÎ¹ÏĥÏĦÎ®Î¼Î¹Î¿": 5011,
      "ÏģÎµÎ¯Î¿": 5012,
      "ÏĦÎ¯Î¶ÎµÏĦÎ±Î¹": 5013,
      "ĠGre": 5014,
      "ÏĢÎ¿Î¯Î·ÏĥÎµ": 5015,
      "??": 5016,
      "ĠÎŃÎ´ÎµÎ¹": 5017,
      "Î¤Î¹": 5018,
      "ĠÎ´Î¿Î»Î¿": 5019,
      "ĠÎŃÏĢÎ±Î¹": 5020,
      "ĠÎµÏĢÎ¯Î¸ÎµÏĥÎ·": 5021,
      "ÏĨÎ¿ÏģÎ¯Î±ÏĤ": 5022,
      "ĠÎ»Î¯Î³Î±": 5023,
      "Î¯Î½Î·ÏĥÎ·": 5024,
      "ĠÏĢÎµÏģÎ¹Î¿Ïħ": 5025,
      "ÏĢÎ¿Î¹Î¿ÏįÎ½ÏĦÎ±Î¹": 5026,
      "ĠÎºÎ·": 5027,
      "ÏĦÎµÏģÏĮ": 5028,
      "ÏĥÏīÎ¼Î±": 5029,
      "ĠÎ±ÏħÏĦÎ¿ÎºÎ¹Î½Î®": 5030,
      "ĠÎºÎ¹Î½Î´ÏįÎ½": 5031,
      "ĠÎ·Î¼ÎµÏģÎ¿Î¼Î·Î½Î¯Î±": 5032,
      "ĠÎłÏģÏīÏĦÎ¿": 5033,
      "Î¼ÏħÎ½Î±": 5034,
      "ĠÎ¼Î¿Î½Î±Î´Î¹ÎºÏĮ": 5035,
      "ĠÎĺÎµÎ¿Ïį": 5036,
      "Î¼Î¿Î½ÎµÏĤ": 5037,
      "ÏĢÎ±ÏģÎ±": 5038,
      "Î¡ÎĳÎ¤": 5039,
      "ight": 5040,
      "ĠÏĢÎ¿Î»Î¹ÏĦÎ¹ÎºÏĮ": 5041,
      "ĠÎ±Î½ÏĦÎ±ÏĢÎ¿": 5042,
      "ĠÎµÏħÏģÏįÏĦÎµ": 5043,
      "ĠÏĥÎºÎ¬": 5044,
      "ĠÎ¸ÎŃÎ»Ïī": 5045,
      "ÎºÏģÎ¹ÏĥÎ·": 5046,
      "ĠÎ±ÏĢÏĮÏĥÏĦÎ±ÏĥÎ·": 5047,
      "ĠÎ¼ÎµÏĥÎ·": 5048,
      "ĠÎ¾Î·": 5049,
      "ĠÏĥÏĦÎ¿Î¹ÏĩÎµÎ¯Î¿": 5050,
      "ĠÏĢÎ¿Î¹Î½": 5051,
      "oun": 5052,
      "Î²Î¬Î»Î»ÎµÎ¹": 5053,
      "ĠÎºÎ±Î¸Î·Î¼ÎµÏģÎ¹Î½Î¬": 5054,
      "ĠÎľÎµÎ³Î¬": 5055,
      "ĠÎĴÎµÎ½": 5056,
      "ĠÏħÏĢÏĮÏĪÎ·": 5057,
      "ÏĥÎ®ÏĤ": 5058,
      "ĠÏħÏĢÎ¿ÏĥÏĦÎ®ÏģÎ¹Î¾Î·": 5059,
      "ÏĥÎ¹Î¿ÏĤ": 5060,
      "ĠÏĢÏģÎ±Î³Î¼Î±ÏĦÎ¿ÏĢÎ¿Î¹Î·Î¸ÎµÎ¯": 5061,
      "ÎĻÎļÎ©ÎĿ": 5062,
      "ĠÎµÏĥÏĦÎ¹Î±": 5063,
      "ĠÏĢÏĦÏİ": 5064,
      "ĠÎµÏĢÎ±ÏĨÎ®": 5065,
      "44": 5066,
      ";;": 5067,
      "ĠÏĢÎ¿Î¹Î·": 5068,
      "ĠÎĳÏĦÏĦÎ¹ÎºÎ®ÏĤ": 5069,
      "Î¸ÎµÎ¯ÏĤ": 5070,
      "ĠÏĩÏİÏģÎ¿ÏĤ": 5071,
      "ĠÎµÎ¯ÏĥÎ¿": 5072,
      "ÏĩÎ¿Î½ÏĦÎ±Î¹": 5073,
      "ĠÎĿÎ¯ÎºÎ¿ÏĤ": 5074,
      "ÏİÎ½Î¿Î½ÏĦÎ±Î¹": 5075,
      "ĠÏĥÏħÎ½Î¬": 5076,
      "ÏīÎ¼ÎŃÎ½Î·": 5077,
      "ĠÏĢÏĮÎ´Î¹Î±": 5078,
      "ÏĦÎ¿ÏįÎ½ÏĦÎ±Î¹": 5079,
      "ĠÏĢÎ±Î¯ÎºÏĦÎµÏĤ": 5080,
      "ÏĥÎ¹Î¼ÎµÏĤ": 5081,
      "ĠÎłÎŁÎ¥": 5082,
      "ĠÎµÎºÏĢÎ±Î¯Î´ÎµÏħÏĥÎ·ÏĤ": 5083,
      "ome": 5084,
      "ĠÏĦÏĮÎ½Î¹ÏĥÎµ": 5085,
      "ĠÎµÏĢÎ¹ÏĩÎµÎ¹ÏģÎ®ÏĥÎµÏīÎ½": 5086,
      "ĠÏĦÏī": 5087,
      "ĠÎµÎ»ÎŃÎ³ÏĩÎ¿Ïħ": 5088,
      "ÏĦÏģÎµÏĤ": 5089,
      "Î»Î»Î¿Ïħ": 5090,
      "ĠÎºÎ¬ÏĢÎ¿Î¹Î¿Î½": 5091,
      "ĠÎ±ÏĢÎ¿Î´ÎµÎ¯": 5092,
      "''": 5093,
      "Î¹Î»Î¯Î±": 5094,
      "AT": 5095,
      "Î¾Î¯": 5096,
      "ĠÏĢÎ¿Î»Î¹ÏĦÎ¹ÎºÎŃÏĤ": 5097,
      "ĠÎµÎ½Î·Î¼ÎŃÏģÏīÏĥÎ·": 5098,
      "Ġá¼ĲÎ½": 5099,
      "ÏĥÏĦÎ¬ÏĥÎµÏīÎ½": 5100,
      "Î´ÎµÎ¯Î±": 5101,
      "ĠÎµÎ½Î·Î¼ÎµÏģÏī": 5102,
      "ĠÎ¿Î¹ÎºÎ¿Î½Î¿Î¼Î¹ÎºÎ¬": 5103,
      "ÏĪÎµÏĦÎµ": 5104,
      "acebook": 5105,
      "ÏĦÎµÏģÎµÏĤ": 5106,
      "ĠÎ¿Î´Î®Î³Î·": 5107,
      "ĠÎ±ÏĢÎ»ÏİÏĤ": 5108,
      "ĠÏĥÏħÎ½ÎµÎ´ÏģÎ¯Î±": 5109,
      "erv": 5110,
      "ĠÏĨÎ¿ÏģÎµÎ¯ÏĤ": 5111,
      "ĠÏĥÎºÎ·Î½Î¿": 5112,
      "ÎļÎ±ÏĦÎ¬": 5113,
      "Î¯ÏĥÎµÎ¹ÏĤ": 5114,
      "ĠÏĮÏĥÎ¿Î½": 5115,
      "Î¸ÎµÏģÎ±": 5116,
      "ĠÏĥÏħÎ¼ÏĢÎµÏģÎ¹Î»Î±Î¼Î²": 5117,
      "ÏģÎ¿Î½Î¿": 5118,
      "ÏĥÏĦÎ·Î¼Î¬ÏĦÏīÎ½": 5119,
      "ĠÎ¬Î³": 5120,
      "Î³Î¬Î½": 5121,
      "ÏģÏĩÎ¯Î±": 5122,
      "Î¼Î¼Î±ÏĦÎ¿ÏĤ": 5123,
      "ĠÎ±Î´ÎµÎ»": 5124,
      "ĠÏħÏĪÎ·Î»Î®ÏĤ": 5125,
      "ĠÎ±ÏħÏĦÎ¿ÎºÎ¯Î½Î·ÏĦÎ¿": 5126,
      "ĠÎµÎºÎ´Î¿": 5127,
      "ĠÎ³ÎµÎ¹ÏĦÎ¿Î½": 5128,
      "ĠÎ»Ïħ": 5129,
      "Ġ2009": 5130,
      "ĠÎºÏģÎ¬ÏĦÎ¿ÏħÏĤ": 5131,
      "ĠÎ£ÏĦÎŃ": 5132,
      "ÎĹÎľÎĳÎ¤": 5133,
      "ÎĻÎľ": 5134,
      "ĠÎ±ÏĢÏĮÎ³ÎµÏħÎ¼Î±": 5135,
      "ÏĦÎ®Î¼Î±ÏĦÎ¿ÏĤ": 5136,
      "ÏĦÎ·ÏĥÎ±Î½": 5137,
      "ÏĢÎ»Î®": 5138,
      "ĠÎµÎ¾ÎµÎ¹": 5139,
      "ĠÏĥÏĦÎµÎ»ÎŃ": 5140,
      "Î¸Î¿ÏħÎ½": 5141,
      "OR": 5142,
      "ĠÎ±Î½Î±ÏĦÎ¿": 5143,
      "ĠÎŃÎ½Î±ÏģÎ¾Î·": 5144,
      "ĠÎµÏĥÏīÏĦÎµÏģÎ¹ÎºÏĮ": 5145,
      "ĠÏĢÎµÏģÎ¹ÎŃÏĩÎµÎ¹": 5146,
      "Î³Î½ÏīÏĥÎ·": 5147,
      "Î±ÏģÎ¯Î¿Ïħ": 5148,
      "ĠÎµÎ¼Î²": 5149,
      "ĠÎºÎ±Î¸ÏĮÎ»Î¿Ïħ": 5150,
      "ĠÎ²Î¿Î·Î¸Î¬": 5151,
      "ĠÎ´Î¯Ïĥ": 5152,
      "ÎºÎ¿ÏħÎ½": 5153,
      "ĠÏĨÏįÏĥÎ·": 5154,
      "out": 5155,
      "ÏģÎ¬ÎºÎ¹": 5156,
      "ÏĦÎµÏħÏĥÎ·": 5157,
      "ĠÏĢÎ±ÏģÎ¬Î´Î¿ÏĥÎ·": 5158,
      "Î¹ÏĥÎ¼Î¿ÏįÏĤ": 5159,
      "ĠÏĢÏİ": 5160,
      "ĠÎ±Î½Î±Î³ÎºÎ±": 5161,
      "ĠÏĢÏģÎ¿ÏĦÎ¬ÏĥÎµÎ¹ÏĤ": 5162,
      "ĠÎºÏħÎ²ÎµÏģÎ½Î·": 5163,
      "ÏĥÏĦÏģÎµ": 5164,
      "ĠÎµÎ¹ÎºÏĮÎ½ÎµÏĤ": 5165,
      "Î¹Î±ÎºÏĮ": 5166,
      "ĠÎºÎ±ÎºÏĮ": 5167,
      "ĠÎ´Î¹Î´Î¬": 5168,
      "ĠÎºÏĮÎºÎºÎ¹": 5169,
      "ĠÎŃÎ¾Î¹": 5170,
      "ÏĦÎ±Î¼": 5171,
      "ĠÎºÎ¿ÏģÏħÏĨÎ±": 5172,
      "ĠÎ´ÎŃÎºÎ±": 5173,
      "ÏĦÏģÎ¿Ïį": 5174,
      "ĠÏĩÏģÎ¿Î½Î¹ÎºÏĮ": 5175,
      "Î´Î¹Ïī": 5176,
      "38": 5177,
      "ĠÏĢÎ±ÏģÎ±Î¼Îµ": 5178,
      "ĠÏĥÏĩÎŃÎ´Î¹Î±": 5179,
      "ÏĢÎµÏģÎ¹": 5180,
      "ĠÎļÎŃÎ½": 5181,
      "ÏĪÏī": 5182,
      "Î»ÎµÏĥÎµ": 5183,
      "ĠÎĶÎ¹ÎµÎ¸Î½": 5184,
      "ĠÎµÏĢÏĮÎ¼ÎµÎ½Î¿": 5185,
      "Î»Î¿Î³Î¹ÎºÎ®ÏĤ": 5186,
      "ĠÎ³ÎŃÎ½": 5187,
      "ÏĢá½¸": 5188,
      "Î´Î±Î½": 5189,
      "ĠÎ¼ÏħÎ±Î»ÏĮ": 5190,
      "ĠÎ´Î¹ÎµÎ¾Î±": 5191,
      "ĠÏĥÏħÎ³ÎºÎŃÎ½ÏĦ": 5192,
      "Î¸ÎµÎ»Î¿Î½": 5193,
      "ĠÏĢÎ±ÏģÎ±ÎºÎ¿Î»Î¿Ïį": 5194,
      "ĠÎµÎ½Î±Î»Î»Î±": 5195,
      "Î¼Î¹ÎºÎŃÏĤ": 5196,
      "Î´ÏħÎ½Î±": 5197,
      "ĠÎ´Î¹Î´Î±Ïĥ": 5198,
      "ÎµÎ¹ÏİÎ½": 5199,
      "ĠÎ»Î·": 5200,
      "Î³Î¿ÏħÎ¼Îµ": 5201,
      "Î¯Î½Î¹": 5202,
      "ĠÎĺÎķ": 5203,
      "ĠÎ¿ÏģÎ³Î¬Î½ÏīÏĥÎ·": 5204,
      "ĠÏĦÎ¬Î¾Î·": 5205,
      "ĠÎ´Î¿ÎºÎ¹Î¼Î¬": 5206,
      "Î»Î¬Î½": 5207,
      "ÏģÎ¸ÏģÎ¿": 5208,
      "ĠÏĢÎ¿Î½": 5209,
      "ĠÏĢÎµÏģÎ¹ÏĥÏĥÏĮÏĦÎµÏģÎ¿Î¹": 5210,
      "ÎºÏĮÏĢ": 5211,
      "Î²Î¿ÏĤ": 5212,
      "ĠÏĦÏħÏĩ": 5213,
      "ĠÎ¡Î¿": 5214,
      "ĠÎµÏĥÏį": 5215,
      "ĠÎ¿Ïģ": 5216,
      "ĠÎµÏĢÎ¿ÏĩÎ®ÏĤ": 5217,
      "ĠÏįÏĪÎ¿ÏĤ": 5218,
      "ĠÎµÏĢÎ¹ÎºÎµÏĨÎ±Î»Î®ÏĤ": 5219,
      "ĠÏĩÏģÎµ": 5220,
      "ĠÎºÎ±Î¹Î½Î¿": 5221,
      "sp": 5222,
      "ÏİÎ½Î±ÏĤ": 5223,
      "ĠÎķÏĢÎ¹ÏĩÎµÎ¹": 5224,
      "Î±ÏĢÎ¿": 5225,
      "ĠÎµÎ½Î¹ÏĥÏĩÏį": 5226,
      "ix": 5227,
      "ĠÎ¤Î¬": 5228,
      "ĠÏħÏĢÎ®ÏģÎ¾Îµ": 5229,
      "ĠÎ±ÏĢÎ¿ÎºÎ»ÎµÎ¹ÏĥÏĦÎ¹ÎºÎ¬": 5230,
      "ĠÎ£ÏįÎ»Î»Î¿": 5231,
      "ĠÏĥÏħÎ¼Î¼ÎµÏĦÎµÎ¯": 5232,
      "ĠÎºÎ¬ÏĢÎ¿Î¹Î¿Î¹": 5233,
      "ĠÏĥÏĦÎ¯": 5234,
      "Î³ÏģÎ¬ÏĨÎ¿ÏĤ": 5235,
      "ĠÎ¶ÎµÏħ": 5236,
      "ĠÏĥÏħÎ½Î´Îµ": 5237,
      "ĠÎķÏħÏģÏīÏĢÎ±ÏĬÎºÎ®ÏĤ": 5238,
      "ĠÎ§ÏģÏħÏĥ": 5239,
      "ÏīÎ¼Î¬ÏĦÏīÎ½": 5240,
      "ĠÎ»ÎŃÎ¾Î·": 5241,
      "ĠÎļÏģÎ®ÏĦÎ·ÏĤ": 5242,
      "ÎºÎ¹Î½Î·": 5243,
      "Ġpro": 5244,
      "ĠÎŃÏĥÏĦÏī": 5245,
      "ĠÎ²Î¹Î²Î»Î¹Î¿": 5246,
      "ĠÏĥÎºÎµÏĨ": 5247,
      "EN": 5248,
      "ĠÎĶÎ·Î¼Î®ÏĦÏģÎ·ÏĤ": 5249,
      "ÏĦÎ¿ÏįÏĥÎµ": 5250,
      "www": 5251,
      "ĠÎºÎ±ÏĦÎµÏį": 5252,
      "Î²Î±Î»Îµ": 5253,
      "Î´Î¹ÎºÎ¿Ïį": 5254,
      "ĠÎºÎ¯Î½Î´ÏħÎ½Î¿": 5255,
      "Ġfor": 5256,
      "ĠÏĢÎµÏģÎ½Î¬": 5257,
      "2015": 5258,
      "ĠÎ¿ÏħÏĥÎ¯Î±": 5259,
      "ÏĥÎ²Îµ": 5260,
      "Î¿ÏħÏĥÎµÏĤ": 5261,
      "ĠÏĢÎ½ÎµÏį": 5262,
      "ĠÎ´Î·Î»ÏİÏĥÎµÎ¹ÏĤ": 5263,
      "Î¯ÏĥÎ¿ÏħÎ½": 5264,
      "ĠÏĨÏīÏĦÎ¿Î³ÏģÎ±ÏĨÎ¯Î±": 5265,
      "ĠÎ¦ÎµÎ²ÏģÎ¿ÏħÎ±ÏģÎ¯Î¿Ïħ": 5266,
      "ĠÎ¼á½²": 5267,
      "ÏĢÏİÎ½": 5268,
      "ĠÏĢÎ¬Î½ÏĦÏīÏĤ": 5269,
      "ĠÎ±ÎŃÏģÎ±": 5270,
      "ĠÎ»ÎµÏĢÏĦÎ¿Î¼ÎŃ": 5271,
      "ÏĦÏģÎ±ÏĤ": 5272,
      "ĠÎłÏģÏĮÎºÎµÎ¹ÏĦÎ±Î¹": 5273,
      "ick": 5274,
      "ÑĤ": 5275,
      "ment": 5276,
      "ĠÎ¹Î´Î¹Î¿ÎºÏĦÎ®": 5277,
      "ĠÎºÎ¿Î¹Î½ÏīÎ½Î¹ÎºÎ®ÏĤ": 5278,
      "ĠÎ¼ÎµÎ»Îµ": 5279,
      "á½µ": 5280,
      "Î²Î±Î¸": 5281,
      "ĠÎºÎµÎ½": 5282,
      "Î¼Î¯ÎµÏĤ": 5283,
      "ĠÎµÏĢÎ¹ÏĥÎºÎŃÏĢÏĦÎµÏĤ": 5284,
      "ĠÎ·Î¸": 5285,
      "ĠÏħÏĢÎ¬ÏģÎ¾ÎµÎ¹": 5286,
      "ĠÏĦÎ·Î»ÎŃ": 5287,
      "ÎºÏĦÎ·ÏĤ": 5288,
      ".:": 5289,
      ".Â»": 5290,
      "ĠÎ½ÎŃÎ¿ÏħÏĤ": 5291,
      "ĠÎļÎ¬Î¸Îµ": 5292,
      "%,": 5293,
      "ĠÎ®Î¸ÎµÎ»Î±": 5294,
      "Ġ90": 5295,
      "ÏģÎµÏħÎ½": 5296,
      "ĠÎ£ÏĢ": 5297,
      "ĠÎ²Î³Î±": 5298,
      "ÏģÎµÏħÏĥÎ·": 5299,
      "ĠÎºÎµÎ¹": 5300,
      "ÏĩÏģÎ·": 5301,
      "ĠÎ¦Î¿": 5302,
      "ĠÎ´ÎŃÏģÎ¼Î±": 5303,
      "Ã©": 5304,
      "ĠÎ±ÏĢÎ¿ÏĥÏĦÎ¿Î»Î®": 5305,
      "ĠÎ¤Î©ÎĿ": 5306,
      "ĠÏĢÎ·Î³Î±": 5307,
      "ÏĢÎ¿Î¹Î·Î¸Î¿ÏįÎ½": 5308,
      "ĠÎµÏĢÎ¹ÏĦÏģÎŃÏĢÎµÎ¹": 5309,
      "........": 5310,
      "ĠÎµÏĢÎ¹ÏĥÏĦÎ¿": 5311,
      "Î¹ÎºÏĮÏĦÎ·ÏĦÎ±": 5312,
      "ĠÎķÎ¾Ïī": 5313,
      "ĠÎ¼Î¹Î»Î®": 5314,
      "ÏİÏĥÎ¿ÏħÎ½": 5315,
      "ĠÎ±ÏģÎŃÏĥÎµÎ¹": 5316,
      "Î´Î¹ÎºÎŃÏĤ": 5317,
      "ÎºÎ±Ïģ": 5318,
      "2014": 5319,
      "ĠÏĩÏģÎ®ÏĥÏĦÎµÏĤ": 5320,
      "2013": 5321,
      "ĠÎ¿ÏĢÎ¿Î¯Î¿ÏħÏĤ": 5322,
      "ĠÎļÏįÏĢÏģÎ¿": 5323,
      "ĠÏĥÏħÎ³Î³": 5324,
      "ĠÏĦÎ±Î¹": 5325,
      "Î¤Î¥": 5326,
      "ĠÏĢÎ¿Î»ÎŃ": 5327,
      "ÏĦÎ¯Î½Î±": 5328,
      "ĠÎ¤ÏģÎ¯ÏĦÎ·": 5329,
      "ĠÏĦá½°": 5330,
      "ĠÎºÎ±ÏĦÎµÏħ": 5331,
      "ĠÎ±Î½Î¸ÏģÏİÏĢÎ¿Ïħ": 5332,
      "af": 5333,
      "ĠÎ¹Î´ÏģÏį": 5334,
      "ĠÎ¼ÏĮÎ½Î¿Î½": 5335,
      "á½¸ÏĤ": 5336,
      "ÎķÎķ": 5337,
      "ÏĦÏįÏĢÏīÏĥÎ·": 5338,
      "Î»Î¬ÎºÎ¹": 5339,
      "ĠÏĥÏħÎ»Î»Î¿Î³": 5340,
      "ĠÏĢÏģÎ¿ÏĨÎ±Î½": 5341,
      "ĠÎºÏħÏģÎ¯Î±": 5342,
      "ĠÎļÎ¿Î¹Î½Î¿": 5343,
      "á½ºÏĤ": 5344,
      "ĠÎľÏħ": 5345,
      "ĠÎºÎ»Î®": 5346,
      "ĠÎ±ÏĥÏĨÎ±Î»ÎµÎ¯Î±ÏĤ": 5347,
      "ĠÎ±Î¼": 5348,
      "ÏĥÎ¹ÎµÏĤ": 5349,
      "ĠÎ¼Î·ÏĦÎŃÏģÎ±": 5350,
      "ĠÎ¿ÏĢÎ¿Î¯Î¿Ïħ": 5351,
      "ach": 5352,
      "ĠÏĦÏģÎ¬ÏĢÎµÎ¶": 5353,
      "ĠÏĢÎ±ÏģÎ¿ÏħÏĥÎ¹Î¬Î¶ÎµÎ¹": 5354,
      "ĠÎľÎ·ÏĦÏģÎ¿": 5355,
      "ĠÏĥÎºÎŃÏĨ": 5356,
      "ĠÎ´Î¹ÎºÎ¬": 5357,
      "Î´ÎŃÏĩÎµÏĦÎ±Î¹": 5358,
      "ĠÎµÏĢÎ¹ÎºÎ¯Î½": 5359,
      "ÎºÎ¿Î½": 5360,
      "ÏĥÎ±ÏĦÎµ": 5361,
      "ÎºÎ®ÏģÏħ": 5362,
      "Î¹ÏĥÏĦÎ¹ÎºÎ®": 5363,
      "Î»ÏĮÏĤ": 5364,
      "CF": 5365,
      "ĠÏĨÎ±Ïĥ": 5366,
      "ÏĢÎµÎ¹Î´Î®": 5367,
      "ÏĦÎ®ÏĥÎ¿ÏħÎ¼Îµ": 5368,
      "ĠÏĢÏģÎ¿ÎµÏĦÎ¿Î¹Î¼Î±": 5369,
      "ES": 5370,
      "ĠÎ¼ÎŃÎ¸Î¿": 5371,
      "Î½ÏĦÎ¿": 5372,
      "ĠÎ¿ÏĨÎµÎ¹": 5373,
      "Î¹Î¿Ïħ": 5374,
      "Î²Î¿ÏħÎ½": 5375,
      "ÏĨÎ±ÏĥÎ·ÏĤ": 5376,
      "Î¬ÏĥÎµÏīÎ½": 5377,
      "ĠÏħÏĢÎ¿Î»Î¿Î³": 5378,
      "Î¸ÎµÎ¯Î±ÏĤ": 5379,
      "ĠÏĪÎ±": 5380,
      "ĠÏħÏĢÎ¬": 5381,
      "ĠÎĪÎ»Î»Î·": 5382,
      "ÎµÎ½ÎµÏģÎ³": 5383,
      "ĠÎ£ÏĩÎµ": 5384,
      "ÏĦÎµÎ¹Î±": 5385,
      "ust": 5386,
      "ĠÎłÎ±Î½Îµ": 5387,
      "ĠÏĢÎµÏģÎ¹ÎµÏĩÏĮÎ¼ÎµÎ½Î¿": 5388,
      "ĠÎķÎ¸Î½Î¹ÎºÎ®ÏĤ": 5389,
      "ĠÎ²ÏģÎµÎ¹": 5390,
      "05": 5391,
      "ĠÎ¬Î´ÎµÎ¹Î±": 5392,
      "ĠÎŃÎ¼": 5393,
      "ĠÎ±Î½ÏĦÎ¹ÎºÎµÎ¹": 5394,
      "ÏĦÎ¯Î¶ÎµÎ¹": 5395,
      "Î¬ÏģÎ¼Î±": 5396,
      "ÏĦÎ¹Î¿Ïį": 5397,
      "ĠÏĢÏģÎ¿ÏĥÎ¿ÏĩÎ®": 5398,
      "ĠÎľÎµÏĥ": 5399,
      "ĠÎ±Î»Î»Î·Î»Îµ": 5400,
      "ĠÎĿÎ¹Îº": 5401,
      "ĠÎĴÎ¹Î²": 5402,
      "ĠÎµÏĢÎµÎ½Î´Ïħ": 5403,
      "ĠÎ¼ÏĢÎ¬Î½": 5404,
      "ĠÎ±Î»Î»Î¬Î¾ÎµÎ¹": 5405,
      "ĠÎµÎ½ÏĦÎ¬": 5406,
      "ĠÎ¡Î±": 5407,
      "ĠÎłÎĳÎĿ": 5408,
      "ÏĢÎ¿Î¹Î®ÏĥÎµÎ¹ÏĤ": 5409,
      "ĠÎ¼Î±ÏĦÏĤ": 5410,
      "ÏģÎ¹ÏĥÏĦÎ·": 5411,
      "ĠÏĩÏĦÏħ": 5412,
      "ĠÎ¥Îł": 5413,
      "ĠÎ±ÏĢÎ¯": 5414,
      "sh": 5415,
      "Î´Î·Î³": 5416,
      "ĠÎļÎ¿Î¹Î½": 5417,
      "ĠÏĢÎ±ÏģÎ±Î²": 5418,
      "ĠÏĥÏħÎ½ÎµÏĩÏİÏĤ": 5419,
      "ĠÎ±Î½ÏĦÎ¹ÎºÎµÎ¯Î¼ÎµÎ½Î¿": 5420,
      "ĠÎ±ÏĢÎ¿ÎºÎ±": 5421,
      "ĠÎµÎ¿Ïģ": 5422,
      "Î¼ÏĮÏģÏĨÏīÏĥÎ·": 5423,
      "ĠÎ½ÎŃÎ±ÏĤ": 5424,
      "ĠÏħÏĢÎ¿ÏĩÏģÎµÏī": 5425,
      "ĠÏĢÏģÎ¿Î²Î»Î·Î¼Î±": 5426,
      "ĠÎļÎ¿Ïģ": 5427,
      "ĠÏĦÎµÎ»Î¹ÎºÏĮ": 5428,
      "ĠÏĥÏħÎ¼Î¼ÎµÏĦÎ¿ÏĩÎ®ÏĤ": 5429,
      "ĠÎľÏĢÎ¿ÏģÎµÎ¯": 5430,
      "ĠÎ´Î·Î¼ÏĮÏĥÎ¹Î¿": 5431,
      "ÏĮÏĦÎµÏģÎµÏĤ": 5432,
      "ĠÎłÎ±Î¹Î´ÎµÎ¯Î±ÏĤ": 5433,
      "ĠÏĪÎ·ÏĨÎ¹Î±": 5434,
      "ĠÎ¿ÏħÏĥÎ¹Î±ÏĥÏĦÎ¹ÎºÎ¬": 5435,
      "ĠÎłÎĳÎ£ÎŁÎļ": 5436,
      "ĠÎ´ÎµÎ¯ÏĩÎ½Î¿ÏħÎ½": 5437,
      "Î´Î¹ÎºÎµÏħ": 5438,
      "ÏĥÎºÎ¿ÏĢ": 5439,
      "Î±Î¹ÏĦÎŃÏģÏī": 5440,
      "ĠÏĢÎµÏģÎ¹ÏĥÏĦÎ±": 5441,
      "ĠÏĨÎ±ÏģÎ¼Î±": 5442,
      "ÏĩÏİÏģÎ·ÏĥÎ·": 5443,
      "ĠÏĢÎµÎ´": 5444,
      "man": 5445,
      "ÏĦÎµÏĦÎ±Î¹": 5446,
      "ĠÏĢÏģÎ¬ÏĥÎ¹": 5447,
      "ĠÎ·Î½": 5448,
      "ĠÎ´ÏīÎ¼Î¬ÏĦÎ¹Î¿": 5449,
      "ĠÎļÎ¥": 5450,
      "ly": 5451,
      "Î»Î³Î±": 5452,
      "ĠÎ´ÎµÏĩ": 5453,
      "ÏĥÏĦÎ¹ÎºÎ®ÏĤ": 5454,
      "ĠÎŃÎ´ÏģÎ±": 5455,
      "ĠÎºÎ¿Î¹Î½ÏīÎ½Î¯Î±ÏĤ": 5456,
      "ĠÎ±Î»Î»Î¿": 5457,
      "ĠÎķÏħÏģÏīÏĢÎ±ÏĬÎºÎ®": 5458,
      "Î¡ÎĳÎ¦": 5459,
      "ÏįÎ¼Î±ÏĦÎ±": 5460,
      "ÎľÎł": 5461,
      "ĠÎĶÎµÎº": 5462,
      "ĠÎ³Î½ÏİÎ¼Î·": 5463,
      "Ġ45": 5464,
      "ĠÎ¥ÏĢÎ¿ÏħÏģÎ³ÎµÎ¯Î¿Ïħ": 5465,
      "ĠÎ±ÏģÎº": 5466,
      "ĠÎ£ÏĦÎµ": 5467,
      "ĠÏĥÏīÏĥÏĦÎ®": 5468,
      "ĠÎ²Î¬Î¶": 5469,
      "ĠÂµÎŃ": 5470,
      "ãģ": 5471,
      "ĠÎ¬ÏĦÎ¿Î¼Î¿": 5472,
      "Î¼ÏĢÏĮ": 5473,
      "ĠÎ´ÎµÏĥÎ¼Îµ": 5474,
      "ĠÎ¼ÎµÏĦÎ¿": 5475,
      "ĠÎĮÎ»Î±": 5476,
      "ĠÏħÏĢÎ¿ÏĪÎ®ÏĨ": 5477,
      "ÏħÏĥÎ¯": 5478,
      "Î»Î»ÏīÎ½": 5479,
      "ĠÎµÏĦÎ®": 5480,
      "ĠÎ½ÏĮÎ¼Î¹": 5481,
      "33": 5482,
      "ĠÎĴÎ¿ÏħÎ»Î®": 5483,
      "ĠÏĢÎ±Î¹ÏĩÎ½Î¹": 5484,
      "ĠÎĴÎ¹Î¿": 5485,
      "Î»Î®ÏĨ": 5486,
      "ĠÎµÎ½ÏĦÎµÎ»ÏİÏĤ": 5487,
      "Î¼Î±ÏĦÎ¹ÎºÎ®": 5488,
      "ĠÏģÎµÏį": 5489,
      "AL": 5490,
      "Ġ70": 5491,
      "ĠÎ´Î®Î»ÏīÏĥÎ·": 5492,
      "ÏĥÏĦÎµÎ¹": 5493,
      "ÎłÎ±ÏģÎ¬": 5494,
      "ÏģÎ¬ÎºÎ·ÏĤ": 5495,
      "ĠÎ¡Îµ": 5496,
      "ĠÎ±Î¾Î¹ÏĮ": 5497,
      "ĠÎ¹Î´Î¹Î±Î¯ÏĦÎµÏģÎ·": 5498,
      "Î·Î³ÏĮ": 5499,
      "ĠÎ´Î·Î»Ïİ": 5500,
      "ĠÏĢÏģÎ¿ÏĥÏīÏĢÎ¹ÎºÎ¿Ïį": 5501,
      "ĠÎ±ÏģÏĩÎ¹ÎºÎ¬": 5502,
      "ĠÎĺÎµÏĮÏĤ": 5503,
      "ĠÏĤ": 5504,
      "ĠÎ¾ÎµÎºÎ¹Î½Î®ÏĥÎµÎ¹": 5505,
      "65": 5506,
      "Î®ÏĥÎ¿ÏħÎ½": 5507,
      "Î¼ÎµÎ½Î¿Î¹": 5508,
      "ĠÏĪÏħÏĩÎ®": 5509,
      "Î±Î¹ÏĮÏĦÎ·ÏĦÎ±": 5510,
      "ĠÎĴÎ¬": 5511,
      "ĠÎĳÎ¥": 5512,
      "ÏĦÎ±Î³Î¼Î±": 5513,
      "ĠÎ¼Î¿Î½Î±Î´Î¹ÎºÎ®": 5514,
      "ĠÎłÎ±Î½Î±Î¸Î·Î½Î±ÏĬ": 5515,
      "ĠÎ¸ÎŃÎ»Î¿ÏħÎ¼Îµ": 5516,
      "ĠÏģÎ¿Ïį": 5517,
      "ĠÎ±ÏĢÎ¿Î»Î±Ïį": 5518,
      "ÏĥÏĢÎ±": 5519,
      "Î»ÏīÏĥÎ·ÏĤ": 5520,
      "ĠÏĥÎµÎ²Î±Ïĥ": 5521,
      "pe": 5522,
      "ĠÎ±Î½Î®ÎºÎµÎ¹": 5523,
      "ĠÎļÏįÏĢÏģÎ¿Ïħ": 5524,
      "ĠÏĦÎ±ÏĩÏħ": 5525,
      "ĠÎłÎµÏģÎ¹ÏĨÎµÏģÎµÎ¹Î±": 5526,
      "ĠÎ·Î¸Î¿": 5527,
      "ĠÎ¿á¼±": 5528,
      "ĠÎ²ÎµÎ»ÏĦÎ¯ÏīÏĥÎ·": 5529,
      "ĠÏĦÎŃÏĥÏĥÎµÏģÎ¹ÏĤ": 5530,
      "Î¼ÏĢÎ¿Ïį": 5531,
      "ĠÎ±Î½ÏĦÎ¹Ïĥ": 5532,
      "ĠÎ´Î¹Î±Î¹": 5533,
      "ure": 5534,
      "ĠÏĪÎµÏħ": 5535,
      "ĠÎ´Î¯Î½Î¿ÏħÎ½": 5536,
      "ÏĦÎ¯Î¼Î·ÏĥÎ·": 5537,
      "Î§ÎĿ": 5538,
      "Î¤ÎŁÎ£": 5539,
      "ĠÏĢÏģÎ¿ÏĥÎ´Î¹Î¿": 5540,
      "ÏĦÎ·ÏģÎ¯ÏīÎ½": 5541,
      "ĠÏĩÎ±ÏģÎ±ÎºÏĦÎ®": 5542,
      "ĠÎµÏĢÎ¹ÎºÎ¿Î¹Î½ÏīÎ½Î¯Î±ÏĤ": 5543,
      "ĠÎ¹ÏĥÎ¿ÏģÏģÎ¿": 5544,
      "ĠÎķÎ»Î»Î·Î½Î¹ÎºÎ®ÏĤ": 5545,
      "ÎŃÏģÎ³ÎµÎ¹Î±": 5546,
      "ĠÎ³ÏīÎ½": 5547,
      "Î¯Î¿ÏħÏĤ": 5548,
      "Î¸ÎŃÏĦÎµÎ¹": 5549,
      "ĠÏĢÎ¿Î¹Î±": 5550,
      "ĠÏĢÎ»ÎµÎ¿Î½": 5551,
      "Î½Î±Î¼Îµ": 5552,
      "ĠÏĢÎ±Î»Î¹Î¬": 5553,
      "Ġwww": 5554,
      "ĠÏĥÏħÎ½ÎµÎ¹Î´Î·": 5555,
      "ĠÏĢÎµÏģÎ¹Î³ÏģÎ¬ÏĨ": 5556,
      "ÏĦÎŃÏģÏīÎ½": 5557,
      "ĠÎļÎ±Î¸Î·": 5558,
      "ĠâĢ¢": 5559,
      "ÏĮÎ»Î±": 5560,
      "ĠÎ¬ÏĥÎºÎ·ÏĥÎ·": 5561,
      "ĠÏĥÏħÎ½Î±Î»Î»Î±": 5562,
      "ĠÎ¼ÎŃÏĦÏģÏīÎ½": 5563,
      "Î¸Î·ÎºÎ±": 5564,
      "ox": 5565,
      "ÎµÎ¯Î´Î·": 5566,
      "ĠÎłÎ»Î·": 5567,
      "Î¼Î·Î½Î¿": 5568,
      "ĠÎµÏģÎ³Î±ÏĥÎ¯ÎµÏĤ": 5569,
      "ĠÏĥÏĦÎ¹Î³Î¼ÎŃÏĤ": 5570,
      "ĠÏĦÎµÎ»ÎµÎ¯": 5571,
      "Î¸Î±Ïģ": 5572,
      "ĠÎµÎ»Î»Î·Î½Î¹ÎºÎ¿Ïį": 5573,
      "ĠÎµÎ»Îµ": 5574,
      "ÎºÎ¿Î¹": 5575,
      "Î²Î¬Î»Î»ÎµÏĦÎ±Î¹": 5576,
      "Î¤ÎĻÎļÎĹ": 5577,
      "ĠÎ´Î¹Î±Î´Î¹ÎºÎ±ÏĥÎ¯ÎµÏĤ": 5578,
      "ĠÎºÎ±ÎºÎ¿": 5579,
      "ĠÎ¼ÏĮÎ½Î·": 5580,
      "ÏĬÎºÎ®": 5581,
      "Î¸Î½Î¿ÏįÏĤ": 5582,
      "Î³ÏģÎ±ÏĨÎ±": 5583,
      "lay": 5584,
      "ÎºÏĦÎ·ÏĥÎ·": 5585,
      "ĠÎ±Î½Î±ÎºÎ¿Î¯Î½ÏīÏĥÎµ": 5586,
      "ĠÎ´Î±Î½ÎµÎ¹": 5587,
      "ĠÎ±Î½ÏĦÎ¹Î´ÏģÎ¬": 5588,
      "ÎłÎ¿Î»": 5589,
      "ÏĢÎŃÎ´Î¿Ïħ": 5590,
      "amp": 5591,
      "ĠÎ¶Î·ÏĦÎ®Î¼Î±ÏĦÎ±": 5592,
      "ĠÎ¸Î¬Î½Î±ÏĦÎ¿": 5593,
      "Î¹ÏĥÎ·ÏĤ": 5594,
      "ÏĦÎ·ÎºÎ±Î½": 5595,
      "ĠÏĨÏħÏĥÎ¹Î¿": 5596,
      "ÎºÏĦÎµÏĤ": 5597,
      "ĠÎµÎ½ÏĦÎ±": 5598,
      "ĠÏĦÎµÎ»Îµ": 5599,
      "ĠÎłÎ»Î±": 5600,
      "ĠÎ¬Î»Î»Î¿ÏĤ": 5601,
      "ĠÎĪÎº": 5602,
      "ĠÏĦÎµÏģÎ¬ÏĥÏĦÎ¹Î±": 5603,
      "ĠÏħÎ³": 5604,
      "ĠÎ¬ÏģÏĩÎ¹ÏĥÎµ": 5605,
      "ĠÎºÎ¹Î½Î·Î¼Î±ÏĦÎ¿": 5606,
      "ĠÎ±ÏĢÎ¬Î½": 5607,
      "ÏĥÎ¼Î±ÏĦÎ¿ÏĤ": 5608,
      "ĠÏĢÎ±ÏģÎ¬ÏĥÏĦÎ±ÏĥÎ·": 5609,
      "ĠÏĥÏīÏĥÏĦÎ¬": 5610,
      "ĠÎ±Î´Ïį": 5611,
      "ĠÎĿÎŃÎ±ÏĤ": 5612,
      "ÏĦÏĥÎµ": 5613,
      "ĠÎłÏģÎ¬": 5614,
      "ĠÎĸÏī": 5615,
      "ĠÎºÏĮÎ¼Î¼Î±": 5616,
      "ĠÎ²ÏģÎ±Î²": 5617,
      "ÏĮÏĢÏīÏĤ": 5618,
      "ÏĩÎ±Ïĥ": 5619,
      "ĠÏĦÎµÎ»ÎµÏħÏĦÎ±Î¯ÎµÏĤ": 5620,
      "Î¹Î±ÎºÎ®": 5621,
      "ĠÎŃÏģÎ¸ÎµÎ¹": 5622,
      "ÏĨÏīÎ½Î±": 5623,
      "ÏĦÎ¿ÏħÎ¼Îµ": 5624,
      "ÏĥÎ¬ÏĤ": 5625,
      "ĠÎ±ÏĢÏİÎ»ÎµÎ¹Î±": 5626,
      "ĠÎľÎ·ÏĩÎ±Î½": 5627,
      "Î¤ÎŃ": 5628,
      "ÏĥÎ¹Î¿Ïį": 5629,
      "ĠÎĻÏĥÏĢÎ±Î½": 5630,
      "ĠÏĩÎ·": 5631,
      "ĠÏĥÎ·Î¼ÎµÏģÎ¹Î½Î®": 5632,
      "ĠÎ±Î½Î±ÎºÎ±Î»Ïį": 5633,
      "Î¼Î·ÏĥÎ·ÏĤ": 5634,
      "ÏĩÎµÎ¯Î¿Ïħ": 5635,
      "ĠÏĦÏħÏĩÏĮÎ½": 5636,
      "und": 5637,
      "09": 5638,
      "ÏģÎµÎ¹ÎµÏĤ": 5639,
      "Ġth": 5640,
      "ĠÎºÏģÎ¯ÏĥÎ·ÏĤ": 5641,
      "Î¼Î²Î±ÏĥÎ·ÏĤ": 5642,
      "ĠÎ¬ÏĨÎ·": 5643,
      "ĠÎ¼ÎŃÎ³ÎµÎ¸Î¿ÏĤ": 5644,
      "ÏĥÏĦÏģÎŃ": 5645,
      "Ð½": 5646,
      "ĠÎ¿Î¹ÎºÎ¿Î³ÎµÎ½ÎµÎ¹Î±": 5647,
      "ĠÏĥÏħÎ¼ÏĢÎµÏģÎ¹ÏĨÎ¿ÏģÎ¬": 5648,
      "ĠÏĥÏĦÏĮÏĩÎ¿ÏĤ": 5649,
      "ĠÎľÎ±ÏģÎ¯Î±": 5650,
      "Î²Î±ÏĥÎ·ÏĤ": 5651,
      "Î¼ÎµÎ¹Î½Îµ": 5652,
      "Î½Î®ÏĥÎµÎ¹ÏĤ": 5653,
      "ĠÎ³ÏģÎ±Î¼Î¼Î±": 5654,
      "ĠÎĹÎ½Ïī": 5655,
      "ÏİÏĦÎµÏĤ": 5656,
      "ĠÏĥÎŃ": 5657,
      "ĠÎłÎ¿Î»Ïħ": 5658,
      "ĠBl": 5659,
      "ÏģÎ·Î¸ÎµÎ¯": 5660,
      "Î»Î¹ÏİÎ½": 5661,
      "ĠÏĢÎ±ÏģÎ±Î»Î¯Î±": 5662,
      "int": 5663,
      "ĠÎ±ÎºÎ¿Î»Î¿ÏħÎ¸ÎµÎ¯": 5664,
      "ĠÏĢÏĮÎ½": 5665,
      "ÏģÎ¹Î½Î®": 5666,
      "ros": 5667,
      "Î¶ÏĮÎ¼Î±ÏĥÏĦÎµ": 5668,
      "ĠÎ£ÎµÏģ": 5669,
      "ĠÎĴÏģÎµÏĦÎ±Î½": 5670,
      "ĠÎµÎ¾Î¬": 5671,
      "ĠÎ±Î¾Î¹ÏīÎ¼Î±": 5672,
      "Î¼ÏĮÏĦÎ·ÏĦÎ±ÏĤ": 5673,
      "ĠÎķÏĢÎ¯": 5674,
      "ĠÎ±Î½Î±ÏĨÎ¿ÏģÎ¬": 5675,
      "Î¦ÎķÎļ": 5676,
      "ĠÎ±Î½ÏĦÎ¯ÏĥÏĦÎ¿Î¹ÏĩÎ±": 5677,
      "ĠÎĶÎķÎĿ": 5678,
      "ĠÎ²ÏģÎŃÎ¸Î·ÎºÎµ": 5679,
      "ĠÏĢÏģÎ¿ÏĥÏĦÎ±ÏĥÎ¯Î±ÏĤ": 5680,
      "ĠÎ»Î¿Î³Î±ÏģÎ¹Î±ÏĥÎ¼ÏĮ": 5681,
      "ond": 5682,
      "ĠÎ±Î½Î±Ïģ": 5683,
      "ĠÏĥÏİÎ¼Î±ÏĦÎ¿ÏĤ": 5684,
      "ĠÎ¼ÎµÎ¯": 5685,
      "ĠÎ±ÏĢÎ±Î¹ÏĦÎµÎ¯ÏĦÎ±Î¹": 5686,
      "ĠÎºÎ¿Î¹Î½Î®": 5687,
      "ĠÎ±Î³Î¿ÏģÎŃÏĤ": 5688,
      "ĠÏĮÎ½ÎµÎ¹": 5689,
      "Î»Î¿Î³Î¯ÎµÏĤ": 5690,
      "ĠÎ±Î½ÏĦÎ¹Î¼ÎµÏĦÏīÏĢÎ¯": 5691,
      "ÏĨÏģÎ±ÏĥÎ·": 5692,
      "Î´ÏģÎ¹Î¿": 5693,
      "ĠÎ¥ÏĢÎ¿ÏħÏģÎ³ÎµÎ¯Î¿": 5694,
      "ĠÎ³ÎµÎ³Î¿Î½ÏĮÏĦÎ±": 5695,
      "ĠÎ²Î±ÏĥÎ¹ÎºÏĮ": 5696,
      "ĠÏĢÎµÎ´Î¯Î¿": 5697,
      "ÏĩÎ±ÏģÎ·": 5698,
      "Î¹Ïī": 5699,
      "Î©Î£ÎĹ": 5700,
      "ĠÏĢÏģÎ¿ÏĥÏīÏĢÎ¹ÎºÎ¬": 5701,
      "ĠMar": 5702,
      "ĠÏĢÏģÎ¿ÎºÎ±Î»ÎµÎ¯": 5703,
      "ĠÎ¡Ïİ": 5704,
      "ĠÎļÎŁ": 5705,
      "ĠÎ³ÏģÎ¬ÏĨ": 5706,
      "ĠÎ³ÎµÎ½Î¹ÎºÎ¬": 5707,
      "ĠÎ§ÏģÎ·": 5708,
      "ĠÎĳÎ¯": 5709,
      "ÏĦÎ¯Î¶Î¿Î½ÏĦÎ±Î¹": 5710,
      "ÎķÎĳ": 5711,
      "ĠÎµÎ¹ÏĥÎ¹": 5712,
      "ÏĥÎ¹Î±ÏĤ": 5713,
      "ĠQ": 5714,
      "ĠÏĢÏģÎ¿ÏĥÎŃÎ³Î³": 5715,
      "ĠÎµÎ¾Î¿ÏħÏĥÎ¯Î±": 5716,
      "ĠÎ´ÏģÎ±ÏĥÏĦÎ·ÏģÎ¹ÏĮÏĦÎ·ÏĦÎ±": 5717,
      "ĠÏģÎ·": 5718,
      "ĠÎµÎ½Î¬Î½ÏĦÎ¹Î±": 5719,
      "ĠÏĨÏīÏĦÎ¹Î¬": 5720,
      "ĠÎ»Î±Î¿Ïį": 5721,
      "ĠÏĢÎµÎ»Î¬ÏĦÎµÏĤ": 5722,
      "ĠÎ±Î¯ÏĥÎ¸Î·ÏĥÎ·": 5723,
      "ĠÎµÎ»Î±ÏĨ": 5724,
      "Î¹ÎŃÏĤ": 5725,
      "ĠÏĦÎµÏģÎ¬ÏĥÏĦÎ¹": 5726,
      "ĠÎłÎ±Î½Î±Î³Î¹Ïİ": 5727,
      "Î¤Î©ÎĿ": 5728,
      "Î¹ÎŃ": 5729,
      "ĠÎ¸ÏħÎ¼": 5730,
      "ĠÏĦÎ·Î»ÎµÏĮÏģÎ±": 5731,
      "Î¡ÎŁÎĿ": 5732,
      "07": 5733,
      "ĠÎºÎ±ÏĦÎ·Î³Î¿ÏģÎ¯ÎµÏĤ": 5734,
      "ĠÎļÏħÏģÎ¹Î±": 5735,
      "ÎĹÎĽ": 5736,
      "ĠÏĢÎ»Î±Î½Î®": 5737,
      "ĠÏĥÎµÎ¶ÏĮÎ½": 5738,
      "ĠÎµÏĩÎµÎ¹": 5739,
      "ĠÎķÎ¾ÏīÏĦÎµÏģ": 5740,
      "Î²Î¬ÏĥÏĦÎµ": 5741,
      "ĠÎ£ÏħÎ»Î»ÏĮÎ³Î¿Ïħ": 5742,
      "ĠÏĥÎ·Î¼ÎµÎ¯": 5743,
      "85": 5744,
      "99": 5745,
      "ĠÏĪÎ·ÏĨÎ¿": 5746,
      "Îª": 5747,
      "ÏĦÎ¹Î½Î®": 5748,
      "ĠÏĩÏģÏİÎ¼Î±ÏĦÎ±": 5749,
      "ĠÎ¼ÎŃÏĥÎ·": 5750,
      "Î´Î¹ÎºÏİÎ½": 5751,
      "ĠÏĥÏĦÎµÎ¯": 5752,
      "ĠÏĮÏģÎ¹Î±": 5753,
      "ĠÏĢÎ±Î¯ÏģÎ½": 5754,
      "ĠÎĿÎ±Ïħ": 5755,
      "ĠÎµÏĢÎ¹ÏĨÎ¬Î½ÎµÎ¹Î±": 5756,
      "46": 5757,
      "ress": 5758,
      "ÏĢÎ¿Ïģ": 5759,
      "ÎºÎµÎºÏģÎ¹Î¼ÎŃÎ½Î±": 5760,
      "ĠÎ±Î´Î¹Î±": 5761,
      "ĠÎ±Î½Î±ÏĨÎŃÏģ": 5762,
      "Î±Î½Îµ": 5763,
      "ĠÎµÏĢÎ±Î½Î¬": 5764,
      "Î³ÏģÎ±ÏĨÎ®ÏĤ": 5765,
      "ĠÏĥÏħÎ½ÏĦÎ¿Î½": 5766,
      "Ġ2008": 5767,
      "ĠÎ²ÏģÎ¹ÏĥÎºÏĮ": 5768,
      "ĠÎµÎ»Î»Î·Î½Î¹ÎºÎ¬": 5769,
      "ĠÎºÎ±Î¹Î½Î¿ÏįÏģÎ³": 5770,
      "ĠÎ´Î¹Î´Î±": 5771,
      "ĠÎµÎ¯Î´Î±": 5772,
      "ĠÎĶÏį": 5773,
      "ĠÎµÎ»ÏĢÎ¯": 5774,
      "ĠÎ¼Î¿Î½Î¬Î´ÎµÏĤ": 5775,
      "ĠÎ¿Î¼Î¿ÏģÏĨ": 5776,
      "ÑĢ": 5777,
      "ĠÎ±ÏĢÎ±ÏĥÏĩÎ¿Î»": 5778,
      "ĠÏĦÎ·Î»ÎµÎ¿ÏĢ": 5779,
      "ĠÎ½ÏĮÎ¼Î¿Ïħ": 5780,
      "ĠÏĢÎµÏģÎ¹Î¼ÎŃÎ½": 5781,
      "ĠÎ±ÎºÏģÎ¿": 5782,
      "ĠÎķÏĢÎ¹ÏĢÎ»ÎŃÎ¿Î½": 5783,
      "ĠÎºÎ±ÏĦÎµÏįÎ¸ÏħÎ½ÏĥÎ·": 5784,
      "ĠÎ·Î¼ÎµÏģÏİÎ½": 5785,
      "ĠÎ´Î¯ÎºÏĦÏħÎ¿": 5786,
      "ĠÎ¿Î´Î·Î³ÎµÎ¯": 5787,
      "ĠÏĥÏįÎ¶": 5788,
      "Î±Î¹Î±": 5789,
      "ÏĮÎ¼ÎµÎ½Î¿ÏĤ": 5790,
      "ĠÎºÎ±ÏĦÎ¬ÏĨÎµÏģÎµ": 5791,
      "ÎķÏĢÎ¯ÏĥÎ·ÏĤ": 5792,
      "ĠÎµÎ½ÎµÏģÎ³ÎµÎ¹Î±": 5793,
      "ÏĪÎ·ÏĨÎ¯Î±": 5794,
      "Î¸ÏģÏİ": 5795,
      "á¼°": 5796,
      "ÏİÎ½ÏīÎ½": 5797,
      "ĠÎµÎºÎ´Î·Î»ÏİÏĥÎµÎ¹ÏĤ": 5798,
      "ÏĦÎ¬Î¼Îµ": 5799,
      "ĠHotel": 5800,
      "ĠÎ±Î½ÏīÏĦÎŃÏģÏī": 5801,
      "ĠÎµÎ½Î¯ÏĥÏĩÏħÏĥÎ·": 5802,
      "ĠÏĢÎ±ÏģÎ¿ÏĩÎ®": 5803,
      "ĠÏĥÎ®": 5804,
      "ĠÎ±ÏĢÏĮÎ´Î¿ÏĥÎ·": 5805,
      "__": 5806,
      "ĠÏĦÎ·Î»ÎµÏĨÏīÎ½": 5807,
      "ÏģÎµÏĥÎµ": 5808,
      "ĠÎµÎ¾ÏħÏĢÎ·ÏģÎŃ": 5809,
      "ĠÎ¿ÏĢÎ¿Î¹Î¿Î´Î®ÏĢÎ¿ÏĦÎµ": 5810,
      "ĠÎ±ÏĢÎ±ÏĥÏĩÏĮ": 5811,
      "ĠÏħÎ¹Î¿": 5812,
      "ĠÎºÎ±Î»Î¿ÎºÎ±Î¹": 5813,
      "ĠÎĳÎ½Î¬ÏĢÏĦÏħÎ¾Î·ÏĤ": 5814,
      "ĠÏĥÏħÎ½Î¿Î´ÎµÏį": 5815,
      "04": 5816,
      "06": 5817,
      "ĠÎ²ÏģÎ¿": 5818,
      "Î¾Î±Î½Î´": 5819,
      "ĠÎ´Î¹ÎµÏħÎ¸ÏħÎ½": 5820,
      "ĠÎ¼Î±Î¸Î®Î¼Î±ÏĦÎ±": 5821,
      "ĠÎŃÏģÎ³ÏīÎ½": 5822,
      "75": 5823,
      "Î®Î³Î·": 5824,
      "ague": 5825,
      "ood": 5826,
      "Ġch": 5827,
      "ĠÎµÏĢÎ¹Î²ÎµÎ²Î±Î¹": 5828,
      "ÏĨÎµÎ¯Î±": 5829,
      "ĠÎµÏĦÎ±Î¹ÏģÎ¯Î±": 5830,
      "ĠCl": 5831,
      "ĠÎ±Î¾Î¹Î¿Î»ÏĮÎ³Î·ÏĥÎ·": 5832,
      "ÏĦÎ¯Î¿": 5833,
      "ĠÏĥÏħÎ»Î»Î¿Î³Î®": 5834,
      "Î§ÎķÎĻ": 5835,
      "ĠÎĳÏħÏĥ": 5836,
      "ĠÏĦÎ¬Î¾Î·ÏĤ": 5837,
      "ÎĻÎ©ÎĿ": 5838,
      "ĠÎ§ÏģÎ¹ÏĥÏĦÎ¿Ïį": 5839,
      "ÏĢÎ±ÏģÎ±Î³Ïī": 5840,
      "ĠÎµÏĩÎ¸": 5841,
      "ĠÎµÏĥÎµÎ¯ÏĤ": 5842,
      "ĠÎµÏħÏģÏī": 5843,
      "Î¼Î¹Î¿ÏįÏģÎ³": 5844,
      "ĠÎµÎ¹ÏĥÎ¿": 5845,
      "ĠÏĢÎ·Î³Î®": 5846,
      "ĠÏĢÎ±Î¯ÏģÎ½ÎµÎ¹": 5847,
      "ĠÎĹÏģÎ±Îº": 5848,
      "ĠÏĢÏģÏİÏĦÎ¿ÏĤ": 5849,
      "ÏħÎ¼Î¬": 5850,
      "ĠÏĦÏģÏĮÏĢÎ¿ÏħÏĤ": 5851,
      "ĠÎµÏģÎ³Î±Î¶Î¿Î¼ÎŃÎ½ÏīÎ½": 5852,
      "ult": 5853,
      "Î´Î¯ÎºÏĦÏħÎ¿": 5854,
      "ÏĦÎ¿Î½ÏĦÎ±ÏĤ": 5855,
      "Î²Î¹Î¿": 5856,
      "Î²ÏģÎ±": 5857,
      "ĠÎ¼Î¿Î½ÏĦÎŃÎ»Î¿": 5858,
      "ĠÎ¦Î±": 5859,
      "Î¤ÎķÎ£": 5860,
      "ĠÏĥÏħÎ½ÎµÏĢ": 5861,
      "ĠÏĥÏĩÎ¿Î»ÎµÎ¯Î±": 5862,
      "Î¡ÎĹÎ£": 5863,
      "ĠÎŃÎ¾Î¿": 5864,
      "ath": 5865,
      "ĠÎ´Î·Î¼Î¹Î¿ÏħÏģÎ³ÎµÎ¯": 5866,
      "ĠÎ´Î¹Î´Î±ÏĥÎºÎ±": 5867,
      "ĠÎ²Î¬ÏģÎ¿ÏħÏĤ": 5868,
      "ĠÎ§Î±Î½": 5869,
      "ĠÎ¼ÎµÏĦÎ±ÏĨÎ¿ÏģÎ¬": 5870,
      "ĠÎµÏĥÎ¬ÏĤ": 5871,
      "ĠÏĦÏģÎµ": 5872,
      "ÏĩÏĦÎ·ÎºÎµ": 5873,
      "ĠÎºÎ¿ÏģÎ¯": 5874,
      "ĠÎµÏĨÎ·Î¼ÎµÏģÎ¯Î´Î±": 5875,
      "ÏĩÏģÎ¿Î½Î·": 5876,
      "ĠÏĥÎºÎŃÏĪÎ·": 5877,
      "ĠÎķÎŀ": 5878,
      "ĠÏĦÏģÎ±Î³Î¿ÏįÎ´Î¹Î±": 5879,
      "ĠÎ½ÏĦÎ¿": 5880,
      "Ġá¼ĲÎº": 5881,
      "Î»Î¯Î´Î±ÏĤ": 5882,
      "Î¼Î¬Î´Î±": 5883,
      "ĠÏĨÏģÎŃ": 5884,
      "ĠÏĢÏģÎ¿ÎºÏįÏĢÏĦÎµÎ¹": 5885,
      "ĠÎ´ÏħÎ½Î±ÏĦÎ®": 5886,
      "ÏĦÎ¿Î½ÏĦÎ±Î¹": 5887,
      "ert": 5888,
      "ÏīÏĥÎ±Î½": 5889,
      "NEWLINE": 5890,
      "ÏīÎ¼ÎŃÎ½Î¿": 5891,
      "ĠÏĦÏģÎ±Î³Î¿ÏįÎ´Î¹": 5892,
      "ĠÎ±Î»Î·Î¸": 5893,
      "ĠÏģÎ¬": 5894,
      "Î¸ÎŃÏĥÎµÏīÎ½": 5895,
      "ÏĦÏģÎ¿ÏĤ": 5896,
      "Î½Î¿ÏħÎ¼Îµ": 5897,
      "ib": 5898,
      "ĠÎ»ÏįÏĥÎµÎ¹ÏĤ": 5899,
      "ĠÎºÎµÏģÎ´Î¯": 5900,
      "ĠÎ±ÏĢÎ±Î¹ÏĦÎ®ÏĥÎµÎ¹ÏĤ": 5901,
      "ĠÎ¹Î´ÎµÎ¿": 5902,
      "ĠÎ¶ÏīÎ½ÏĦÎ±Î½": 5903,
      "Î³ÏģÎ±ÏĨÎ¹ÎºÎ®": 5904,
      "Î¸ÎµÏħ": 5905,
      "Î¯Î±Î½": 5906,
      "ĠÎµÎ½Î½Î¿": 5907,
      "ĠÎµÏĢÎ¹ÏĥÏĦÏģÎ¿ÏĨÎ®": 5908,
      "ĠÏĢÏģÎ¿ÏĥÏĨÎŃÏģÎ¿ÏħÎ½": 5909,
      "ĠÎ§Î±Î»": 5910,
      "ĠÏĥÏĦÏħ": 5911,
      "ĠÎľÎ·Î½": 5912,
      "ÏģÎºÎ±": 5913,
      "ĠÎ£Î±Î½": 5914,
      "ĠÎķÎºÏĢÎ±Î¯Î´ÎµÏħÏĥÎ·ÏĤ": 5915,
      "ĠÏĢÎ·Î³ÎŃÏĤ": 5916,
      "ĠÏĢÎµÏģÎ¹ÏĮÎ´Î¿Ïħ": 5917,
      "ĠÎ¿Î¸ÏĮÎ½Î·": 5918,
      "Î»Î¿Î³Î¹ÎºÏİÎ½": 5919,
      "ĠÎºÏģ": 5920,
      "Î¯ÏĥÎ¸Î·": 5921,
      "Î¼ÏĢÎµÏģ": 5922,
      "ĠÎĻÎ±": 5923,
      "ÏĢÏģÎ±ÏĤ": 5924,
      "ĠÎ¼Î±ÎºÏģÎ¿": 5925,
      "Î¹ÏĥÏĦÎ¹ÎºÏĮ": 5926,
      "ĠÏĥÏĦÎµÎ»ÎŃÏĩÎ·": 5927,
      "ĠÎ¼Î±Î¸Î·ÏĦÏİÎ½": 5928,
      "ÏĦÎ®ÏĥÎµÏĦÎµ": 5929,
      "ÎķÏħ": 5930,
      "ĠÎµÏĥÏĦÎ¹Î±ÏĦÏĮ": 5931,
      "ĠÏĦÎµÏĩÎ½Î¿Î»Î¿Î³Î¯Î±": 5932,
      "ĠÎ±ÏģÎºÎµÏĦÎŃÏĤ": 5933,
      "ĠÏĨÎ¹Î»Î¿ÏĥÎ¿": 5934,
      "ĠÎ¸Î±Î½Î¬": 5935,
      "Î¼ÎµÏīÎ½": 5936,
      "ÏĢÎ¹ÏĦÎ±Î»Î¹Ïĥ": 5937,
      "Î»Î¿ÏįÎ½ÏĦÎ±Î¹": 5938,
      "ÎµÏįÎµÎ¹": 5939,
      "ÂµÎŃ": 5940,
      "ĠÎ¼ÏĮÎ½Î¿ÏĤ": 5941,
      "ÎµÏĥÏĦÎµ": 5942,
      "ÎµÏĢÎ¹": 5943,
      "ĠÎ±ÏĢÎ»Î®": 5944,
      "ÏĢÎµÎ½": 5945,
      "RO": 5946,
      "ĠÎµÎºÏĢÎ»Î·": 5947,
      "ĠÎķÎ¸Î½Î¹ÎºÎ®": 5948,
      "ĠÏĥÏħÏĥÏĦÎ®Î¼Î±ÏĦÎ±": 5949,
      "ĠÎĶÎ®Î¼Î¿ÏĤ": 5950,
      "ĠÏĢÎµÏģÎ±Î¹ÏĦÎŃÏģÏī": 5951,
      "ĠÎ¼Î¬ÏĩÎ·": 5952,
      "ĠÎ¤ÏĥÎ±": 5953,
      "Ġ500": 5954,
      "ĠÎ¼ÎµÏĦÎ±Î½Î¬": 5955,
      "ĠÎ´Î¹ÎµÎ¸Î½Î®": 5956,
      "ÏĮÏĢÎ¿ÏħÎ»Î¿ÏĤ": 5957,
      "ÏħÎ½ÎµÏĤ": 5958,
      "ĠÎ´ÎµÎºÎ¬": 5959,
      "ĠÎ³ÏģÎ±ÏĨÎµÎ¯Î¿": 5960,
      "ĠÎ¼ÏĢÎ¿ÏģÎ¿ÏįÏĥÎ±Î½": 5961,
      "ĠÎ´Î¹ÎºÎ±Î¹Î¿Ïį": 5962,
      "ĠÎºÎ±ÏĦÎ¬ÏĥÏĦÎ·Î¼Î±": 5963,
      "Î´Î®ÏĥÎµÎ¹ÏĤ": 5964,
      "Î´ÎµÏģ": 5965,
      "ĠÎºÎ¿ÏħÎ¶Î¯": 5966,
      "ĠÎ»Î¿Î³Î¹ÎºÎ®": 5967,
      "ĠÏĥÎºÎ±": 5968,
      "Î»Î»Î¹ÏİÏĤ": 5969,
      "ĠÎ´Î¬Ïĥ": 5970,
      "ĠÎ¿Ïį": 5971,
      "ĠÏĢÎµÏģÎ¹Î²Î±Î»Î»Î¿Î½": 5972,
      "ok": 5973,
      "ĠÎ»Î¬Î²ÎµÎ¹": 5974,
      "ĠÎ±ÏĥÎ¸ÎµÎ½ÎµÎ¯ÏĤ": 5975,
      "ÏģÎ¬Îº": 5976,
      "ÏīÏģÎ·": 5977,
      "ĠÎµÎ¾ÎµÎ»Î¯Î¾ÎµÎ¹ÏĤ": 5978,
      "ÏĨÏĮÏģÏīÎ½": 5979,
      "ĠÏĥÏĩÎµÎ´Î¹Î¬": 5980,
      "ĠÎ±á½ĲÏĦ": 5981,
      "ÏĦÎ¹Î½Î¿": 5982,
      "Î¯Î½ÎµÎ¹ÏĤ": 5983,
      "ĠÎ¤Î¼Î®Î¼Î±ÏĦÎ¿ÏĤ": 5984,
      "ĠÏħÏĢÎ¿ÏħÏģÎ³ÎµÎ¯Î¿": 5985,
      "ĠÏĢÏģ": 5986,
      "Î¸ÎµÎ½ÏĦÎ±Î¹": 5987,
      "ĠÏĢÎ±ÏģÎ¿ÏħÏĥÎ¯Î±ÏĥÎ·": 5988,
      "pt": 5989,
      "ĠRe": 5990,
      "ĠÏħÏĢÎ¿Î»Î¿Î³Î¹ÏĥÏĦÎ®": 5991,
      "ĠCom": 5992,
      "ĠÎ¿Î¹ÎºÎ¿Î½Î¿Î¼Î¯Î±ÏĤ": 5993,
      "Î³ÎºÎµ": 5994,
      "ĠÎķÎĽÎĽÎĹÎĿ": 5995,
      "ĠÏĢÎ±ÏģÎ¬Î³Î¿Î½ÏĦÎµÏĤ": 5996,
      "ĠÎ±ÎºÎ¿Î»Î¿Ïį": 5997,
      "ĠÎ²Î³Î¬Î»": 5998,
      "ĠÎ´Î¹Î±ÏĩÎµÎ¯ÏģÎ¹ÏĥÎ·ÏĤ": 5999,
      "ÏģÎµÎ¼Î±": 6000,
      "ĠÏĢÏĮÎ»ÎµÎ¹ÏĤ": 6001,
      "Î»ÎµÏģ": 6002,
      "ĠÏĩÏģÎ¿Î½Î¿": 6003,
      "ĠÏĢÏģÎ¿Î¿ÏĢ": 6004,
      "ĠÎ¬Î½Î´ÏģÎµÏĤ": 6005,
      "ÏģÎŃÏīÎ½": 6006,
      "ĠÎłÏģÎ¿ÏĥÏĦÎ±": 6007,
      "ĠÎ³Î½ÏīÏĥÏĦÎ®": 6008,
      "ÏĨÎ¿Î¹": 6009,
      "ĠÎ¼Î®ÎºÎ¿ÏĤ": 6010,
      "ĠÏĨÎ±Î¹": 6011,
      "ÏĬÎºÏĮ": 6012,
      "ĠÏĢÏģÏĮÏĥÏĨÎ±ÏĦÎ±": 6013,
      "ÏģÎ¬ÎºÎ·": 6014,
      "ÏİÎ´Î·": 6015,
      "ÏĮÎ½Î±": 6016,
      "ĠÎµÏĢÎ¹ÎºÏģÎ±": 6017,
      "ĠÏĢÏģÏīÏĦÎ¬Î¸Î»Î·Î¼Î±": 6018,
      "ĠÏĩÏģÎ·ÏĥÎ¹Î¼Î¿ÏĢÎ¿Î¹ÎµÎ¯ÏĦÎ±Î¹": 6019,
      "ED": 6020,
      "ÏİÏģÎ³": 6021,
      "ÏİÎ½Î¿Î½ÏĦÎ±ÏĤ": 6022,
      "ĠÎ²Î¯": 6023,
      "Ñģ": 6024,
      "ÏĦÎ¿ÏĦÎµ": 6025,
      "ĠÎµÏħÏĩÎ¬": 6026,
      "ideo": 6027,
      "ĠÎµÏĢÎ¹Î²Î±": 6028,
      "Î¸ÏİÎ½ÏĦÎ±ÏĤ": 6029,
      "ĠÎ±ÎºÏĮÎ»Î¿Ïħ": 6030,
      "ĠÎ¤ÏİÏģÎ±": 6031,
      "ĠÎ±Î½Î±ÎºÎ±": 6032,
      "ang": 6033,
      "ĠÎ»ÎµÏī": 6034,
      "ĠÎ¾ÎŃÎ½": 6035,
      "ÏģÎ¹ÎµÏĤ": 6036,
      "Ġá¼ĢÎ½": 6037,
      "ĠÎĶÎ®Î¼Î¿": 6038,
      "ĠÎľÎ®": 6039,
      "ĠÏĥÏĩÎ®Î¼Î±": 6040,
      "ĠÎŁÎ¼Î¿ÏĥÏĢÎ¿Î½": 6041,
      "ÏĨÎ¹Î»": 6042,
      "ĠÎµÎ³Î³Ïħ": 6043,
      "ĠTh": 6044,
      "ĠÎ±Î¾Î¯Î±ÏĤ": 6045,
      "Î»Î¿ÏįÏĤ": 6046,
      "ĠÏĥÏįÎ³ÏĩÏģÎ¿Î½": 6047,
      "ĠÎµÎ¾Î±ÎºÎ¿Î»Î¿Ïħ": 6048,
      "ĠÎĶÏģÎ¬": 6049,
      "Î¼ÎŃÏĦ": 6050,
      "ÏĦÏħÏĩÎ¯Î±": 6051,
      "ÏĥÏĦÎ¿ÏħÏĤ": 6052,
      "act": 6053,
      "ĠÎ±Î½Î¬Î»ÏħÏĥÎ·": 6054,
      "ĠÎµÏģÎ³Î¬": 6055,
      "ĠÎĳÎķÎļ": 6056,
      "ash": 6057,
      "ÎµÎ¹Î¬": 6058,
      "ĠÎ±ÏģÎ¼Î¿": 6059,
      "03": 6060,
      "ĠÎ±ÏĢÎµÏģÎ³": 6061,
      "Î¡ÎĳÎļ": 6062,
      "ÏģÎ¿ÏįÏĥÎµ": 6063,
      "ĠÎºÎ±Î»Î»Î¹ÏĦÎµÏĩÎ½": 6064,
      "100": 6065,
      "ĠÎ¼ÎµÎ½": 6066,
      "ÏģÎ¯Î´ÎµÏĤ": 6067,
      "Î¡ÎŁÎ¥": 6068,
      "ÏĨÎ¿ÏģÎ¯Î±": 6069,
      "ĠÎ¼ÎŃÏģÎ¿ÏħÏĤ": 6070,
      "ĠÎ¿Î´Î·Î³Î¯ÎµÏĤ": 6071,
      "ĠÏĨÏĦÎ¬ÏĥÎµÎ¹": 6072,
      "ĠÎºÎ¿Î¹Î½Î¿Ïį": 6073,
      "ich": 6074,
      "ĠÎ»Î±ÏĮ": 6075,
      "ÏĩÎ½ÎµÏĤ": 6076,
      "Î¤ÎŁÎ¥": 6077,
      "Ġ..": 6078,
      "ĠÎŃÏĢÎµ": 6079,
      "ĠÎµÎ¼ÏĨÎ±Î½Î¯Î¶ÎµÏĦÎ±Î¹": 6080,
      "ĠÎºÏģÎ¹ÏĦÎ¹ÎºÎ®": 6081,
      "ĠÎ±ÏįÏģÎ¹Î¿": 6082,
      "ĠÎ¬Î³Î½Ïī": 6083,
      "ĠÎŃÏģÏĩÎ¿Î½ÏĦÎ±Î¹": 6084,
      "ĠÎ¬Î´ÎµÎ¹": 6085,
      "ĠUn": 6086,
      "ĠÏĢÎ¿Î¹Î¿ÏĤ": 6087,
      "ĠÎ´Î¹Î±ÏĨÎ¿ÏģÎµÏĦÎ¹ÎºÎŃÏĤ": 6088,
      "EL": 6089,
      "ÎºÎ¿Î¯": 6090,
      "ĠÏĦÎµÎº": 6091,
      "âĢ¦âĢ¦": 6092,
      "ĠÎºÎ±Î»Î»Î¹ÏĦÎŃ": 6093,
      "ĠÏĦÎ¿Î¯": 6094,
      "ÏģÎ³Î±": 6095,
      "ĠÏĢÏģÎ¿ÏĥÏīÏĢÎ¹ÎºÎ®": 6096,
      "ĠÎ±Î¯ÏĦÎ·ÏĥÎ·": 6097,
      "ĠÏĥÏħÎ½ÎµÏĩÎ¯Î¶ÎµÎ¹": 6098,
      "ĠÏĥÏĢÎ¯ÏĦÎ¹Î±": 6099,
      "ÂµÏĮ": 6100,
      "ĠÎ²Î¬ÏĥÎµÎ¹": 6101,
      "Î»Î»ÎµÏħ": 6102,
      "ĠÎķÎ¡Îĵ": 6103,
      "ÏĢÎŃÏĤ": 6104,
      "ĠÎ²Î³Î¬": 6105,
      "ÏĦÎµÎºÏĦÎ¿Î½": 6106,
      "Î¸ÎµÎ¹Î±ÏĤ": 6107,
      "ĠÎºÎµÏĨÎ¬Î»Î¹": 6108,
      "Î²Î±Î¯Î½ÎµÎ¹": 6109,
      "ÎŃÏīÎ½": 6110,
      "ĠÏĢÎ¿Î»Î¹ÏĦÎ¹ÎºÏİÎ½": 6111,
      "ĠÏĢÏģÎ¿ÏĭÏĢÎ¿Î¸ÎŃÏĥÎµÎ¹ÏĤ": 6112,
      "ĠÎłÎ¿Î»Ïį": 6113,
      "ÂµÎŃÎ½": 6114,
      "ĠÎļÎ¿Î½": 6115,
      "ĠÎ´Î¹Î±ÎºÎ¿ÏĢÎŃÏĤ": 6116,
      "ÏĩÎ¿Î½ÏĦÎ±ÏĤ": 6117,
      "ĠÎ©ÏĤ": 6118,
      "Î¸ÎµÏĥÎ¹": 6119,
      "ĠÏĢÏģÎ¿Î¼Î·": 6120,
      "ĠÎĻÏĥÏģÎ±": 6121,
      "ÏģÎ¹Î½ÏĮ": 6122,
      "ÎĹÎĵ": 6123,
      "ÂµÎ¬": 6124,
      "ĠÏĢÎ»ÎµÎ¹Î¿ÏĪÎ·ÏĨÎ¯Î±": 6125,
      "ÎłÎ±ÏģÎ±": 6126,
      "ĠÎ»Î¯ÏĥÏĦÎ±": 6127,
      "ÎºÎ¬Î»": 6128,
      "ÏĥÎºÎµÎ¹": 6129,
      "co": 6130,
      "ÏİÎ¼Î±ÏĦÎ¿ÏĤ": 6131,
      "ĠÎ±ÏĦÎ¼ÏĮ": 6132,
      "ĠÎ¸ÏħÎ¼Î¬": 6133,
      "ĠÎ¹Î´ÎŃÎµÏĤ": 6134,
      "\\\\": 6135,
      "ĠÎµÎºÏĢÏģÎ¿ÏĥÏİ": 6136,
      "ĠÎ¼ÏĢÎ¿ÏģÎŃ": 6137,
      "âĢľ": 6138,
      "gle": 6139,
      "ÎºÎ»Î±": 6140,
      "ĠÏĥÏĢÎ¿ÏħÎ´": 6141,
      "ĠÎ´Î·Î¼Î¹Î¿ÏįÏģÎ³": 6142,
      "ĠÏĥÏħÎ½ÎµÏģÎ³Î±ÏĥÎ¯Î±ÏĤ": 6143,
      "ĠÎ¼Î½Î®Î¼Î·": 6144,
      "ĠÏĩÏģÎ·ÏĥÎ¹Î¼Î¿ÏĢÎ¿Î¹ÎµÎ¯": 6145,
      "ÏĥÏĦÎ±ÏĦÎ±Î¹": 6146,
      "Î¼ÏĢÎŃ": 6147,
      "ÏģÎ¹Î½Î¬": 6148,
      "ÎľÎĹ": 6149,
      "Î¡ÎĳÎ£": 6150,
      "ĠÎ±ÏĥÎºÎ®": 6151,
      "ÏĦÎµÏħÏĥÎ·ÏĤ": 6152,
      "48": 6153,
      "ĠÏĢÎŃÏģÎ±ÏĥÎµ": 6154,
      "ĠÎŁÏģÎ¸": 6155,
      "ĠÏĥÎºÏħ": 6156,
      "ĠÏĢÏģÏīÎ¸ÏħÏĢÎ¿ÏħÏģÎ³ÏĮÏĤ": 6157,
      "Î¿Î»Î¿": 6158,
      "ĠÎ¼ÎµÏĥÎ±": 6159,
      "ÏģÎ·Î½": 6160,
      "ĠÎ±Î½Ïİ": 6161,
      "ĠÏĩÏģÎµÎ¹Î±ÏĥÏĦÎµÎ¯": 6162,
      "ĠÎ´Î¹Î±ÏĢÏģÎ±Î³Î¼Î±": 6163,
      "Î¼ÎµÎ»Î·": 6164,
      "ĠÎµÏįÎºÎ¿Î»Î¿": 6165,
      "ĠÏĥÏħÏĥÎºÎµÏħÎ®": 6166,
      "ĠÎĳÎ¸Î»Î·": 6167,
      "ÏĦÏĥÎ¬": 6168,
      "ĠÎ¸ÏģÎ·ÏĥÎºÎµÏħ": 6169,
      "ÏĢÎ¿ÏįÎ½": 6170,
      "ĠÏĨÏħÎ»Î±": 6171,
      "ÏĦÏīÏĥÎ·ÏĤ": 6172,
      "ĠÎµÎ¾Î±Î¹ÏģÎµÏĦÎ¹ÎºÎ®": 6173,
      "ĠÎ£Î§": 6174,
      "ÂµÎ±ÏĦÎ±": 6175,
      "ÏĦÏĮÏĦÎ·ÏĦÎ±": 6176,
      "Î·Î±": 6177,
      "ÏģÏİÎ½ÏĦÎ±ÏĤ": 6178,
      "ĠNE": 6179,
      "mm": 6180,
      "ĠÏĩÎ±Î»Î±": 6181,
      "Î»Î¹Î¿Ïį": 6182,
      "ĠÎ¼ÎµÎ¯Î½ÎµÎ¹": 6183,
      "Î¼Î±ÏĦÎ¹ÎºÎ¬": 6184,
      "ÏĦÎ¹ÎºÎŃ": 6185,
      "ÏĨÎ¯Î¼ÏīÎ½": 6186,
      "edia": 6187,
      "ĠÎ¹ÏĥÏĦÎ¿ÏģÎ¯Î±ÏĤ": 6188,
      "ĠÎłÎĳÎŁÎļ": 6189,
      "Î³Î¹Î¿ÏĤ": 6190,
      "ÏĩÏģÎ¿Î½Î¿": 6191,
      "Î³ÏģÎ¬ÏĨÎ·": 6192,
      "ĠÏĢÎ±Î¯Î¶ÎµÎ¹": 6193,
      "ml": 6194,
      "ĠÎ±Î½Î´": 6195,
      "ĠÏĩÎ»Î¼": 6196,
      "ĠÏĢÎ±ÏģÎ±ÎºÎ±": 6197,
      "ĠÏĢÎ±Î³ÎºÎ¿Ïĥ": 6198,
      "ĠÎºÏİ": 6199,
      "ĠÏĢÎ¯Î½Î±ÎºÎ±": 6200,
      "ĠÏĨÎ¬ÏģÎ¼Î±": 6201,
      "ÏĥÎ¹Î¿Ïħ": 6202,
      "ÏĩÎ¸Î¿ÏįÎ½": 6203,
      "Î¸ÎµÏĦÎµ": 6204,
      "ĠÎĿÎ¿ÏĥÎ¿ÎºÎ¿": 6205,
      "ĠÏĥÏįÎ½ÏĦÎ¿Î¼Î±": 6206,
      "ĠÎ¿Î¹ÎºÎ¿Î½Î¿Î¼Î¹ÎºÎ®ÏĤ": 6207,
      "ĠÎµÏĦÎ¿Î¹Î¼Î¬": 6208,
      "ÏĨÎ¿ÏģÎ¹ÎºÎ¬": 6209,
      "ÎŃÏģÎ³ÎµÎ¹Î±ÏĤ": 6210,
      "ĠAp": 6211,
      "Î¼Î±ÏĤ": 6212,
      "ĠÏĥÏħÎ¼Î¼ÎµÏĦÎŃÏĩÎ¿ÏħÎ½": 6213,
      "ĠÎ¼ÎŃÎ½Î±": 6214,
      "Î½ÏĮÏĤ": 6215,
      "ĠÏĦÏħÏĩÎ±": 6216,
      "ÏĥÎºÎ¬": 6217,
      "Î³ÎµÎ¯": 6218,
      "Ġj": 6219,
      "ĠÎ½ÏįÏĩÏĦÎ±": 6220,
      "ÏĦÎ¹Î´Î±": 6221,
      "ĠÎ´Î¹Î¿Î¯ÎºÎ·ÏĥÎ·": 6222,
      "32": 6223,
      "ÎĶÎķ": 6224,
      "ĠÎĳÏģÏĩÎ¹": 6225,
      "ĠÎ´ÏħÎ½Î±ÏĦÏĮÏĦÎ·ÏĦÎµÏĤ": 6226,
      "08": 6227,
      "oy": 6228,
      "ĠÎ±Î¾Î¯Î¶ÎµÎ¹": 6229,
      "ĠÎ³ÏģÎ¬ÏĨÎµÎ¹": 6230,
      "ĠÎµÎ½ÎŃÏģÎ³ÎµÎ¹ÎµÏĤ": 6231,
      "ĠÎ¾ÎµÎ½Î¿Î´Î¿ÏĩÎµÎ¯Î±": 6232,
      "Î»ÎµÏħÎ¸ÎŃ": 6233,
      "ĠÎºÎ±ÏĦÎ±ÏĥÏĦÎ¬ÏĥÎµÎ¹ÏĤ": 6234,
      "ĠÏĢÏģÎ¿Ïİ": 6235,
      "ĠÏĥÏħÎ½ÎŃÏĢÎµÎ¹Î±": 6236,
      "ĠÏĨÎ¿Î¹ÏĦÎ·ÏĦÎŃÏĤ": 6237,
      "ĠÎĪÎ½Î±ÏĤ": 6238,
      "Î»ÏĮÎ³Î¹Î¿": 6239,
      "37": 6240,
      "ĠÎ¥ÏĢÎ¬ÏģÏĩÎ¿ÏħÎ½": 6241,
      "ÏĥÏĥÎ¿Î½ÏĦÎ±Î¹": 6242,
      "ĠÎĴÎ±ÏĥÎ¹": 6243,
      "ĠÎ½ÎµÏħ": 6244,
      "ĠÎµÎ¸ÎµÎ»Î¿Î½": 6245,
      "31": 6246,
      "ÎŁÎł": 6247,
      "ĠÎ£Î®Î¼ÎµÏģÎ±": 6248,
      "ĠÎºÎ¿Î¼Î¼Î±": 6249,
      "ÏĦÎ·ÏĦÎ¬": 6250,
      "Î´ÏĮÏĦÎ·ÏĥÎ·ÏĤ": 6251,
      "Î´Î±ÏĨÎ¿ÏĤ": 6252,
      "ĠÏĢÏģÎ¿Î²Î»Î·": 6253,
      "ĠÎºÏįÏģÎ¹Î¿": 6254,
      "ĠÎļÏİÏĥÏĦÎ±ÏĤ": 6255,
      "ĠÏĦÎ¼Î®Î¼Î±ÏĦÎ±": 6256,
      "ĠÎ±ÏĢÏĮÎ»ÏħÏĦÎ±": 6257,
      "Î¿ÏģÏĦÎ¿": 6258,
      "ĠÎĳÎº": 6259,
      "ace": 6260,
      "ĠÎ¤ÏģÎ¿": 6261,
      "ĠÏĢÎµÏĦÏį": 6262,
      "ĠÎĵÎ¹Î±Î½": 6263,
      "ÏĩÏİÏģÎ·ÏĥÎµ": 6264,
      "ĠÎĵÎ±Î»Î»Î¯Î±": 6265,
      "ĠÎºÎ¿Ïį": 6266,
      "ĠÎºÏģÎ¬ÏĦÎ·": 6267,
      "Î®Î¸Î·ÎºÎµ": 6268,
      "á½»": 6269,
      "ĠÎŃÏĢÎµÎ¹ÏĦÎ±": 6270,
      "ĠÎµÏĢÎ¹ÎºÎ¿Î¹Î½ÏīÎ½Î¯Î±": 6271,
      "ĠÏĨÏģÎ¿Ïį": 6272,
      "ĠÎ®Î¸ÎµÎ»Îµ": 6273,
      "ĠÎķÎ´Ïİ": 6274,
      "Î½Î±Îº": 6275,
      "ĠÏĦÏģÎ¹ÏİÎ½": 6276,
      "ĠÎ±ÏĢÏĮÏĨÎ±ÏĥÎ·ÏĤ": 6277,
      "Î·ÏĥÏħÏĩ": 6278,
      "ĠÎķÎ»": 6279,
      "Ġá¼ĢÏĢá½¸": 6280,
      "ĠÎºÎ»Î±Ïĥ": 6281,
      "2012": 6282,
      "ĠÎ±ÏģÏĩÎ¯ÏĥÎµÎ¹": 6283,
      "ĠÎ±Î¯Î¸Î¿ÏħÏĥÎ±": 6284,
      "Ġ''": 6285,
      "ĠÎºÎµÏģÎ´": 6286,
      "ÏįÏģÎ¿ÏĤ": 6287,
      "Î¼Î¹ÏĥÎ·ÏĤ": 6288,
      "ĠÎ±Î½ÏĦÎ¹ÏĢÏģÎ¿ÏĥÏī": 6289,
      "Ġby": 6290,
      "ĠÎ·Î¸Î¿ÏĢÎ¿Î¹": 6291,
      "ĠÎµÎ»ÎŃÎ³": 6292,
      "Î¤ÎĻÎļÎŁ": 6293,
      "ĠÎ±ÏĢÎ¿ÏĦÎµÎ»ÎµÎ¯ÏĦÎ±Î¹": 6294,
      "ĠÎ¿ÏĢÎ¿Î¯Î±ÏĤ": 6295,
      "ĠÎ¤ÏĥÎ¯ÏĢÏģÎ±ÏĤ": 6296,
      "ÏĦÏģÎ¹ÎµÏĤ": 6297,
      "39": 6298,
      "Î³ÏģÎ±ÏĨÎ¹ÎºÏĮ": 6299,
      "Ġ196": 6300,
      "ĠÎ±ÏĢÎ±Î½ÏĦÎ®ÏĥÎµÎ¹ÏĤ": 6301,
      "ÎľÎĴ": 6302,
      "500": 6303,
      "ĠÎµÎºÎº": 6304,
      "ĠÎ¼ÏĢÎ®": 6305,
      "ĠÎ¹Î´Î¹Î¿ÎºÏĦÎ·": 6306,
      "Î¼ÎŃÏģÎ¹": 6307,
      "Î¹ÏĥÏĦÎµÏį": 6308,
      "ĠÎķÏħÏģÏī": 6309,
      "ÏĦÎŃÏģÎ¿Ïħ": 6310,
      "ĠÏĢÎ¯ÎµÏĥÎ·": 6311,
      "ĠÎ»ÎŃÎ¾ÎµÎ¹ÏĤ": 6312,
      "ĠÎºÎ±ÏĦÎ±Î»Î¬Î²": 6313,
      "ĠÎłÎ¿Ïħ": 6314,
      "ĠÎµÏĨÎ±ÏģÎ¼Î¿Î³Î®ÏĤ": 6315,
      "ĠÏĢÎ±ÏĦ": 6316,
      "ÏĢÎµÎ¯Î±ÏĤ": 6317,
      "ĠÎļÏī": 6318,
      "ĠÎĳÎ»ÎµÎ¾": 6319,
      "ĠÎĿÎ¹ÎºÏĮ": 6320,
      "Î»ÎµÏħÏĥÎ·ÏĤ": 6321,
      "ĠÎŁÎĽ": 6322,
      "Î½ÏİÏĥÎµÎ¹ÏĤ": 6323,
      "ank": 6324,
      "ĠÎ»Î±ÏĮÏĤ": 6325,
      "ĠÎ´ÎµÎ»": 6326,
      "ĠÎ£ÏħÏĥ": 6327,
      "Î¸Î»Î¹": 6328,
      "ÏįÎ³Î¿Ïħ": 6329,
      "ĠÎĵÎ¹Î¬Î½Î½Î·": 6330,
      "ĠÏįÏĪÎ¿ÏħÏĤ": 6331,
      "ÏĢÏİ": 6332,
      "ĠÎ²ÎµÎ²Î±Î¹": 6333,
      "ĠÎ½ÏĮÎ¼Î¿": 6334,
      "ÏĦÏģÏİÎ½": 6335,
      "ĠÎ´Î¹Î±ÏĦÏģÎ¿ÏĨÎ®": 6336,
      "ire": 6337,
      "ĠEx": 6338,
      "Î³Î»Î¿Ïħ": 6339,
      "ĠÏĥÏĩÏĮÎ»Î¹Î±": 6340,
      "ĠÎ½Î±Î¹": 6341,
      "ĠÏĢÏģÏīÏĦÎ±Î³ÏīÎ½Î¹Ïĥ": 6342,
      "ĠÎĮÏĩÎ¹": 6343,
      "ĠÎ¡ÏīÏĥÎ¯Î±": 6344,
      "á¿ĸÏĤ": 6345,
      "ÎºÎ±Î¸Î±": 6346,
      "ĠÎ³Î½ÏīÏģÎ¯Î¶ÎµÎ¹": 6347,
      "ĠÎµÎºÎµÎ¯Î½Î¿": 6348,
      "ĠÎĻÏĦÎ±Î»Î¯Î±": 6349,
      "ĠÎ´ÏģÎ¬ÏĥÎµÎ¹ÏĤ": 6350,
      "ĠÎ±Î½Î·ÏĥÏħÏĩ": 6351,
      "ÎĳÏħÏĦÎ®": 6352,
      "ÏĦÏĥÎ±ÏĤ": 6353,
      "ÏĪÎµÏīÎ½": 6354,
      "ÎĳÎ¤ÎŁ": 6355,
      "ĠÏĦÏģÎ±ÏĢÎŃ": 6356,
      "ĠÎľÏĢÎ¿ÏģÎµÎ¯ÏĦÎµ": 6357,
      "oogle": 6358,
      "ĠÎ±Îµ": 6359,
      "Î¬ÏĥÎµÎ¹": 6360,
      "ĠÏĢÎ¿ÏĥÏĮÏĦÎ·ÏĦÎ±": 6361,
      "ĠÎ±ÏĢÎ¿Î¼Î±": 6362,
      "Î»Î·ÏĪÎ·ÏĤ": 6363,
      "ĠÏĢÎ¿ÏįÎ¼Îµ": 6364,
      "ÏīÎ¸Î¿ÏįÎ½": 6365,
      "55": 6366,
      "ĠÎ´Î¹Î±Î´ÏģÎ¿Î¼Î®": 6367,
      "Î¼Î¬Î½Î¹": 6368,
      "ĠÎ·Î³ÎŃ": 6369,
      "ĠÎ´ÏģÏĮÎ¼Î¿ÏħÏĤ": 6370,
      "ĠÎºÎ±Î»Î±": 6371,
      "ĠÏĦÎŃÏĥÏĥÎµÏģÎ±": 6372,
      "hn": 6373,
      "ĠÎĳÏĤ": 6374,
      "Î½Î¿Î¼Î®": 6375,
      "Î¤ÎĻÎļÎĹÎ£": 6376,
      "ĠÎ±ÏħÏĥÏĦÎ·": 6377,
      "ĠÏĥÎ¿Ïį": 6378,
      "ĠÏĥÎºÎ¿Ïħ": 6379,
      "ĠÏĥÏĦÎ®ÏģÎ¹Î¾Î·": 6380,
      "Î®Î³Î·ÏĥÎ·": 6381,
      "ĠÎºÏĦÎ¹": 6382,
      "ĠÎłÏģÎŃÏĢÎµÎ¹": 6383,
      "ĠÎ´Î¹Î±Î½": 6384,
      "ĠÏĥÏĢÎ¿ÏħÎ´Î±": 6385,
      "ĠÎµÏĢÎ¯ÏĥÎºÎµÏĪÎ·": 6386,
      "Î¹ÎµÏģÏī": 6387,
      "Î»ÏħÏĥÎ·": 6388,
      "ĠÏĦÏģÎ¬ÏĢÎµÎ¶ÎµÏĤ": 6389,
      "Î³ÎµÏĦÎµ": 6390,
      "ÎķÎ©ÎĿ": 6391,
      "ĠÎ´Î¿Î»Î¿ÏĨÎ¿Î½": 6392,
      "ĠÎºÎ±Î»ÏįÏĦÎµÏģÎµÏĤ": 6393,
      "ĠÏħÏĪÎ·Î»": 6394,
      "ĠÎµÎ³ÎºÎ±ÏĦÎ±ÏĥÏĦÎ¬ÏĥÎµÎ¹ÏĤ": 6395,
      "Î»ÎµÎ¹Î±ÏĤ": 6396,
      "ĠÎ¼Î¹ÎºÏģÎŃÏĤ": 6397,
      "ĠÎļÏīÎ½ÏĥÏĦÎ±Î½ÏĦÎ¯": 6398,
      "ĠÏĢÏģÏīÏĦÎ±Î¸": 6399,
      "ĠÎ·Î¼ÎŃÏģÎ±ÏĤ": 6400,
      "ĠÏĢÎ±ÏĦÎŃÏģÎ±": 6401,
      "Î¡ÎĳÎľ": 6402,
      "ĠÎºÎ±ÏĦÎ±Î»Î±Î²Î±": 6403,
      "ÏĦÏĥÎµÏĤ": 6404,
      "ÏĥÏĥÎµÎ¹": 6405,
      "Ġ<": 6406,
      "ĠÎłÏģÏİ": 6407,
      "ĠÎµÏĢÎ¹ÏĥÎ·Î¼Î±": 6408,
      "ĠÎµÎ¹Î´Î¹ÎºÎ®": 6409,
      "ĠEn": 6410,
      "ÎĺÎķ": 6411,
      "ĠÎļÎĳ": 6412,
      "ĠÎºÎ±ÏĦÏĮÏĢÎ¹Î½": 6413,
      "ĠÎµÎ¸Î½Î¹ÎºÎ®": 6414,
      "Ġ300": 6415,
      "ĠÏĦÎ±ÏĩÏįÏĦÎ·ÏĦÎ±": 6416,
      "ĠÎ²ÏģÎµÎ¸ÎµÎ¯": 6417,
      "ĠÎ¬Î»Î»ÏīÏĥÏĦÎµ": 6418,
      "Î³Î¿ÏģÎµÏį": 6419,
      "Î£ÎĹ": 6420,
      "02": 6421,
      "ÏģÎºÏī": 6422,
      "ĠÏĢÏį": 6423,
      "ĠÏĥÏħÎ³ÎºÏģÎ¿": 6424,
      "ĠÎ²Î±Î¸Î¼Î¿": 6425,
      "ĠÎ¯Î´ÏģÏħ": 6426,
      "ĠÏĥÎºÏį": 6427,
      "ink": 6428,
      "ĠÏĦÎŃÎ»Î·": 6429,
      "ĠÏĥÎ·Î¼Î±Î½ÏĦÎ¹ÎºÎŃÏĤ": 6430,
      "ĠÎºÎ±Î¼Î¹Î¬": 6431,
      "ĠÎµÎ½Î´Î¹Î±ÏĨÎµÏģÏĮ": 6432,
      "ĠÎ¿Îº": 6433,
      "IT": 6434,
      "ĠÎµÏĢÎ¯Îº": 6435,
      "ĠÏĢÏģÎ¿ÏĬÏĮÎ½ÏĦÎ¿ÏĤ": 6436,
      "ĠÎ»Î®ÏĪÎ·": 6437,
      "ĠÏĥÏħÎ½ÎŃÎ½ÏĦÎµÏħÎ¾Î·": 6438,
      "ĠÏĢÏģÎ¿ÏĦÎµÏģ": 6439,
      "ĠÎ²Î¹Ïİ": 6440,
      "ĠÎºÎ¹Î½Î·ÏĦÎ¿": 6441,
      "Ġ2007": 6442,
      "á¾¶ÏĤ": 6443,
      "ĠÏħÏĢÎ¿ÏĩÏģÎŃ": 6444,
      "ĠÎµÎ½ÏĥÏīÎ¼Î±": 6445,
      "ĠÎ±ÏĥÎº": 6446,
      "ĠÎĴÎ±Î»": 6447,
      "ĠÏĩÏīÏģÏİÎ½": 6448,
      "Î²Î¿ÏħÎ»ÎµÏħ": 6449,
      "ĠÎºÎ»Î¹Î¼Î±": 6450,
      "ĠÎŃÏĦÎ·": 6451,
      "ĠÏĩÏģÎ·ÏĥÎ¹Î¼Î¿ÏĢÎ¿Î¹Î¿ÏįÎ½": 6452,
      "ÎµÎ¹Î´Î¿": 6453,
      "ĠÎºÎ»Î·ÏģÎ¿": 6454,
      "ĠÎºÎ¿Î¹Î½ÏīÎ½Î¹ÎºÏĮ": 6455,
      "ĠÎ±Î¯Î¼Î±": 6456,
      "Î¼ÏĢÎ±Î½": 6457,
      "ĠÎ½Î¹ÎºÎ·": 6458,
      "ÎļÎĹ": 6459,
      "ÏĦÎ¬ÏĦÎ±Î¹": 6460,
      "ÏĥÎ²": 6461,
      "ĠÏĦÎ®": 6462,
      "ĠÏĦÏģÎ¯ÏĦÎ¿": 6463,
      "Î²ÎŃÏģÎ½Î·ÏĥÎ·": 6464,
      "ĠÏĥÏĢÎ¬Î½": 6465,
      "ĠÎľÎµÏĥÎ¿": 6466,
      "ĠÏĢÏģÎ¿Î·Î³Î¿ÏįÎ¼ÎµÎ½Î·": 6467,
      "Î¼Î¼ÎŃÎ½Î¿": 6468,
      "Ġá¼ĳ": 6469,
      "ÎĽÎŁÎĵ": 6470,
      "ÏĦÎŃÎ¼Î²": 6471,
      "ĠÏĥÏįÎ½Î´ÎµÏĥÎ·": 6472,
      "ÏĩÎ¿Î»Î·": 6473,
      "ĠÎºÎ±Î¸ÎŃÎ½Î±ÏĤ": 6474,
      "ĠÎ´Î·Î¼Î¹Î¿ÏħÏģÎ³Î®ÏĥÎµÎ¹": 6475,
      "ĠÎµÎ¯ÏĢÎ±": 6476,
      "ÎĶÎĻÎĳ": 6477,
      "ĠÎ±ÏĦÎ¼ÏĮÏĥÏĨÎ±Î¹": 6478,
      "ĠÎ¿Î»ÏĮÎºÎ»Î·ÏģÎ·": 6479,
      "Î»Î»ÎµÏĤ": 6480,
      "Î»Î¿Î³Î¿ÏĤ": 6481,
      "ÎĻÎŁÎ£": 6482,
      "Ġ36": 6483,
      "ĠÎĵÎµÏİÏģÎ³": 6484,
      "ĠÏĨÏīÎ½Î®": 6485,
      "Î»Î»Î±Î³Î®": 6486,
      "ĠÏĢÎ¿Î»Î»ÏİÎ½": 6487,
      "ĠÎŃÎ»Î»ÎµÎ¹ÏĪÎ·": 6488,
      "ĠÏĦÏĮÏĢÎ¿Ïħ": 6489,
      "ÏĢÎ¿Î¹Î¿ÏįÎ½": 6490,
      "ĠÎ½Î¿Î¼Î¯Î¶Ïī": 6491,
      "Ð¾Ð": 6492,
      "Î³ÏĮÎ½": 6493,
      "ÎĻÎ£Î¤": 6494,
      "ĠÎ¿Î»Î¿ÎºÎ»Î®ÏģÏīÏĥÎ·": 6495,
      "ÏģÎ¯Î¶Î¿Î½ÏĦÎ±ÏĤ": 6496,
      "ĠÎķÏį": 6497,
      "ĠÎ£ÏħÎ½Î¿": 6498,
      "ĠÎºÎ¿Î¼Î¼Î¬ÏĦÎ¹Î±": 6499,
      "ĠÏīÏģÎ±Î¯Î±": 6500,
      "Î¸Î±Î»": 6501,
      "ÏĥÏĦÏģÎ¿": 6502,
      "ĠÎ¤ÎµÏĩÎ½Î¿": 6503,
      "ĠÎ±ÏĢÎ¿ÏĨÎ¬ÏĥÎ¹ÏĥÎµ": 6504,
      "ĠÎ±Î½Î·": 6505,
      "ÏĥÏĦÎ¯Î±": 6506,
      "----": 6507,
      "ĠÎ¤ÏĥÎ¹": 6508,
      "ĠÎºÎ±Î½ÏĮÎ½ÎµÏĤ": 6509,
      "ĠÎ³ÏģÎ±Î¼Î¼ÎŃÏĤ": 6510,
      "ÏĦÎ¿Î½ÏĦÎ¬": 6511,
      "ÏĥÎµÎ½": 6512,
      "ĠÎķÎºÎºÎ»Î·ÏĥÎ¯Î±": 6513,
      "ĠÏĨÏħÏĥÎ¹ÎºÎ®": 6514,
      "Î¼ÏĢÎ¯": 6515,
      "ÏĨÏħÎ³Îµ": 6516,
      "ĠÎºÎ±ÏĦÎ±Î½Î¬Î»ÏīÏĥÎ·": 6517,
      "Î»Î¿Î¯": 6518,
      "ĠÎłÎµÏģ": 6519,
      "ÎľÎŁÎ¥": 6520,
      "ÎĵÎļ": 6521,
      "ĠÎ±ÏĦÏĮÎ¼ÏīÎ½": 6522,
      "ĠÎ±Î½Î±ÏĨÎŃÏģÎ¿Î½ÏĦÎ±Î¹": 6523,
      "ĠÏħÏĢÎµÏģÎ²Î¿Î»": 6524,
      "Î³Î±Î¹": 6525,
      "ĠÏĢÎ¿á½º": 6526,
      "ÏĢÎµÏģÎ¬": 6527,
      "ÎŃÏģÎ¼Î±Î½": 6528,
      "ĠÎ´Î¹Î±ÏĨÎ·": 6529,
      "ĠÎ£ÏħÎ³": 6530,
      "Î¸ÏįÎ½ÎµÏĦÎ±Î¹": 6531,
      "ĠÏħÏĢÎ±Î»Î»Î®": 6532,
      "ĠÏĦÎ¿ÏĢÎ¿Î¸ÎµÏĥÎ¯Î±": 6533,
      "ĠÏįÏĥÏĦÎµÏģÎ±": 6534,
      "ĠÎ´Î¹Î±Î¼Î±Ïģ": 6535,
      "ĠÎ¤ÏįÏĢÎ¿Ïħ": 6536,
      "Î´ÏīÏĥÎ±Î½": 6537,
      "ĠÏĢÎ±ÏģÎ¿ÏįÏĥÎ±": 6538,
      "ĠÎ¤ÏĥÎ¯ÏĢÏģÎ±": 6539,
      "ĠÎŃÎ´Î±ÏĨÎ¿ÏĤ": 6540,
      "Ġ38": 6541,
      "ĠÏĦÎ±Ïħ": 6542,
      "Î±ÏĨÎ½": 6543,
      "Î¹ÏĥÏĦÎ¿ÏįÎ½": 6544,
      "ĠÏĢÎ±Î¹Î´Î¹Î¿Ïį": 6545,
      "ĠÎ±ÏĢÏĮÏĪÎµÎ¹ÏĤ": 6546,
      "ĠÏĢÎ±ÎºÎŃ": 6547,
      "ÎŃÎº": 6548,
      "34": 6549,
      "ĠÎľÎŃÏĥÎ±": 6550,
      "ĠÎ£Î±Î¼Î±": 6551,
      "ÏīÏģÎ¿": 6552,
      "ĠÎ£Î¤ÎĹÎĿ": 6553,
      "ĠÎ²Î±Î¸Î¼Î¿ÏįÏĤ": 6554,
      "ĠÏĨÎ¯Î»Î¿Î¹": 6555,
      "ĠÎ±ÏĢÎ¿Î¶Î·": 6556,
      "ĠÎłÏİÏĤ": 6557,
      "ĠÏĢÏīÎ»Î®": 6558,
      "Î¼Î¼Î¿ÏħÎ½": 6559,
      "ĠÎ±Î»Î»Î¹ÏİÏĤ": 6560,
      "Î¸Î®ÏĥÎµÎ¹ÏĤ": 6561,
      "ĠÎ³Î¿": 6562,
      "ĠÏĢÎ»Î·ÏģÎ¿": 6563,
      "Î¸ÏħÎ¼": 6564,
      "ĠÎĶÎ¿": 6565,
      "ĠÎ´ÏģÎ¬ÏĥÎ·ÏĤ": 6566,
      "ĠÎ±Î½ÏĦÎ¹ÎºÎ±ÏĦÎ±": 6567,
      "ÏĮÏĦÎ·ÏĦÎ¬": 6568,
      "ĠÏĢÎµÎ»Î±": 6569,
      "ÏĦÎ¯ÏĥÎµÎ¹": 6570,
      "ÏģÎ¯Î½Î±": 6571,
      "ĠÏĮÏģÎ¿": 6572,
      "ĠÎĵÎ¿Ïħ": 6573,
      "ĠÎ¼Î±Î»Î»Î¹Î¬": 6574,
      "Î¾Î±Î¼Îµ": 6575,
      "ÏģÎ¹Î¼": 6576,
      "Î¹ÏĥÏĦÎŃÏĤ": 6577,
      "**": 6578,
      "ÏīÏģÎ¯": 6579,
      "ĠÎľÎ¿ÏħÏĥÎµÎ¯Î¿": 6580,
      "ĠÎºÏģÎŃ": 6581,
      "ĠÎµÎ½Î´Î¿": 6582,
      "ĠÎ±ÏģÏĩÎ¯Î¶ÎµÎ¹": 6583,
      "ĠÎºÎ±Î¸ÎµÏĥÏĦÏİÏĤ": 6584,
      "ĠÎ²Î»ÎŃÏĢÎ¿ÏħÎ¼Îµ": 6585,
      "ĠÎłÎµÎ¹ÏģÎ±Î¹Î¬": 6586,
      "ÏģÏĦÎµÏĤ": 6587,
      "ĠÏĩÏģÏī": 6588,
      "ÏĥÏĦÎ¹ÎºÎŃÏĤ": 6589,
      "ĠÎ´ÏįÏĥÎºÎ¿Î»Î·": 6590,
      "ĠÎ±ÏĢÎ»ÏĮ": 6591,
      "ĠÎĽÎµÎ¹ÏĦÎ¿ÏħÏģÎ³": 6592,
      "ĠÏĢÏĮÏĦÎµ": 6593,
      "Î¸ÏħÎ½ÏĥÎ·ÏĤ": 6594,
      "CO": 6595,
      "ĠÎ³ÏħÎ¼Î½Î±": 6596,
      "ĠÎļÏģÎ¬": 6597,
      "Î£Î®Î¼ÎµÏģÎ±": 6598,
      "ics": 6599,
      "Î´Î¿Î¹": 6600,
      "ĠÏĩÎµÎ¹ÏģÎ¿ÏħÏģÎ³": 6601,
      "ĠÎ»ÎµÏĢÏĦÏĮ": 6602,
      "ÏĢÎ®ÏĤ": 6603,
      "ÏĩÎ¯Î±": 6604,
      "ĠÎµÏĢÎ¹Î´Î¹Ïİ": 6605,
      "ÎºÏģÏħ": 6606,
      "ÏĨÏįÎ»Î±": 6607,
      "ĠÎµÎ¾ÏĮ": 6608,
      "ĠÏĢÎ¹ÎŃ": 6609,
      "ĠÎĶÎ±": 6610,
      "uper": 6611,
      "ith": 6612,
      "Î²Î»Î®": 6613,
      "ĠÎ¹Î½": 6614,
      "ĠÎ·Î»ÎµÎºÏĦÏģÎ¿": 6615,
      "ĠÏħÏĢÏĮÎ»Î¿Î¹ÏĢÎ±": 6616,
      "Î»Î»Î·Î½Î¿": 6617,
      "ĠÎ´ÎµÎºÎ±ÎµÏĦÎ¯Î±": 6618,
      "ĠÏĥÎµÎ¾Î¿ÏħÎ±": 6619,
      "Î¬Î½Î¹Î±": 6620,
      "ĠÎµÎ³Ïĩ": 6621,
      "Î³ÏģÎ±Î¼Î¼Î¬ÏĦÏīÎ½": 6622,
      "ĠÏĦÎŃÏĩÎ½Î·": 6623,
      "ĠÎĳÎ³ÏģÎ¿": 6624,
      "ĠÎ´Î¹ÎºÎ±Î¹ÏīÎ¼Î¬ÏĦÏīÎ½": 6625,
      "].": 6626,
      "ĠÎ´ÏīÎ¼Î¬ÏĦÎ¹Î±": 6627,
      "ĠÎ²Î¿Ïį": 6628,
      "Ġsp": 6629,
      "ĠÏĥÏħÎ¼ÏĢÎ»Î®": 6630,
      "Î½Î®ÏĤ": 6631,
      "ĠÎ´Î¹Î±ÏĩÎµÎ¹ÏģÎ¹Ïĥ": 6632,
      "ÏĦÎ·ÏģÎ·": 6633,
      "ÏģÏİÏĥÎ¿ÏħÎ½": 6634,
      "ĠÏĢÏĮÎ»ÎµÎ¼Î¿": 6635,
      "Î³Î¿Î¯": 6636,
      "ÏĨÎµÏģÎµÎ¹": 6637,
      "ĠÏįÏĢÎ±ÏģÎ¾Î·": 6638,
      "ĠÎ»ÎµÏĤ": 6639,
      "ĠÎºÎ¬Î½Î¿Î½ÏĦÎ±ÏĤ": 6640,
      "ĠÎłÎ±ÏĢÎ±Î½": 6641,
      "ĠÎĽÎ¿Î½": 6642,
      "ĠÏĩÎ±Î¼Î·Î»": 6643,
      "ĠÎµÎ¾ÎµÎ¹Î´Î¹ÎºÎµÏħ": 6644,
      "Î¹ÏĥÎ¼Î±": 6645,
      "ĠÎĶÎ·Î¼Î¿ÏĦÎ¹ÎºÎ¿Ïį": 6646,
      "ĠÎ½ÎŃÎ¿ÏĤ": 6647,
      "ÎºÏĦÎ¹ÎºÎŃÏĤ": 6648,
      "Î»Î±Î²Î±Î½": 6649,
      "ĠÎ±Î½ÎµÏģÎ³": 6650,
      "ĠÎºÎ»Î¹Îº": 6651,
      "ĠÏħÏĪÎ·Î»Î®": 6652,
      "Î¯ÏĥÎ¼Î±ÏĦÎ±": 6653,
      "ĠÏĥÎºÎ¿Ïģ": 6654,
      "ign": 6655,
      "ĠÏħÏĢÎ¿ÏĩÏģÎµÏİÏĥÎµÎ¹ÏĤ": 6656,
      "ĠÎĳÏĥÏĨÎ¬Î»": 6657,
      "ĠÎ´Î¹Î±ÏĨÎ¿ÏģÎµÏĦÎ¹ÎºÏĮ": 6658,
      "ĠÎ´ÎµÎ¾Î¹Î¬": 6659,
      "ĠÎłÎ±Î»Î±Î¹": 6660,
      "ĠÎ±Î½Î±ÏĢÏĦÏħ": 6661,
      "ĠÏĦÎµÎ»Î¹ÎºÎ®": 6662,
      "Î¶ÎµÏĦÎµ": 6663,
      "ish": 6664,
      "ĠÏĥÏĦÏĮÏĩÎ¿ÏħÏĤ": 6665,
      "ĠÎµÎ¼ÏĢÎ¹ÏĥÏĦÎ¿": 6666,
      "ĠÎ²Î¬Î¸Î¿ÏĤ": 6667,
      "ĠÏĥÏħÎ»Î»": 6668,
      "ĠÎµÏĢÎ¬Î½Ïī": 6669,
      "ĠÎ»ÎµÎ¯": 6670,
      "ĠÎ¼ÎµÏĥÎ·Î¼ÎŃÏģÎ¹": 6671,
      "ÏĩÎ½ÎµÎ¹": 6672,
      "ĠÎ¡ÏĮ": 6673,
      "mail": 6674,
      "ÏģÎ®Î¼Î±ÏĦÎ±": 6675,
      "ĠÏĥÏħÎ¼Î²Î¿Î»": 6676,
      "ĠÏĥÏĦÎ¬Î´Î¹Î¿": 6677,
      "ĠÏĢÎ±ÏģÎŃÎ±": 6678,
      "ĠÎ¤Î¯": 6679,
      "ĠÎ¾ÎŃÏģÎµÎ¹": 6680,
      "ĠÏĢÎ¿Î¯": 6681,
      "ĠÎ¤ÎŃÎ»Î¿ÏĤ": 6682,
      "ÏĥÎ¼Î¿": 6683,
      "ÎŁÎ¥ÎĽ": 6684,
      "ĠÎ¯Î´Î¹Î¿Î¹": 6685,
      "ĠÎµÎ¾Î±Î¹ÏĦÎ¯Î±ÏĤ": 6686,
      "ĠÏĢÎ¹ÏĥÏĦÎµÏįÏī": 6687,
      "ÏĦÏİÎ¼Î±ÏĦÎ±": 6688,
      "ĠÎºÎ»Î·": 6689,
      "ĠÏĢÎ»Î±ÏĦÎµÎ¯Î±": 6690,
      "Î¼Î·ÏĦ": 6691,
      "ÏģÎ®ÏĥÎ¿ÏħÎ½": 6692,
      "ÏĥÏĦÎ¹ÏĦÎ¿Ïį": 6693,
      "ĠÏĥÏħÎ³ÎºÏģÏĮ": 6694,
      "ÏĦÎ¶Î·": 6695,
      "ĠÏĢÎ¹ÏĥÏĦÎ¿ÏĢÎ¿Î¹Î·": 6696,
      "ĠÎ¼ÎµÎ¸ÏĮ": 6697,
      "ĠÎ±Î½ÏĦÎ¯ÏĢÎ±": 6698,
      "Î¯ÏĦÎ·": 6699,
      "ĠÎµÏĢÎŃÎº": 6700,
      "ĠÎķÎ¡": 6701,
      "ĠÎ¹ÎºÎ±Î½ÏĮÏĦÎ·ÏĦÎ±": 6702,
      "ĠÎĻÎ±ÏĦÏģ": 6703,
      "ĠÎ³Î±Î»Î»": 6704,
      "ÏĪÏĦÎµ": 6705,
      "ĠÎµÏģÎ³Î±ÏĥÎ¹ÏİÎ½": 6706,
      "ĠÎµÏĢÎ¹Î¸ÏħÎ¼ÎµÎ¯": 6707,
      "ĠÎºÎ±ÏĢÎ¹ÏĦÎ±Î»Î¹Ïĥ": 6708,
      "ĠÎ¸ÎµÏģÎ¼Î¿ÎºÏģÎ±ÏĥÎ¯Î±": 6709,
      "ĠPh": 6710,
      "ĠÎ¬Î»": 6711,
      "Î¬Î½Î¿Î½ÏĦÎ±ÏĤ": 6712,
      "ĠÎ´Î¹Î±ÏĨÎ¿ÏģÎµÏĦÎ¹ÎºÎ®": 6713,
      "ĠÎ¼ÏĢÏĮ": 6714,
      "ĠÎ³ÏģÎ±ÏĨÎµÎ¯Î±": 6715,
      "ĠÎ¸ÎµÎ±": 6716,
      "ĠÎ»Î±Î¼ÏĢ": 6717,
      "Î³Î±Î¼Îµ": 6718,
      "ÏħÏĥÏĦÏħÏĩÏİÏĤ": 6719,
      "Î¶Î®ÏĦÎ·ÏĥÎ·ÏĤ": 6720,
      "ÏĩÎ®Î¼Î±ÏĦÎ±": 6721,
      "ĠÎĳÎĺ": 6722,
      "ÏģÎ·ÏĥÎ±Î½": 6723,
      "ĠÎ²Î±Î¸Î¹Î¬": 6724,
      "ĠÏĢÏģÎ¿ÏĥÏĢÎ¬Î¸ÎµÎ¹ÎµÏĤ": 6725,
      "ĠÎľÏĢÎ¿Ïħ": 6726,
      "Ġ32": 6727,
      "ĠÎ¸ÎµÎ±ÏĦÏģ": 6728,
      "ĠÎµÏĢÎ¹ÏĦÏģÎŃÏĢÎµÏĦÎ±Î¹": 6729,
      "ĠÎµÏħÎ±": 6730,
      "ĠÏĥÏħÎ¼Î²ÎµÎ¯": 6731,
      "ĠÏĢÎ±Î³ÎºÏĮÏĥÎ¼Î¹Î±": 6732,
      "ĠÏĩÎ¹Î»Î¹": 6733,
      "ÏĥÎ¼Î¿ÏįÏĤ": 6734,
      "ĠÎ²Î¹Î²Î»Î¯Î¿Ïħ": 6735,
      "old": 6736,
      "ĠÏĦÎ¿Î¼ÎµÎ¯ÏĤ": 6737,
      "Î¯Î¿Î¹": 6738,
      "Î»ÎµÏĦÎ±Î¹": 6739,
      "ĠÏĢÏģÎ¿Î´Î¹Î±": 6740,
      "ĠÎ£ÎµÏĢÏĦÎŃÎ¼Î²": 6741,
      "ÏĦÎ¯Î¸ÎµÎ½ÏĦÎ±Î¹": 6742,
      "ĠÎķÏĥÏīÏĦÎµÏģ": 6743,
      "ĠÎķÎºÏĢÎ±Î¹Î´ÎµÏħ": 6744,
      "ÏģÎ±ÏĥÎ¹": 6745,
      "Î¬Î¸Î±": 6746,
      "ÏĨÏĦÎ¬": 6747,
      "ĠÎµÎºÎ¼ÎµÏĦÎ±": 6748,
      "Î®ÏĥÎµÎ¹ÏĤ": 6749,
      "ĠÎľÎľÎķ": 6750,
      "ĠÎ¤ÎµÏĩÎ½": 6751,
      "ĠÎ´Î¿ÏħÎ»ÎµÏį": 6752,
      "ton": 6753,
      "Î¼Î¿Î½Î®ÏĤ": 6754,
      "Ġá½ħÏĦÎ¹": 6755,
      "ĠÎ´Î¹Î±Î´Î¹ÎºÎ±ÏĥÎ¯Î±ÏĤ": 6756,
      "Î£Î·": 6757,
      "ĠÎ¤Î¿ÏĢ": 6758,
      "ĠÏĩÏģÎ®ÏĥÏĦÎ·": 6759,
      "ĠÎ£ÏĦÎ¬": 6760,
      "ĠÎ²Î¿Î»": 6761,
      "ĠÎºÎ¬Î»ÏħÏĪÎ·": 6762,
      "ÏĮÎ·": 6763,
      "ÎµÎ¿": 6764,
      "ĠÎĶÎ¹ÎµÏħÎ¸ÏħÎ½": 6765,
      "ĠÏĥÎ¹Î³Î¬": 6766,
      "ĠÎŃÏģÎµÏħÎ½Î±ÏĤ": 6767,
      "ĠÎµÎ¾ÎµÏĦÎ¬ÏĥÎµÎ¹ÏĤ": 6768,
      "ĠÏĥÏħÎ½Î®": 6769,
      "ÏģÎ¯Î²": 6770,
      "ĠÎłÎ±ÏģÎ¬Î»Î»Î·Î»Î±": 6771,
      "ĠÏĢÏģÎ±Î³Î¼Î±ÏĦÎ¹ÎºÎ®": 6772,
      "ĠÎºÎ±ÏĦÎ±ÏĥÏĦÎ®Î¼Î±ÏĦÎ±": 6773,
      "Î¼Î±ÏĥÏĦÎ±Î½": 6774,
      "Î¸Î¹Î±": 6775,
      "2011": 6776,
      "Î¼Î±ÏĦÎ¹ÎºÏĮ": 6777,
      "ĠÎºÏħÏģÎ¹Î±ÏģÏĩ": 6778,
      "îģ": 6779,
      "ĠÏĥÎºÎ·Î½Î®": 6780,
      "ĠÎĻÏīÎ±Î½": 6781,
      "ĠÎ±ÏĢÎ¿Ïħ": 6782,
      "49": 6783,
      "ĠÎµÏģÎ¼Î·": 6784,
      "ÏģÎ³Î¿": 6785,
      "ĠâĢĻ": 6786,
      "Î´Î¯Î´ÎµÎ¹": 6787,
      "ĠÎļÎĳÎĽ": 6788,
      "ĠÎ¼Î±ÏģÏĦÏħ": 6789,
      "ÏģÎ¯ÏĥÎ¼Î±ÏĦÎ±": 6790,
      "ÏĨÏĮÏģ": 6791,
      "ÏĦÎ®ÏĥÏī": 6792,
      "ĠÎµÏģÏİÏĦÎ·Î¼Î±": 6793,
      "ork": 6794,
      "ĠÎºÎ±Î½ÎŃ": 6795,
      "Î¼Î²Î¿ÏħÎ»Î¿ÏĤ": 6796,
      "ĠÎºÎ±ÏĦÎ±ÏĥÎºÎµÏħÎ®ÏĤ": 6797,
      "Î»Î¿Î³Î¹ÎºÎ¿Ïį": 6798,
      "ĠÏĢÎ¬Î½Îµ": 6799,
      "ĠÎŃÏģÏī": 6800,
      "ÏĥÏĩÎ·Î¼Î±": 6801,
      "Î±Î»Î¹Ïĥ": 6802,
      "ĠÏĢÏĮÏģÏĦÎ±": 6803,
      "ÏĦÎ»": 6804,
      "ĠÎºÎ±ÏĦÎ±Ïģ": 6805,
      "ĠÎ¹ÏĥÏĦÎ¿ÏģÎ¹ÎºÏĮ": 6806,
      "ĠÎºÎ¬ÏĦÎ¿Î¹Îº": 6807,
      "Î¸ÎµÏĥÎ®": 6808,
      "ÏĢÏĮÏĤ": 6809,
      "ĠÏĢÎ¿Î»ÏįÏĦÎ¹": 6810,
      "ĠÏĥÏħÎ½Î±Ïģ": 6811,
      "ĠÎ±ÏĨÎµ": 6812,
      "Ġonline": 6813,
      "ÏĨÎµÎ»": 6814,
      "ÏģÎ¹ÏĥÏĦÎµÎ¯": 6815,
      "ĠÎ¿Î¼ÏĮ": 6816,
      "ĠÎºÎ»Î¹Î½": 6817,
      "ĠÎ±Î´Î¹Î¬": 6818,
      "ĠÏĨÎ¸": 6819,
      "ĠÎµá¼°ÏĤ": 6820,
      "ÏĩÎ·ÏĤ": 6821,
      "Î¾Î¹Î¿Ïį": 6822,
      "ĠÎ¼ÎµÏĦÎ±Ïģ": 6823,
      "ug": 6824,
      "ĠÎµÏħÎ±Î¹ÏĥÎ¸Î·": 6825,
      "ĠÎĳÎ¼ÎµÏģÎ¹ÎºÎ±Î½": 6826,
      "ĠÎľÎĹ": 6827,
      "ĠÂ·": 6828,
      "ĠÎ³Î½ÏīÏģÎ¯Î¶Î¿ÏħÎ½": 6829,
      "ĠÏĢÏģÎ¿ÏĥÏĨÏħ": 6830,
      "ÏĦÎŃÎ±": 6831,
      "ĠÎ»ÎŃÏī": 6832,
      "Î¿Î´Î¿ÏĤ": 6833,
      "á¿¦Î½": 6834,
      "ÏĦÎ¬ÎºÎ¹Î±": 6835,
      "Î¼ÎŃÏģÎ±": 6836,
      "ĠÏĥÏħÎ½Î±Ïħ": 6837,
      "ĠÎĳÎ½ÏĦÏİÎ½": 6838,
      "ĠÎ±ÏĢÏĮÎ»ÏħÏĦÎ·": 6839,
      "ple": 6840,
      "ĠÎ£ÏĦÎ¿Î½": 6841,
      "Î¼Î¼Îµ": 6842,
      "ÏĥÏĦÏĮÏĤ": 6843,
      "ĠÎ¤Î¿ÏħÏģÎºÎ¯Î±ÏĤ": 6844,
      "ĠÏħÏĨ": 6845,
      "ĠÎ¿Î¹ÎºÎ¿Î³ÎŃÎ½ÎµÎ¹Î±ÏĤ": 6846,
      "ĠÏĢÎ¿Î¹ÎºÎ¹Î»Î¯Î±": 6847,
      "ĠÏĥÏĩÎµÎ´Î¹Î±ÏĥÎ¼ÏĮ": 6848,
      "ĠÏĢÏģÎ¿ÎºÎ¬": 6849,
      "Î´ÏģÏĮÎ¼Î¹Î¿": 6850,
      "ĠÎºÎ¹Î½Î®ÏĥÎµÎ¹ÏĤ": 6851,
      "ĠÎ®ÏģÏī": 6852,
      "Î¹ÏĥÎ¼ÏİÎ½": 6853,
      "Î´Î¹ÏĮ": 6854,
      "ĠÎµÏĢÎ¹ÎºÏģÎ¬": 6855,
      "ĠÎ³ÎµÏįÏĥÎ·": 6856,
      "ĠÎ³Îº": 6857,
      "ÏĥÎ¹ÏĤ": 6858,
      "ÏħÏģÏĮ": 6859,
      "ÏĢÏĮÎ¸ÎµÏĥÎ·": 6860,
      "Î²Î¬Î»Î»Î¿ÏħÎ½": 6861,
      "ĠÎµÎ¾Î·Î³": 6862,
      "ĠÏĩÏħ": 6863,
      "ĠÎ¿Î¾": 6864,
      "ÎºÎµÏģ": 6865,
      "ear": 6866,
      "ĠÎ²Î±ÏĥÎ¹": 6867,
      "ĠÎµÎºÎ´Î·Î»Ïİ": 6868,
      "ÎºÎ±ÏĦÎ¬ÏĥÏĦÎ±ÏĥÎ·ÏĤ": 6869,
      "ĠÏĥÏħÎ½Î¿Î¼Î¹": 6870,
      "ĠÎĿÎ¬": 6871,
      "88": 6872,
      "ĠÏĢÎ¿Î´Î¿ÏĥÏĨÎ±Î¹ÏģÎ¹Ïĥ": 6873,
      "ĠÎ³Î¹Î¬": 6874,
      "ĠÎ¼ÎµÏĦÎ±Î½Î±": 6875,
      "ĠÎºÎ¬Î¼Îµ": 6876,
      "ÎºÎ½": 6877,
      "ÎºÎ¿ÏĢÎ®": 6878,
      "ĠÎºÎ±Î¼ÏĢ": 6879,
      "ÏİÎ¸Î·ÎºÎ±Î½": 6880,
      "ĠÎ¼ÎµÎ³ÎŃ": 6881,
      "ĠÎ±ÏĢÎ±ÏģÎ±Î¯ÏĦÎ·ÏĦÎ±": 6882,
      "ĠÎĵÎķÎĿ": 6883,
      "AM": 6884,
      "ĠÎ±Î½Î¿Î¹Îº": 6885,
      "ĠÎ»ÎµÏĢÏĦÎ¿Î¼ÎŃÏģÎµÎ¹ÎµÏĤ": 6886,
      "roup": 6887,
      "2010": 6888,
      "ĠÏĥÏħÎ¼ÏĢÎµÏģÎ¹Î»Î±Î¼Î²Î±Î½Î¿": 6889,
      "ĠÎ¶ÏİÎ±": 6890,
      "ÎĪÏĦÏĥÎ¹": 6891,
      "ĠÎ¸ÎµÏģÎ±ÏĢÎµÏħ": 6892,
      "ÎŃÎ¶": 6893,
      "ĠÎķÎłÎĻ": 6894,
      "Î½Î·ÏĥÎ·ÏĤ": 6895,
      "ĠÎµÏĢÎ¹ÏĥÏĦÎ¿Î»Î®": 6896,
      "ĠÎĳÏĥÏĨÎ±": 6897,
      "ĠÎ½Î¿Î¼Î¹": 6898,
      "ÏĦÏĮÎ½": 6899,
      "ÎĻÎļÎŁÎ¥": 6900,
      "ĠÎµÏįÎºÎ¿Î»Î·": 6901,
      "ĠÎ±ÏĨÎ±Î¹": 6902,
      "ĠÏħÎ´ÏģÎ¿": 6903,
      "ĠÏĢÎµÏģÎ¹Î²Î¬Î»Î»Î¿Î½ÏĦÎ¿ÏĤ": 6904,
      "ĠÏģÎ¿Ïħ": 6905,
      "Î½Î¿Î¹Îº": 6906,
      "ĠÎ´ÏħÏĥÏĦÏħÏĩÏİÏĤ": 6907,
      "Î£Î¤": 6908,
      "ĠÎ¤ÎµÎ»": 6909,
      "ÏģÎ¯ÏĥÎ¿ÏħÎ½": 6910,
      "ĠÏĥÏĦÎ±Î´Î¹Î±": 6911,
      "ron": 6912,
      "ĠÎ¼ÎµÏĦÎ±Î»Î»": 6913,
      "ĠÎ²Î¿ÏħÎ½": 6914,
      "ĠÎµÎ²Î´Î¿Î¼Î¬Î´ÎµÏĤ": 6915,
      "per": 6916,
      "ĠÎĶÎ·Î¼Î¿ÏĦÎ¹ÎºÏĮ": 6917,
      "ĠÎłÎ±Ïį": 6918,
      "ĠÎ¦Î¯": 6919,
      "ĠÏĦÎµÏĩÎ½Î¹ÎºÎ®": 6920,
      "ĠÏĦÎ·Î»ÎµÏĮÏģÎ±ÏĥÎ·": 6921,
      "ina": 6922,
      "ĠÎ³Î®ÏĢÎµÎ´Î¿": 6923,
      "ĠÎ¿Î¼Î¬Î´ÏīÎ½": 6924,
      "ĠÎ´Î¹Î±ÏĢÎ¹ÏĥÏĦÏİ": 6925,
      "ÏĢÎ¯Î±": 6926,
      "Î³Î³Ïħ": 6927,
      "ĠÎ±ÏĥÏĨÎ¬Î»ÎµÎ¹Î±ÏĤ": 6928,
      "ĠÎ±ÏĢÎµÏħÎ¸ÎµÎ¯Î±ÏĤ": 6929,
      "Î½Î¹Î¬": 6930,
      "Î´ÏħÏĥÎ·": 6931,
      "ÏįÎº": 6932,
      "ĠÎºÎ±Î»Î»Î¹ÎµÏģÎ³": 6933,
      "ĠÎ¼Î½Î·Î¼Î¿Î½": 6934,
      "ĠÎľÎ¿Î½Î¬": 6935,
      "ey": 6936,
      "ĠÎ¤ÏĮÏĦÎµ": 6937,
      "ĠÏĮÎ½": 6938,
      "Î¤Î¿Î½": 6939,
      "ĠÎŃÎ»Î±Î²Îµ": 6940,
      "Ġal": 6941,
      "Î¸Î±Î¹": 6942,
      "Î¼Î¿Î¹Î±": 6943,
      "ĠÎºÎ¿ÏģÏħÏĨÎ®": 6944,
      "ĠÏĥÎ¿Î²Î±ÏģÎ¬": 6945,
      "ah": 6946,
      "ĠÎ¼ÎµÎ»Î»Î¿Î½": 6947,
      "ĠÎĳÎ½ÏĦÎ¯": 6948,
      "Î¤ÎĻÎļÎĳ": 6949,
      "Î²Î¬Î»ÎµÎ¹": 6950,
      "ĠÎµÏģÏĩ": 6951,
      "ĠÎļÏģÎ®ÏĦÎ·": 6952,
      "ĠLeague": 6953,
      "ĠÎķÎºÎºÎ»Î·ÏĥÎ¯Î±ÏĤ": 6954,
      "Î´Î¿Îº": 6955,
      "ĠÏĢÎ¬ÏģÎ¿ÏħÎ½": 6956,
      "ĠÎ¿Î´Î·Î³Î®ÏĥÎµÎ¹": 6957,
      "ĠÎºÎ±ÏģÎ¹": 6958,
      "ĠÏĢÏģÎ¿ÏĥÏĢÎ±Î¸ÎµÎ¯": 6959,
      "ĠÏĦÎŃÏĩÎ½Î·ÏĤ": 6960,
      "ĠÎ±ÏĢÎ¿Î»ÏįÏĦÏīÏĤ": 6961,
      "ÏģÏİÎ½Î¿ÏħÎ½": 6962,
      "ĠÎŃÎ»ÎµÎ³Îµ": 6963,
      "ĠÏĢÎ»Î±Î½Î®ÏĦÎ·": 6964,
      "ÂµÎ±ÏĦÎ¿ÏĤ": 6965,
      "ĠÎļÎļÎķ": 6966,
      "ĠÎ±ÏģÎ¹ÏĥÏĦÎµÏģÎ¬": 6967,
      "ÏĩÏĦÏħ": 6968,
      "Î½Î±Î»": 6969,
      "ÏģÎµÎ¯Î¿Ïħ": 6970,
      "ĠÎµÎºÏĢÎ±Î¹Î´ÎµÏħÏĦÎ¹ÎºÏİÎ½": 6971,
      "ĠÏĨÏĦÏī": 6972,
      "ĠÎ»ÎµÎ¹ÏĦÎ¿ÏħÏģÎ³Î¿ÏįÎ½": 6973,
      "ĠÎºÎ¿Î¹ÏĦÎ¬": 6974,
      "îĭ": 6975,
      "ĠÏĥÏĦÎŃÎ»": 6976,
      "ĠÎ½ÏĦÎµ": 6977,
      "ĠÎºÎ±Î¸Î®": 6978,
      "ĠÎ±Î½Î±Î»Ïį": 6979,
      "47": 6980,
      "ĠÎºÎ±Î¸Î±ÏģÎ¬": 6981,
      "ĠÎºÎ±ÏĦÎ±ÏĥÏĦÏģÎ¿ÏĨÎ®": 6982,
      "Î»Î¬ÎºÎ¹Î±": 6983,
      "Î¼Î®ÏĥÎµÎ¹ÏĤ": 6984,
      "ĠÎ»ÎŃÎ¼Îµ": 6985,
      "Î¤Î¡ÎŁ": 6986,
      "ÏĮÎ¼ÎµÎ½ÏīÎ½": 6987,
      "ĠÎ±ÏĢÎ¯ÏĥÏĦÎµÏħ": 6988,
      "ĠÎ¥ÏĢÎ¬ÏģÏĩÎµÎ¹": 6989,
      "ĠÏĥÎµÏģ": 6990,
      "ĠÏħÏĢÎ¬Î»Î»Î·": 6991,
      "Î¸ÏģÎ±": 6992,
      "Î²Î¹Î±": 6993,
      "ĠÏĩÏģÏĮÎ½ÏīÎ½": 6994,
      "ÏĦÏģÎ¹ÎºÎ®": 6995,
      "ĠÎ¼ÎµÎ³Î¬Î»Î·ÏĤ": 6996,
      "ĠÎ»ÎµÎ³": 6997,
      "Î¶ÏĮÎ¼ÎµÎ½Î±": 6998,
      "ĠÎłÏģÎ¿ÎŃ": 6999,
      "ÏĦÏİÎ²": 7000,
      "ĠÎłÏģÏĮÎ³ÏģÎ±Î¼Î¼Î±": 7001,
      "ĠÎ´Î¿Î¸ÎµÎ¯": 7002,
      "ĠÎ´Î¹ÎºÎ±Î¹Î¿Î»Î¿Î³Î·": 7003,
      "att": 7004,
      "ĠÎ½Î¿ÏĥÎ·": 7005,
      "ĠÎµÎ»Î±Î¹": 7006,
      "ĠÎ¡Î¿Ïħ": 7007,
      "ows": 7008,
      "ĠÎ±ÎºÎ±Î´Î·": 7009,
      "Ġá¼ĢÏĢÏĮ": 7010,
      "Î»ÏİÎ½Î¿ÏħÎ½": 7011,
      "ĠÎłÎµÏģÎ¹Î²Î¬Î»Î»Î¿Î½": 7012,
      "ĠÎĴÏħ": 7013,
      "Î¯ÎºÎ¿": 7014,
      "ĠÎ±ÏĢÎ¿Î¸Î·ÎºÎµ": 7015,
      ".),": 7016,
      "ĠÎ²Î»Î¬Î²": 7017,
      "ĠÏĢÎµÏģÎ¹ÏĨÎµÏģÎµÎ¹Î±": 7018,
      "ĠÏĥÏħÎ¼ÏĢÎ±": 7019,
      "ĠÎ±Î½ÏĦÎ¹ÎºÎµÎ¯Î¼ÎµÎ½Î±": 7020,
      "ĠÏĦÎµÏĩÎ½Î¿Î»Î¿Î³Î¯Î±ÏĤ": 7021,
      "ĠÎķÎĻÎĿ": 7022,
      "ann": 7023,
      "ÎŁÎ§": 7024,
      "ĠÎ´Î¿Î»": 7025,
      "ĠÏĢÏģÎ¿ÏĥÏİÏĢÎ¿Ïħ": 7026,
      "ĠÎ¼Î¿Î¹ÏģÎ±": 7027,
      "ĠÎ³ÏħÎ½Î±Î¹ÎºÏİÎ½": 7028,
      "ĠÎ¼ÎµÎ³Î¬Î»ÏīÎ½": 7029,
      "ĠÎłÎ¿Î»Î¹ÏĦÎ¹Ïĥ": 7030,
      "ĠÏĦÎ±Î¹ÏģÎ¹": 7031,
      "ĠÎľÏĢÎ¬": 7032,
      "ĠÎ»Î¿Î³Î¿ÏĦÎµÏĩÎ½": 7033,
      "ĠÎ±Î½ÏĦÎ¯Î¸ÎµÏĥÎ·": 7034,
      "Ġsite": 7035,
      "ame": 7036,
      "ĠÏģÏįÎ¸Î¼Î¹ÏĥÎ·": 7037,
      "ÎķÎ¹": 7038,
      "ĠÏĦÏģÎ¯ÏĦÎ·": 7039,
      "ĠÎ±ÏĥÏį": 7040,
      "ÏģÎ¹ÏĥÎ±": 7041,
      "ĠÎ¼ÏĢÎ±ÏĦÎ±": 7042,
      "ĠÏĢÎ»Î±ÏĦ": 7043,
      "ÏĢÎ±ÏĤ": 7044,
      "ÎĳÏģÏĩÎ¹ÎºÎ®": 7045,
      "ĠÎłÎµÎ»Î¿": 7046,
      "ÏĦÎ¯ÏīÎ½": 7047,
      "ĠÎ±Î½Î±Î½Îµ": 7048,
      "ĠÎ±Î½ÏĦÎ¹ÏĥÏĦÎ¿Î¹": 7049,
      "ĠÏĢÏģÏīÏĦÎ¿Î²Î¿ÏħÎ»Î¯Î±": 7050,
      "ÎĿÎ¤": 7051,
      "ĠÏĦÏħÏĢ": 7052,
      "ĠÎ±Î´ÏįÎ½Î±": 7053,
      "ĠÎºÎ±ÏĦÎ±Îº": 7054,
      "ĠÎµÎºÎ±ÏĦÎ¿Î½ÏĦÎ¬": 7055,
      "ĠÎ±ÏģÏĩÎ±Î¹Î¿": 7056,
      "ĠÎ²Î»ÎŃÏĢÎµÎ¹": 7057,
      "ÏĢÎ¿Î¹Î¿ÏĤ": 7058,
      "ĠÎ¸ÎµÏīÏģÎ·": 7059,
      "ÏĥÏĦÎµÏģ": 7060,
      "ĠÎ´Î¹Î±Î´Î¹ÎºÏĦÏħÎ±": 7061,
      "ĠÎµÏĢÎµÎ¹ÏĥÏĮ": 7062,
      "Ġem": 7063,
      "ĠÎŃÏĨÏĦÎ±ÏĥÎµ": 7064,
      "Ġblog": 7065,
      "Î¿Î¹ÎºÎ¿Î½Î¿Î¼": 7066,
      "ĠÎ¿ÏģÎ³Î±Î½Ïī": 7067,
      "ĠÎºÎ±ÏĦÎ±Î³ÏģÎ¬ÏĨ": 7068,
      "Î²Î¬Î¸Î¼Î¹Î±ÏĤ": 7069,
      "ĠÎĴÎ¹": 7070,
      "Î¤ÎŃÎ»Î¿ÏĤ": 7071,
      "ĠÎĳÎ¹Î³Î±Î¯Î¿Ïħ": 7072,
      "iew": 7073,
      "ĠÎºÎµÏģÎ±": 7074,
      "ÏİÎ½Î·ÏĤ": 7075,
      "ĠÏĩÏģÎ·ÏĥÎ¹Î¼Î¿ÏĢÎ¿Î¹Î¿ÏįÎ½ÏĦÎ±Î¹": 7076,
      "ĠÎķÎ¾ÏīÏĦÎµÏģÎ¹ÎºÏİÎ½": 7077,
      "ĠÎ¸ÏħÏĥ": 7078,
      "ÏģÎ±ÎºÏĦÎ·": 7079,
      "ĠÎķÎ¹ÏĥÎ±": 7080,
      "ĠÏĥÏħÎ³Î³ÎµÎ½": 7081,
      "ĠÎºÎ±Î½Î±": 7082,
      "ĠÎ¾ÎµÎ½Î¿Î´Î¿ÏĩÎµÎ¯Î¿Ïħ": 7083,
      "ĠÎķÎĻÎĿÎĳÎĻ": 7084,
      "ĠÎºÎµÏĨÎ¬Î»Î±Î¹Î¿": 7085,
      "ĠÎļÎµ": 7086,
      "ĠÎ±Î½ÏĦÎŃ": 7087,
      "let": 7088,
      "ea": 7089,
      "ĠÏĢÏģÏĮÎµÎ´ÏģÎ¿": 7090,
      "Ġ2000": 7091,
      "ÏĢÎ¿Î½ÏĦÎ±Î¹": 7092,
      "ÏģÏįÎ½": 7093,
      "ĠÎºÏįÏģÎ¹Î±": 7094,
      "ĠÎµÎ´Î¬": 7095,
      "ĠÎ£ÎºÎ¿": 7096,
      "ĠÎ¡Î¬": 7097,
      "Ġ;": 7098,
      "ĠÎ¼ÏĢÎµÎ¹": 7099,
      "ĠÎµÎ¯ÏĥÎ¿Î´Î¿": 7100,
      "ĠÎ¬Î»Î»Î¿Ïħ": 7101,
      "ĠÎ±ÏĦÎ¼ÏĮÏĥÏĨÎ±Î¹ÏģÎ±": 7102,
      "ĠÎķÏģ": 7103,
      "Î¯Î½Îµ": 7104,
      "ĠÎ²Î¹ÏĦÎ±Î¼": 7105,
      "ÏĥÏĦÎ¿Î»Î®": 7106,
      "ĠÎµÎ³ÎºÎ±ÏĦÎ¬ÏĥÏĦÎ±ÏĥÎ·": 7107,
      "ĠÎµÎ¹ÏĥÎ¿Î´Î®": 7108,
      "ĠÏĢÏģÎ¿ÏĥÎŃÎ³Î³Î¹ÏĥÎ·": 7109,
      "Î¸Î±Î½Î±": 7110,
      "ÏĦÏģÏĮÏĤ": 7111,
      "ÏĦÎ·Î¸Î¿ÏįÎ½": 7112,
      "ÏĩÎ±Î½Î¿": 7113,
      "ĠÏĥÏħÎ½Î¬Î½": 7114,
      "ĠÎĳÎļ": 7115,
      "ĠÎĶÎ¹ÎºÎ±Ïĥ": 7116,
      "ĠÎºÎ±ÏĦÎ±ÏĥÏĦÏģÎ¿ÏĨ": 7117,
      "ĠÎ±Î½ÎµÏĢ": 7118,
      "ĠÎ±Î½ÎµÏĢÎ¹": 7119,
      "ĠÎµÎºÏĦÎŃÎ»ÎµÏĥÎ·": 7120,
      "ĠÏĩÎ¹Î»": 7121,
      "ĠÏĦÎ±Î¹Î½Î¯ÎµÏĤ": 7122,
      "ÏīÏĥÎ®": 7123,
      "ĠÎ±Î¼ÏĨÎ¹Ïĥ": 7124,
      "ĠÏĦÎ®ÏĤ": 7125,
      "ĠÎĴÎµ": 7126,
      "Î¾Î¯Î±ÏĤ": 7127,
      "ĠÏĥÏĨ": 7128,
      "ĠÏĦÎ¹Î¼Ïī": 7129,
      "ĠÎĵÎº": 7130,
      "ÂµÎ·": 7131,
      "ĠÏĢÎ±ÏĦÎŃÏģÎ±ÏĤ": 7132,
      "ĠÎ¸Î¬Î½Î±": 7133,
      "ĠÎĵÎµÎ½Î¹ÎºÎ®": 7134,
      "ĠÏĢÏģÎ±Î³Î¼Î±ÏĦÎ¹ÎºÏĮ": 7135,
      "ĠÏĢÏģÎ¬Î¾ÎµÎ¹ÏĤ": 7136,
      "ĠÎĶÎĻ": 7137,
      "ÎºÎ±Î»Î¹Î¬": 7138,
      "ĠÏĥÏħÎ½ÏĦÎµÎ»Îµ": 7139,
      "ÏĦÎ±ÏĦÎ¿": 7140,
      "ĠÎ¤ÏģÎ¹": 7141,
      "ĠÎľÏĮÎ½Î¿": 7142,
      "ÏĦÎ¹Î½Î¿Ïį": 7143,
      "ĠÏĢÎ¹ÏĥÏĦÏī": 7144,
      "ĠÏĢÏģÏİÏĦÎ·ÏĤ": 7145,
      "ĠÎµÏĢÎµÎº": 7146,
      "ĠÏĥÏħÂµ": 7147,
      "ĠÎ¾ÎµÏĢÎµÏģ": 7148,
      "Î¿ÏħÏĥÎ±ÏĤ": 7149,
      "ĠÎ¼Î¿Î¹ÏģÎ¬": 7150,
      "Î¸Î·ÏĤ": 7151,
      "Î²ÎµÎ½": 7152,
      "ĠÏĨÎ±Î¹Î½ÏĮÎ¼ÎµÎ½Î¿": 7153,
      "ÏģÏİÎ½ÎµÏĦÎ±Î¹": 7154,
      "ĠÎ±ÏģÏĩÎ·Î³": 7155,
      "ĠÏĢÏĦÏħÏĩ": 7156,
      "ĠÏĦÎ¬ÏĥÎ·": 7157,
      "ĠÎ¼Î¬Î¸Î·Î¼Î±": 7158,
      "ĠÎ¾ÎµÎºÎ¬Î¸Î±": 7159,
      "ĠÏĢÎ»Î·ÏģÎ¿ÏĨÎ¿ÏģÎ¹ÏİÎ½": 7160,
      "Î¥ÎĽ": 7161,
      "ĠÏĥÏħÎ½ÎµÎ´ÏģÎ¯Î±ÏĥÎ·": 7162,
      "ĠÎłÎ¿Î»Î¹ÏĦÎ¹ÏĥÎ¼Î¿Ïį": 7163,
      "ĠÏĩÏģÎ·ÏĥÎ¹Î¼Î¿ÏĢÎ¿Î¹ÏİÎ½ÏĦÎ±ÏĤ": 7164,
      "ĠÎ±Î½Î±Î»Î¬Î²ÎµÎ¹": 7165,
      "ĠÏħÏĢÎ®ÏģÏĩÎ±Î½": 7166,
      "ĠÎ¥ÎłÎŁ": 7167,
      "Î¹Î½Î·": 7168,
      "ĠÎ¿Î´ÏĮ": 7169,
      "ĠÏĩÏģÎµÎ¹Î¬Î¶Î¿Î½ÏĦÎ±Î¹": 7170,
      "86": 7171,
      "ĠÏĦÏģÎ¿Î¼Î¿ÎºÏģÎ±": 7172,
      "ĠÎ¼Î±Î¸Î±": 7173,
      "ĠÎŃÎ³ÏģÎ±ÏĪÎµ": 7174,
      "Î¼Î¿Î½Î±": 7175,
      "ĠÎ±Î³ÏİÎ½Î±ÏĤ": 7176,
      "ÏĨÎµÏģÎµÎ¹Î¬ÏģÏĩ": 7177,
      "oft": 7178,
      "ĠÎºÏħÎ½Î·": 7179,
      "ĠÎ¿ÏĨÎµÎ¯Î»ÎµÏĦÎ±Î¹": 7180,
      "ĠÏĢÎ»Î®Î¸Î¿ÏĤ": 7181,
      "ock": 7182,
      "ĠÎĴÏģÎ±": 7183,
      "ĠÎ¿Î¼Î¯": 7184,
      "ĠÎ½Î·ÏĥÎ¹Î¬": 7185,
      "Î³Î¿ÏħÏĤ": 7186,
      "Î³Î¯": 7187,
      "ĠÏĢÎµÏĦÏģÎµ": 7188,
      "ĠÏĥÏħÎ½ÎŃÎ²Î·": 7189,
      "ÎµÎ½ÏĮÏĤ": 7190,
      "ĠÏħÎ»Î¿ÏĢÎ¿Î¯Î·ÏĥÎ·": 7191,
      "ÏĥÏīÏĢ": 7192,
      "ĠÎµÏĢÎµÎ¾ÎµÏģÎ³Î±ÏĥÎ¯Î±": 7193,
      "ĠÏĢÎŃÏģ": 7194,
      "ĠÎ¼ÎµÏĦÎ±ÏĦÏģÎŃ": 7195,
      "ĠÎ±Î½Î±Ïĥ": 7196,
      "ĠÎ¸ÎŃÎ±ÏĦÏģÎ¿": 7197,
      "ĠÎļÎķ": 7198,
      "ÏħÏĥÎ·ÏĤ": 7199,
      "ÎļÎ±ÏĦÎ±": 7200,
      "ĠÎķÎ¼ÏĢÎ¿": 7201,
      "ĠÎłÎ±Î½ÎµÎ»Î»Î®": 7202,
      "ĠÎ´Î¹Î±ÏĦÎ±ÏģÎ±": 7203,
      "ĠÏĥÏħÎ¼Î¼ÎµÏĦÎ¬": 7204,
      "ĠÎµÏĢÎ¹ÏĥÏĦÎ®Î¼Î¿Î½ÎµÏĤ": 7205,
      "ĠÎ´Î¹ÎºÏĦÏįÎ¿Ïħ": 7206,
      "Î²Î¹ÏĦÏĤ": 7207,
      "Î¡ÎĻÎĿ": 7208,
      "Î¬ÏģÏīÎ½": 7209,
      "ÎµÎ¹Î´": 7210,
      "ĠÎ¿ÏĢÎ±": 7211,
      "ÏģÎ½ÏĦÎ¿": 7212,
      "ĠÏĦÎ¿ÏĢÎ¹ÎºÎ®": 7213,
      "ĠÎ¬ÎºÎ¿Ïħ": 7214,
      "ĠÏĢÏģÏīÏĦÎµÏį": 7215,
      "Î»Î»Î±Î½": 7216,
      "Î¡ÎķÎ£": 7217,
      "ĠÎµÏĢÎ¹ÏĩÎµÎ¯ÏģÎ·ÏĥÎ·ÏĤ": 7218,
      "ĠÎºÏĮÎ½": 7219,
      "ÎĻÎķÎ£": 7220,
      "ÏĦÎµÎ¯ÎµÏĤ": 7221,
      "ĠÎµÎºÎµÎ¯Î½Î¿ÏĤ": 7222,
      "ĠÎ¿Î¹ÎºÎ¿Î½Î¿Î¼Î¹ÎºÏĮ": 7223,
      "ÏĨÎ¿Î¯": 7224,
      "ĠÎĴÎ±Ïģ": 7225,
      "á½¸Î½": 7226,
      "ĠÎ¼Î¿ÏħÏĥÎ¹ÎºÎ®ÏĤ": 7227,
      "ĠÎ±Î³ÏīÎ½Î¹ÏĥÏĦÎ¹ÎºÎ®": 7228,
      "ĠÎ±ÎºÎ¯Î½Î·": 7229,
      "ĠÏĦÎ±ÏĩÏħÎ´ÏģÎ¿": 7230,
      "ĠÎłÎµÏģÎ¹ÏĨÎŃÏģÎµÎ¹Î±ÏĤ": 7231,
      "ĠÏĢÏģÎ±Î³": 7232,
      "ĠÎ½Î·ÏĥÎ¹Î¿Ïį": 7233,
      "ÏħÎ¸": 7234,
      "Ġá¼ĢÏĢÎ¿": 7235,
      "ĠÎµÎ½Î¹Î±": 7236,
      "ĠÎ¶Î¬": 7237,
      "ĠÏħÎ³Î¹ÎµÎ¹": 7238,
      "ĠÎķÎ»Î»Î·Î½Î¹ÎºÏĮ": 7239,
      "ÏĥÎ¼ÎŃÎ½Î¿": 7240,
      "mer": 7241,
      "ĠÎµÎ½Î·Î¼ÎŃÏģÏīÏĥÎ·ÏĤ": 7242,
      "ĠFacebook": 7243,
      "ions": 7244,
      "ĠÏĥÏħÎ½ÎŃÏĢÎµÎ¹": 7245,
      "IC": 7246,
      "ternet": 7247,
      "ÏģÏİÎ½Î¿Î½ÏĦÎ±Î¹": 7248,
      "ĠÎ±Î½ÎµÎ¾Î±Ïģ": 7249,
      "ĠÎŁÎ¹ÎºÎ¿": 7250,
      "Î¼Î²Î¬ÏĥÎµÎ¹ÏĤ": 7251,
      "%)": 7252,
      "ĠÎ±ÏĢÎ±ÏģÎ±Î¯ÏĦÎ·ÏĦÎ·": 7253,
      "ĠÎ±ÏĢÎ±Î¹ÏĦÎµÎ¯": 7254,
      "ĠÎµÎ½Î¸Î¿Ïħ": 7255,
      "Î²ÎŃÎ½": 7256,
      "ĠÏĢÎ±Î½Î·Î³": 7257,
      "Î´Î¯ÏīÏĤ": 7258,
      "ÎľÎĳÎ¤Îĳ": 7259,
      "Î¦ÎŁÎ¡": 7260,
      "ĠÎ³Î½ÏİÏĥÎµÎ¹ÏĤ": 7261,
      "ĠÎµÎ¾ÏħÏĢÎ·ÏģÎŃÏĦÎ·ÏĥÎ·": 7262,
      "Î·Î³Î·": 7263,
      "ĠÎ¼Î±Î³ÎµÎ¹": 7264,
      "ĠÎ¿ÏģÎ¸Î¿": 7265,
      "Î»ÎµÎ¯ÏĤ": 7266,
      "ĠÎµÏĢÎ¯ÏĥÎ·Î¼Î·": 7267,
      "Ġ2019": 7268,
      "ĠÏĥÏħÎ³Î³ÏģÎ±ÏĨÎŃÎ±ÏĤ": 7269,
      "ÏĦÎ¿ÏĩÎ®": 7270,
      "ĠÏħÏĢÎ¿ÏĥÏĦÎ·ÏģÎ¯Î¶ÎµÎ¹": 7271,
      "ĠÎ±ÏĨÎ·": 7272,
      "43": 7273,
      "ĠÎºÎµÎ½ÏĦÏģÎ¹ÎºÏĮ": 7274,
      "ier": 7275,
      "ÏĨÎŃÏģÎ¿ÏħÎ¼Îµ": 7276,
      "ĠÎ³ÎµÎ½Î½Î®Î¸Î·ÎºÎµ": 7277,
      "ĠÎļÏģÎ±": 7278,
      "ĠÎĶÎ¹Î±ÏĩÎµÎ¯": 7279,
      "ÏĨÎ¿Ïį": 7280,
      "Ġsh": 7281,
      "ĠÎµÎ³ÎºÎµ": 7282,
      "ÏĨÎ¸Î¿": 7283,
      "ĠÎºÎ±Î¸Î±ÏģÏĮ": 7284,
      "ĠÎ·Î»ÎµÎºÏĦÏģÎ¿Î½Î¹ÎºÎ¿Ïį": 7285,
      "ĠÏĢÏģÎ¿ÎµÎ¹Î´Î¿": 7286,
      "ĠÏĢÏģÎ¿ÎºÎ±Î»ÎŃÏĥÎµÎ¹": 7287,
      "ĠÏĢÎ±ÏģÎ¬Î½Î¿": 7288,
      "ÏĢÏĮÎ»Îµ": 7289,
      "ÏģÎ¯Î¶Î¿ÏħÎ¼Îµ": 7290,
      "Î¬ÏĥÏĦÎ·ÎºÎµ": 7291,
      "ĠÏĮÎ¼Î¿ÏģÏĨÎ¿": 7292,
      "Î²Î¬Î¸Î¼Î¹ÏĥÎ·": 7293,
      "ons": 7294,
      "ÏĦÏħÏĩÎµ": 7295,
      "ĠÏĢÎ±ÏģÎ¬Î¸Ïħ": 7296,
      "ÏĦÎµÎ¹Î½": 7297,
      "ĠÏĢÎ¿Î»Î¹ÏĦÎ¹ÎºÎ¬": 7298,
      "ĠÏĢÏģÎ¿ÏĥÏĦÎ±ÏĦÎµÏħ": 7299,
      "ĠÎ±ÏĥÎ¸ÎŃÎ½": 7300,
      "Î³Î¿Î¹": 7301,
      "ĠÎ´Î¹Î±Î´Î¯ÎºÏĦÏħÎ¿": 7302,
      "ĠÏĢÎ¯ÏĥÏĦÎ·": 7303,
      "Îĩ": 7304,
      "ĠGoogle": 7305,
      "ĠÎ£ÏĩÎ¿Î»Î®": 7306,
      "ÏģÎ¹Î±ÎºÏĮ": 7307,
      "ÏĦÎ¿ÏįÏĥÎ±Î½": 7308,
      "ĠÎłÏį": 7309,
      "ĠÎ¦Î¹Î»Î¿": 7310,
      "ĠÎĵÏģÎ±ÏĨ": 7311,
      "ĠÏĢÏģÎ¿ÏĥÏĢÎ±Î¸Î®": 7312,
      "ĠÏĪÏī": 7313,
      "ÏĦÎ®ÏģÎ·ÏĥÎ·ÏĤ": 7314,
      "ÏģÎ±Î¼Îµ": 7315,
      "ĠÎ¿ÏģÎ³": 7316,
      "ĠÎĶÎ·Î¼Î¿ÎºÏģÎ±ÏĦÎ¯Î±": 7317,
      "ĠÏħÏĢÎŃÏģÎ¿ÏĩÎ¿": 7318,
      "ÎłÏģÎ¹Î½": 7319,
      "ĠÎ¤ÎŁÎĿ": 7320,
      "Î³Î³ÎµÎ»Î¯ÎµÏĤ": 7321,
      "ĠÎ¼ÎµÏĦÎµ": 7322,
      "ĠÏĥÏħÏĥÎºÎµÏħÎŃÏĤ": 7323,
      "ĠÎ³ÎµÎ½Îµ": 7324,
      "ĠÏĮÎ¼Î¿ÏģÏĨÎ·": 7325,
      "Î´ÎµÎ¹ÎºÎ½ÏįÎµÎ¹": 7326,
      "Ġ33": 7327,
      "ĠÎºÎ±ÏĦÎ±ÏģÎ³": 7328,
      "ÏĥÏħÏĩ": 7329,
      "ĠÎ£ÏįÎ»Î»Î¿Î³Î¿ÏĤ": 7330,
      "ĠÎĶÎ·Î¼Î®ÏĦÏģÎ·": 7331,
      "ĠÏĢÏģÎ¿Î¸ÎµÏĥ": 7332,
      "ĠÎ½ÎµÏģÎ¬": 7333,
      "ÏĦÎŃÎ»Î¿ÏħÏĤ": 7334,
      "ĠÎ±ÏĢÎ±ÏģÎ±Î¯ÏĦÎ·ÏĦÎ¿": 7335,
      "Î¼ÎµÎ½Î¿ÏħÏĤ": 7336,
      "Î¬Î»Î¹Î±": 7337,
      "ĠÏĢÏģÎ¿ÏĥÎ±ÏģÎ¼Î¿": 7338,
      "ĠÏĦÎ·Î»ÎŃÏĨÏīÎ½Î¿": 7339,
      "ĠÎµÏĢÎ¹Î»Î¿Î³Î®ÏĤ": 7340,
      "ĠÎľÎ¬Î»Î¹ÏĥÏĦÎ±": 7341,
      "ĠÎ²Î±ÏĥÎ¹ÎºÎ¬": 7342,
      "Ġ210": 7343,
      "ĠÎ¦ÎµÏĥÏĦÎ¹Î²Î¬Î»": 7344,
      "ĠÎºÎµÎ½ÏĦÏģÎ¹ÎºÎ®": 7345,
      "ĠÏĥÏĩÎ¿Î»ÎµÎ¯Î¿Ïħ": 7346,
      "ÂµÎ®": 7347,
      "ĠÎ²Î®Î¼Î±ÏĦÎ±": 7348,
      "ĠÎ§ÎµÎ¹": 7349,
      "ÏĪÎ¿": 7350,
      "Î½Î¿ÏįÎ½ÏĦÎ±Î¹": 7351,
      "ĠÎ¿Î½ÏĮÎ¼Î±ÏĦÎ±": 7352,
      "ÏģÎ·Î³Î¿": 7353,
      "ĠÏĦÏĥÎ±": 7354,
      "ÏĦÎ±Ïģ": 7355,
      "ÏĦÏģÏİ": 7356,
      "ĠÎķÏģÎ³Î±ÏĥÎ¯Î±ÏĤ": 7357,
      "ĠÏĩÎ±ÏģÎ±ÎºÏĦÎ·ÏģÎ¹ÏĥÏĦÎ¹ÎºÏĮ": 7358,
      "ĠÏĩÏģÎ·Î¼Î±ÏĦÎ¿Î´Î¿": 7359,
      "ĠÎŁÎºÏĦÏİÎ²": 7360,
      "ĠÏģÎ¿ÏįÏĩÎ±": 7361,
      "ĠÏĢÎ±ÏĦÏģÎ¯Î´Î±": 7362,
      "ĠÎ¸Î±Î»Î¬Ïĥ": 7363,
      "ÏĮÎ¼ÎµÎ½Î·ÏĤ": 7364,
      "ĠÏĥÏĦÏģÎ±ÏĦÏĮ": 7365,
      "ÏģÎ¯Î´Î±ÏĤ": 7366,
      "ĠÏĢÎ±ÏģÎ±ÎºÎ¿Î»Î¿ÏħÎ¸Î®": 7367,
      "ĠÎºÎ±ÏĦÎ¿Î¯ÎºÎ¿ÏħÏĤ": 7368,
      "Î¼ÏħÎ½Î±ÏĤ": 7369,
      "ĠÎ´Î¹Î±Î¸ÎŃÏĦÎ¿ÏħÎ½": 7370,
      "Î²Î»Î·Î¸ÎµÎ¯": 7371,
      "Î¼ÎµÎ½Îµ": 7372,
      "ĠÎ¶ÎµÎ¹": 7373,
      "ai": 7374,
      "Î»Î¹ÏĥÎ¼ÏĮ": 7375,
      "ĠÎ¶Î®ÏĦÎ·ÏĥÎµ": 7376,
      "Î¬ÏģÎ¹Î¿": 7377,
      "Î´ÏĮÏĤ": 7378,
      "ÏģÎ¹ÏĥÏĦÎ±": 7379,
      "ĠÎ¼Î¿Î¹Î¬Î¶ÎµÎ¹": 7380,
      "ĠÎ¿ÏģÎ¹ÏĥÎ¼ÎŃÎ½ÎµÏĤ": 7381,
      "Î¸ÎµÏĥÎ¯Î±": 7382,
      "ĠÎ²Î¬Î»ÎµÎ¹": 7383,
      "Î¼Î¬ÏģÏĩ": 7384,
      "ĠÏĢÎ¿Î»ÎŃÎ¼Î¿Ïħ": 7385,
      "Î¼ÏĢÎµ": 7386,
      "ĠÎ±ÏĢÎ¿Î³Î¿": 7387,
      "Ġ150": 7388,
      "ĠÎĶÏħÏĦÎ¹ÎºÎ®ÏĤ": 7389,
      "ĠÎ±ÏģÎ³Î¬": 7390,
      "ĠÎ¹ÏĥÏĦÏĮ": 7391,
      "Î´ÏģÎ¿Î¼Î¿": 7392,
      "ĠÏĩÏģÎŃÎ¿ÏħÏĤ": 7393,
      "ĠÎ¾Ïħ": 7394,
      "ĠÎ¹Îµ": 7395,
      "ĠÏĢÎ¬Î½ÏĦÎ¿ÏĦÎµ": 7396,
      "ĠÎĳÎ¼ÎµÏģÎ¹ÎºÎ®": 7397,
      "ĠÏĥÎºÎŃÏĪÎµÎ¹ÏĤ": 7398,
      "ÏĨÏĮÏģÎ¿": 7399,
      "ĠÎ¿Î»ÏĮÎºÎ»Î·ÏģÎ¿": 7400,
      "ÎĳÎĴ": 7401,
      "Î´Î·Î¼Î±": 7402,
      "ĠÏĢÏģÏĮÏĥÏĨÏħ": 7403,
      "ĠÎ¹ÏĦÎ±": 7404,
      "ĠÎŃÎ½ÏĦÎ¿Î½Î·": 7405,
      "ĠÏĢÏģÏīÏĦÎµ": 7406,
      "âĢ¦.": 7407,
      "ĠÎµÎºÏĢÎ¿Î¼ÏĢÎ®": 7408,
      "ĠÏĥÏħÎ½ÎµÎ¯Î´Î·": 7409,
      "ĠÎ¾Î±ÏĨÎ½": 7410,
      "Î¯Î½Î¿": 7411,
      "ĠÏĩÎ±Î»Î¬": 7412,
      "ĠÎµÎ½ÏĮ": 7413,
      "ĠÏĩÎ¿ÏģÎ®": 7414,
      "ĠÎİ": 7415,
      "ÏĦÎ®ÏģÎµÏĤ": 7416,
      "ÎłÎŁÎĻ": 7417,
      "ĠÏĩÏģÎŃÎ¿ÏĤ": 7418,
      "ĠÏĮÏģÎ³Î±Î½Î±": 7419,
      "ĠÎ´ÏħÎ½Î¬Î¼ÎµÏīÎ½": 7420,
      "ĠÎ¸Î±Î·": 7421,
      "ĠÎ³Î½ÏīÏģÎ¯Î¶Î¿ÏħÎ¼Îµ": 7422,
      "ĠÎĿÎ¿ÎŃÎ¼Î²": 7423,
      "ĠÎĻÎµ": 7424,
      "mart": 7425,
      "ver": 7426,
      "ĠÏĦÎµÏĩÎ½Î¹ÎºÎŃÏĤ": 7427,
      "ĠÏģ": 7428,
      "ĠÎµÎ»ÎµÏħÎ¸ÎµÏģÎ¯Î±": 7429,
      "ĠÎºÏīÎ´": 7430,
      "ĠÎ²Î±ÏĥÎ¹Î»": 7431,
      "RE": 7432,
      "ĠÎ³Î¬Î»Î±": 7433,
      "Î¯Î¶ÎµÏĦÎµ": 7434,
      "ĠÎ´Î¹Î±Î¼Îµ": 7435,
      "ĠÏĥÏħÎ¼Î¼Î±": 7436,
      "ÏİÏĦÎ·ÏĤ": 7437,
      "ĠÎºÏĦÎ·": 7438,
      "ĠÎ´Î¹Î±Î¼Î±ÏģÏĦÏħ": 7439,
      "ÏĢÏĦÎ¿": 7440,
      "ÎºÎµÎ¯Î±": 7441,
      "84": 7442,
      "ĠMan": 7443,
      "ĠÎ±Î¯ÏĦÎ·Î¼Î±": 7444,
      "Î»Î¿ÏħÎ½": 7445,
      "ĠÎµÏģÏİÏĦÎ·ÏĥÎ·": 7446,
      "ÏĥÎ¸Îµ": 7447,
      "ĠÏĢÎŃÏĨ": 7448,
      "ĠÎļÎ±Î¸": 7449,
      "ĠÏĥÏħÎ½ÎµÎ½": 7450,
      "ĠÎłÎĳÎ¡": 7451,
      "ĠÎ·Î»ÎµÎºÏĦÏģÎ¿Î½Î¹ÎºÎ®": 7452,
      "ÏĨÎ¸Î¿ÏįÎ½": 7453,
      "ĠÎºÏĮÎ¼Î¼Î±ÏĦÎ±": 7454,
      "Î¸Î®ÎºÎ±Î¼Îµ": 7455,
      "ĠÎ§Î¿": 7456,
      "ĠÏĥÏĢÎ¿ÏħÎ´ÏİÎ½": 7457,
      "ĠÎ¼Î½Î·Î¼ÏĮ": 7458,
      "ÏģÎ¯ÏĥÏĦÎ·ÎºÎµ": 7459,
      "ĠÎĳÏħÏĦÎ¬": 7460,
      "ĠÎµÎ³ÎºÎ»Î·Î¼Î±": 7461,
      "ĠÎĳÏģÎ¹ÏĥÏĦÎµ": 7462,
      "Î·Î¼Îµ": 7463,
      "ĠÎµÎ»Î±Ïĥ": 7464,
      "ÎĺÎµ": 7465,
      "ĠÎ´Î¹ÎºÎŃÏĤ": 7466,
      "ĠÎľÎ±ÎºÎµÎ´Î¿Î½Î¯Î±": 7467,
      "ĠÏĥÏĢ": 7468,
      "ÏĮÎ³ÎµÎ¹Î¿": 7469,
      "ĠÎµÎ½Ïħ": 7470,
      "ĠÎ£Î±ÏĤ": 7471,
      "ĠÏĢÏģÎ¿ÏĥÏĨÎ¿ÏģÎŃÏĤ": 7472,
      "ous": 7473,
      "ĠÎ±ÏģÏĩÎ¹ÏĦÎµÎºÏĦÎ¿Î½": 7474,
      "ÏģÎ¹Î¬ÏĤ": 7475,
      "ĠÎµÏĢÎ±Î³Î³ÎµÎ»Î¼Î±ÏĦÎ¯ÎµÏĤ": 7476,
      "ĠÎºÎ±Ïį": 7477,
      "ĠÎĻÏĥÏģÎ±Î®Î»": 7478,
      "ĠÎĮÏĥÎ¿": 7479,
      "Î¹Î±ÎºÏİÎ½": 7480,
      "ÎĳÎĻÎĶ": 7481,
      "ĠÎłÏģÎ¿Î³ÏģÎ¬Î¼": 7482,
      "ÏĥÎ¿Î´Î±": 7483,
      "ĠÎµÎ½Î¿Ïĩ": 7484,
      "Î¼Î¿Î¹Î²": 7485,
      "ĠÎłÎ¬Ïģ": 7486,
      "89": 7487,
      "ÎľÎŁ": 7488,
      "ÏĦÎ·ÏģÎ¯Î±": 7489,
      "ĠÏĢÎ®Î³Îµ": 7490,
      "ĠÏĥÎ¬": 7491,
      "ĠÎ®Î¼Î¿ÏħÎ½": 7492,
      "ĠÎłÎ¿Î¹": 7493,
      "ĠÎ»Î±ÏĩÎ±Î½": 7494,
      "Ġ$": 7495,
      "Î³Î¯Î¿Ïħ": 7496,
      "ÏĥÎ¿Ïį": 7497,
      "ĠÎ²Î³ÎµÎ¹": 7498,
      "Ġro": 7499,
      "ĠÎºÏģÎ¹ÏĦÎ®ÏģÎ¹Î±": 7500,
      "Î¯Î´Î·ÏĤ": 7501,
      "ĠÎ¼ÎŃÏĦÏģÎ¿": 7502,
      "ĠÏĩÎ¿ÏģÎ·Î³": 7503,
      "ĠÎ±Î½Î®ÎºÎ¿ÏħÎ½": 7504,
      "ĠÏģÎ±Î´Î¹Î¿": 7505,
      "ĠÎĻÎ½ÏĥÏĦÎ¹ÏĦÎ¿Ïį": 7506,
      "ĠÏĢÎ±Î½Îµ": 7507,
      "ÎĻÎļÎŁÎĿ": 7508,
      "Ġcl": 7509,
      "Î¹ÏĥÎ¼ÎŃÎ½Î·": 7510,
      "ĠÏĢÏģÎ¿Î²Î¿Î»Î®": 7511,
      "AC": 7512,
      "ĠÎ¼ÎµÎ³Î¬Î»Î¿ÏĤ": 7513,
      "ĠÎ±Î½ÎµÎ¾Î¬ÏģÏĦÎ·": 7514,
      "ĠÏĥÏħÎ½Î±Î¹ÏĥÎ¸Î·Î¼Î±": 7515,
      "Î¯Î½Î¹Î±": 7516,
      "ÏįÏĢ": 7517,
      "ece": 7518,
      "ÏĦÏīÎ¼Î±": 7519,
      "Î¼ÎµÎ½ÎµÏĤ": 7520,
      "ĠÎĺÎĳ": 7521,
      "ject": 7522,
      "ĠÏĢÎ½ÎµÏįÎ¼Î±": 7523,
      "ÎºÎµÏħÏĥÎ·": 7524,
      "ĠÏĩÎ¬ÏĥÎµÎ¹": 7525,
      "ĠÎ¤ÎŁÎ¥Î£": 7526,
      "ĠÎ²Î³Î®": 7527,
      "ĠÎ¶Î±": 7528,
      "ĠÎĳÎºÎ±Î´Î·": 7529,
      "ĠÎŃÏģÎµÏħÎ½ÎµÏĤ": 7530,
      "ĠÎµÏĢÏĦÎ¬": 7531,
      "ĠÎķÎ¸Î½Î¹ÎºÏĮ": 7532,
      "ĠÎ±Î¹ÏĦÎ¯Î±": 7533,
      "ĠÏĥÏħÎ¼ÏĨÎŃÏģÎ¿Î½ÏĦÎ±": 7534,
      "ĠÎ¼Î±ÏįÏģÎ¿": 7535,
      "ĠÎļÏħÏĢÏģÎ¹Î±": 7536,
      "ĠÎ´Î¹ÎºÎ±": 7537,
      "ĠÎ³Î·ÏĤ": 7538,
      "ĠÎ¸ÎŃÏĥÎµÏīÎ½": 7539,
      "ĠÎºÎ±Î¸Î¿ÏģÎ¹Ïĥ": 7540,
      "Î±ÏĥÎµ": 7541,
      "ĠÎ¤ÎķÎĻ": 7542,
      "ĠÎ»Î¬Î¸Î·": 7543,
      "ĠÎµÎ½ÏĦÎ¿Î»Î®": 7544,
      "ory": 7545,
      "ĠÎļÎ±Î»Î±Î¼Î¬": 7546,
      "ĠÎºÎ±Î¸Î·Î¼ÎµÏģÎ¹Î½Î®": 7547,
      "ÎĿÎĹÎ£": 7548,
      "ĠÎµÏĢÎ±ÏģÎº": 7549,
      "ĠÎ·Î¼Î¹": 7550,
      "ĠÎ±Î»Î»Î·Î»ÎµÎ³Î³Ïį": 7551,
      "ĠÏĢÎ»Î¿ÏįÏĥÎ¹Î±": 7552,
      "ÏħÏĥÏĦÎµ": 7553,
      "ĠÏĦÎ¿ÏįÏĤ": 7554,
      "ĠÎ¶Î¿ÏħÎ½": 7555,
      "own": 7556,
      "Î²Î±Î¯ÏīÏĤ": 7557,
      "Î¼Î¼ÎŃÎ½Î±": 7558,
      "ĠPl": 7559,
      "ĠÎµÎ»ÏĢ": 7560,
      "ĠÏĦÏĮÏĥÎ±": 7561,
      "ĠÏĢÏĦÏİÏĥÎ·": 7562,
      "ĠÎºÎ±ÏĦÎ¬ÏģÎ³": 7563,
      "ÏĮÎ½Î¹Î±": 7564,
      "ĠÏĥÏįÎ³ÏĩÏģÎ¿Î½Î·": 7565,
      "ini": 7566,
      "te": 7567,
      "ĠÏĥÏħÎ³ÎºÎŃÎ½ÏĦÏģÏīÏĥÎ·": 7568,
      "ĠÎķÎ»Î»Î·Î½Î¹ÎºÎ¿Ïį": 7569,
      "ĠÏĥÏħÏĥÏĦÎ·Î¼Î±": 7570,
      "ĠÏĨÏĦÎ¬Î½ÎµÎ¹": 7571,
      "ĠÎµÏģÎ³Î±Î¶ÏĮÎ¼ÎµÎ½Î¿Î¹": 7572,
      "ĠÎºÎ±ÏĦÎ±Î¸ÎŃ": 7573,
      "Î»Î¯ÏīÎ½": 7574,
      "Ġ195": 7575,
      "ĠÏĩÏģÏīÎ¼Î±": 7576,
      "ĠÎ´ÎµÎ¾Î¹": 7577,
      "ĠÎļÎŃÎ½ÏĦÏģÎ¿Ïħ": 7578,
      "ĠÎµÎ½Î®": 7579,
      "ĠÏħÏĢÎ¿Î³ÏģÎ¬": 7580,
      "ĠÎºÏĮÎºÎºÎ¹Î½Î¿": 7581,
      "41": 7582,
      "ÏĦÎŃÎ±ÏĤ": 7583,
      "ĠÎ¬ÏģÎ±": 7584,
      "ĠÎŃÎ½ÏĦÎ±ÏĥÎ·": 7585,
      "ĠÎĳÏħÏĦÏĮÏĤ": 7586,
      "ĠÏĥÏįÎ³ÎºÏģÎ¹ÏĥÎ·": 7587,
      "ĠÎ¼ÎµÎ»ÎŃÏĦÎµÏĤ": 7588,
      "ĠÎĽÏħ": 7589,
      "Î¸Î®ÎºÎ·ÏĤ": 7590,
      "ĠÏĢÎ±Î½ÏĦÎ¿Ïį": 7591,
      "Î»Î±Î¹Î±": 7592,
      "ĠÎ±Î½ÏĦ": 7593,
      "Ġ37": 7594,
      "ĠÎŃÎ»ÎµÎ³ÏĩÎ¿ÏĤ": 7595,
      "ÏĢÏģÏĮÎ¸ÎµÏĥ": 7596,
      "ĠÎķÎ¦": 7597,
      "ĠÏĦÏģÎŃÏĩ": 7598,
      "ÏģÎ®Î½Î·": 7599,
      "Î´Î¬ÎºÎ¹": 7600,
      "Î¤Î·": 7601,
      "ĠÎ§ÏģÎ¹ÏĥÏĦÏĮ": 7602,
      "Ġá½¡": 7603,
      "Î¼Î¿Î»Î¿Î³": 7604,
      "ĠÏĦÏįÏĩÎ·": 7605,
      "ĠÎ±ÏĢÏģÏĮ": 7606,
      "ĠÎºÎ¿Î¹Î½ÏĮÏĦÎ·ÏĦÎ±": 7607,
      "ĠÎ´Î·Î»ÏİÎ½ÎµÎ¹": 7608,
      "ĠÎĺÎŃÎ±": 7609,
      "ĠÎ´ÏįÏĥÎºÎ¿Î»Î±": 7610,
      "ÎķÎ¬Î½": 7611,
      "ĠÏĥÎ·Î¼ÎµÎ¯ÏīÏĥÎµ": 7612,
      "ÎŃÏĥÏĦÎµ": 7613,
      "ĠÎºÎ¬ÏĢÎ¿Ïħ": 7614,
      "ĠÎµÎ½ÏĮÏĦÎ·ÏĦÎ±": 7615,
      "ĠÏĢÏħÏģÎºÎ±": 7616,
      "ĠÎ£ÏĦÏĮ": 7617,
      "ĠÎ±ÎºÎ¹Î½Î®": 7618,
      "ĠÎ¸ÎµÏīÏģÎµÎ¯": 7619,
      "ĠÎºÏĦÎ»": 7620,
      "ĠÎµÎºÎºÎ»Î·ÏĥÎ¯Î±": 7621,
      "Î´Î±Î³ÏīÎ³": 7622,
      "ĠÎµÏĢÎŃÎ½": 7623,
      "ĠÏĥÎµÎ»Î¯Î´ÎµÏĤ": 7624,
      "Î¾Î½": 7625,
      "ĠÏĥÏĢÎ¬": 7626,
      "ÏĦÎ¯Î¶Î¿ÏħÎ½": 7627,
      "ĠÎµÏĢÎ¹ÏĦÎ±": 7628,
      "ĠÎ£ÏĩÎ¿Î»Î®ÏĤ": 7629,
      "ĠAd": 7630,
      "ĠÎ´ÏİÏĥÎ¿ÏħÎ½": 7631,
      "ÎķÎ¡Îĵ": 7632,
      "ĠÎ±ÏĢÎ¿ÎºÎ»ÎµÎ¯": 7633,
      "Î¶ÎµÎ¹ÏĤ": 7634,
      "ĠÎłÎµÏģÎ¹ÏĨÎŃÏģÎµÎ¹Î±": 7635,
      "ĠÎ²Î±ÏģÏį": 7636,
      "ĠÏĥÎ·Î¼ÎµÎ¹ÏīÎ¸ÎµÎ¯": 7637,
      "Î¿Î»Î¬Î¿Ïħ": 7638,
      "Î¬Î³ÎµÏĦÎ±Î¹": 7639,
      "á¿¶ÏĤ": 7640,
      "ĠÏĢÎ±ÏģÎ¿ÏħÏĥÎ¹Î±": 7641,
      "ÎºÎ¹Î½Î®": 7642,
      "ÏĦÏĥÎ¿ÏĦÎ¬": 7643,
      "ĠÎĹÎ»ÎµÎºÏĦÏģÎ¿Î½": 7644,
      "ĠÎºÏĮÏģÎ·": 7645,
      "ĠÎ´ÎµÎºÎ±ÎµÏĦÎ¯ÎµÏĤ": 7646,
      "ĠÏĢÎ»Î±Î¹": 7647,
      "ĠÎ»Î¹Î¼Î¬Î½Î¹": 7648,
      "ld": 7649,
      "ĠÎĳÏģÎ¹Î¸": 7650,
      "ĠÎµÎ³Î³ÏģÎ¬": 7651,
      "ÎĪÎ½Î±ÏĤ": 7652,
      "iss": 7653,
      "ĠÏĦÎ¿ÏĢÎ¿Î¸ÎŃÏĦÎ·ÏĥÎ·": 7654,
      "îĨ": 7655,
      "ĠÎłÎ¬Î½": 7656,
      "ĠÎ¹ÏĥÏĩÏħÏģÏĮ": 7657,
      "ÎºÏĦÏģÎ¿": 7658,
      "ĠÏĦÏģÎ±ÏĢÎŃÎ¶Î¹": 7659,
      "ĠÎŀÎµ": 7660,
      "ÏĥÎ´Î®ÏĢÎ¿ÏĦÎµ": 7661,
      ".).": 7662,
      "ĠÎŁÎĻ": 7663,
      "ĠÏĥÏĩÎµÏĦÎ¹ÎºÏĮ": 7664,
      "ĠÏĥÏĦÏħÎ»": 7665,
      "ĠAnd": 7666,
      "ĠÎ³ÎµÏīÏģÎ³": 7667,
      "ĠÏĢÏģÎ¿ÎŃÏģÏĩÎµÏĦÎ±Î¹": 7668,
      "ÏĦÎ¹ÏĥÎ¼Î¿ÏįÏĤ": 7669,
      "ÏģÎ¬ÎºÎ¹Î±": 7670,
      "ĠÎµÏģÎ³Î±Î¶ÏĮÎ¼ÎµÎ½Î¿ÏħÏĤ": 7671,
      "ĠÎļÎ±Î½Î¿Î½": 7672,
      "for": 7673,
      "ĠÎ±Î³Î½Î¿": 7674,
      "Î¹Î±ÎºÎ¬": 7675,
      "ĠÎµÏĢÎ¹ÏĦÎµ": 7676,
      "ĠÎ¼Î¬Î¶": 7677,
      "Î´ÏģÎ¿Î¼ÎŃÏĤ": 7678,
      "ĠÎ±ÏħÏĦÎ±": 7679,
      "aw": 7680,
      "ĠÎ´Î¹Î±ÎºÏģÎ¹": 7681,
      "ĠÏĢÏģÏĮÏĥÎ¸Îµ": 7682,
      "ĠÎ´Î¹Î±ÏĢÏģÎ±Î³Î¼Î±ÏĦÎµÏį": 7683,
      "ĠÏħÏĢÎ¿ÏĩÏģÎŃÏīÏĥÎ·": 7684,
      "Î¿Î»ÏĮ": 7685,
      "ĠÏģÎ®": 7686,
      "ĠÎ¼Î·Î½ÏİÎ½": 7687,
      "US": 7688,
      "ĠÎ¤Î¹ÏĤ": 7689,
      "ÏĦÎ¯Î½Î¿Ïħ": 7690,
      "ĠÎķÏģÎ³Î±": 7691,
      "ĠÎ²ÏĮÎ»": 7692,
      "Î¿ÏħÎ¼ÎµÎ½": 7693,
      "ĠÎ±Î³Î±ÏĢÎ¬": 7694,
      "ĠÎĳÎ»Î²Î±Î½": 7695,
      "ĠÎľÎ¯": 7696,
      "ÎłÎµÏģÎ¹": 7697,
      "ÏĢÏĦÎ¹ÎºÎ®": 7698,
      "ĠÎ¿ÏģÎµÎ¹": 7699,
      "ÏģÎŃÎ¿Ïħ": 7700,
      "ĠÎµÏĢÏĮÎ¼ÎµÎ½ÎµÏĤ": 7701,
      "ÎºÎ¹Î¬": 7702,
      "ĠÎºÎµÎ¯Î¼ÎµÎ½Î±": 7703,
      "ĠÎłÎĳÎ¡Îĳ": 7704,
      "ĠÎµÎ³Î³Ïį": 7705,
      "ĠÎĶÎµÎ¯ÏĦÎµ": 7706,
      "Î±ÏĥÎ¹ÏİÎ½": 7707,
      "ĠÎ¿ÏħÏģÎ±": 7708,
      "ĠÎ¼Î¿ÏģÏĨÎŃÏĤ": 7709,
      "ĠÎ±ÎºÏģÎ¯Î²": 7710,
      "ÎŃÎ»Î±": 7711,
      "ĠÏĢÏģÏīÎ¹Î½ÏĮ": 7712,
      "ÏĦÎ¬ÎºÎ¹": 7713,
      "ĠÎŁÎ´Î·Î³": 7714,
      "ĠÏĥÏĦÏĮÎ¼Î±": 7715,
      "ĠÎķÏħÎ±": 7716,
      "ĠÏħÏĢÎ¿Î²Î¿Î»Î®ÏĤ": 7717,
      "Î´ÏİÏĥÎµÎ¹": 7718,
      "ãĥ": 7719,
      "ĠÏĢÎ¿ÏĦÎ±": 7720,
      "ĠÏĦÎµÏĦÏģÎ¬": 7721,
      "ĠÎ±Î½ÏĦÎ¹ÏĢÎ¿Î»Î¯": 7722,
      "ĠÎ¿Î½": 7723,
      "ĠÏĢÏģÎ¿Î²Î»ÎŃÏĢÎµÏĦÎ±Î¹": 7724,
      "ĠÎºÎ¿ÏħÎ¶Î¯Î½Î±": 7725,
      "Î»ÏīÏĥÏĥ": 7726,
      "ĠÎºÎ±Î¸ÏħÏĥÏĦÎµ": 7727,
      "ĠÏĢÏģÎ¿Î¼Î®": 7728,
      "ĠÎ´ÏħÏĥÎºÎ¿Î»Î¯ÎµÏĤ": 7729,
      "ĠÏĥÏħÏĥÏĦÎ±ÏĦÎ¹ÎºÎ¬": 7730,
      "Î¤ÎķÎ¡": 7731,
      "ĠÎĶÎ·Î»Î±Î´Î®": 7732,
      "ĠÎ¼Î¹ÏĥÎ¸": 7733,
      "ĠÏħÏĢÎ·ÏģÎµÏĥÎ¯Î±ÏĤ": 7734,
      "ĠÎºÎ±Î½ÎŃÎ½Î±ÏĤ": 7735,
      "Î´ÏģÏį": 7736,
      "Î»ÏĮÎ³Î¿ÏĤ": 7737,
      "Î½Î¿Î½ÏĦÎ±Î½": 7738,
      "ĠÏĩÎ¹Î»Î¹ÏĮÎ¼Îµ": 7739,
      "ĠÎļÎµÏĨÎ±": 7740,
      "ĠÏĦÏģÏİ": 7741,
      "ĠÏĦÎ¼Î®Î¼Î±ÏĦÎ¿ÏĤ": 7742,
      "Î»ÎŃÎ½": 7743,
      "77": 7744,
      "Î¡ÎĹ": 7745,
      "ÏĥÎ¹Î±ÎºÏĮ": 7746,
      "Î²ÎŃÏģÎ½Î·ÏĥÎ·ÏĤ": 7747,
      "ĠÎ¬ÏĥÎºÎ·": 7748,
      "ĠÎ±ÏĢÎ¿ÏĨÏį": 7749,
      "ĠÏĨÎ¿Î²": 7750,
      "ĠÎµÏģÎ³Î±Î»ÎµÎ¯Î±": 7751,
      "ĠÎµÎ¼": 7752,
      "ÏĨÎŃÎ»Î·": 7753,
      "ĠÎ´Î¹Î±ÎºÎ¿Ïĥ": 7754,
      "ÏģÎ½ÏĦÎ¿Î³Î¬Î½": 7755,
      "ÏĢÎ¿Î½ÏĦÎ±ÏĤ": 7756,
      "ĠÎºÎ±Î½ÎŃÎ½Î±Î½": 7757,
      "ĠÎ¹ÏĥÏĦÎ¿ÏģÎ¹ÎºÎ®": 7758,
      "ÏģÎµÎ¹ÏİÎ½": 7759,
      "ĠÎ²Î»ÎŃÏĢÏī": 7760,
      "Î»Î¿ÏįÏĥÎµ": 7761,
      "ĠÎ±Î´ÎµÎ¹": 7762,
      "ĠÎ£Î¯": 7763,
      "ÏĮÏģÎº": 7764,
      "ĠÎļÎ¿Î¹Î½ÏīÎ½Î¹ÎºÎ®ÏĤ": 7765,
      "ĠÎĵÎµÏī": 7766,
      "ĠÎŃÏĨÎµÏģÎµ": 7767,
      "ĠÎķÎ³Ïİ": 7768,
      "ĠÎµÎ¼ÏĨÎ±Î½Î¯Î¶Î¿Î½ÏĦÎ±Î¹": 7769,
      "Î²ÎµÏĦÎµ": 7770,
      "ĠÎ´Î¹ÎºÎ·Î³ÏĮ": 7771,
      "ĠÎºÏĮÎ¼Î¼Î±ÏĦÎ¿ÏĤ": 7772,
      "Î¤ÎķÎĽ": 7773,
      "Î¤Î£": 7774,
      "ĠÎ»ÎµÏīÏĨÎ¿": 7775,
      "ÏģÎµÏħÎ½Î±": 7776,
      "ĠÏĥÏħÎ½ÎŃÏĢÎµÎ¹ÎµÏĤ": 7777,
      "ĠÎ±ÏĢÎ¿Î´ÎµÎ¹ÎºÎ½Ïį": 7778,
      "ĠÎ¥ÏĢÎ·ÏģÎµÏĥÎ¯Î±": 7779,
      "uc": 7780,
      "ĠÎ¼Î¯Î»Î·ÏĥÎµ": 7781,
      "ĠÏģÎ¯Î¶": 7782,
      "ĠÎµÏĨÎ±ÏģÎ¼Î¿Î³ÎŃÏĤ": 7783,
      "ĠÏīÏģÎ±Î¯Î¿": 7784,
      "Î»Î®ÏĪÎµÎ¹ÏĤ": 7785,
      "ĠÎĮÎ»Î¿Î¹": 7786,
      "ĠÎ¹Î´Î±Î½Î¹ÎºÏĮ": 7787,
      "ĠÎ±Î¾Î¹Î¿Î»ÏĮÎ³Î·ÏĥÎ·ÏĤ": 7788,
      "ÏĩÏīÏĤ": 7789,
      "ĠÏĢÏģÎ¿Î¼Î·Î¸ÎµÏħ": 7790,
      "ĠÎµÏģÏīÏĦÎ®ÏĥÎµÎ¹ÏĤ": 7791,
      "rand": 7792,
      "ĠÏĥÏħÎ½ÎµÎ¹Î´Î·ÏĦÎ¿": 7793,
      "ĠÎ³Î¹Î½ÏĮ": 7794,
      "ĠWind": 7795,
      "ĠÎŃÎºÏĦÎ±": 7796,
      "ĠÎ´Î¹ÎµÎ¸Î½ÎµÎ¯ÏĤ": 7797,
      "Î²ÎŃÏģ": 7798,
      "ÏĦÎµÏģÎ¿ÏĤ": 7799,
      "ĠÎĶÎķÎĹ": 7800,
      "Î»ÏİÎ½ÏĦÎ±ÏĤ": 7801,
      "ĠÎ¼Î®ÏĢÏīÏĤ": 7802,
      "ĠÎ·Î»ÎµÎºÏĦÏģÎ¿Î½Î¹ÎºÏĮ": 7803,
      "ĠÎ¼ÎµÏĦÎ±ÏĨÎ¿ÏģÎ¬ÏĤ": 7804,
      "ÏīÏģÎ¯ÏĦÎµÏģÎ±": 7805,
      "ĠÎµÎ¹Î´Î¹ÎºÎŃÏĤ": 7806,
      "ĠÎµÏĢÎ¹ÏĦÏħÏĩÎ·": 7807,
      "ĠÏĢÏģÎ¿ÏĩÏīÏģÎ®ÏĥÎµÎ¹": 7808,
      "ĠÏĥÏħÎ¼Î¼ÎµÏĦÎŃÏĩÎµÎ¹": 7809,
      "Î¬ÏģÎ¹": 7810,
      "ÏĨÎ¸Î·ÎºÎµ": 7811,
      "ĠÏĥÎµÎ»": 7812,
      "ĠÎµÎºÎ¬": 7813,
      "ĠÎ±Î½Î¸ÏģÏİÏĢÎ¹Î½": 7814,
      "Î¿Î¼ÎŃÎ½Î¿Ïħ": 7815,
      "ĠÎºÎ±ÏĦÎ¬Î»Î»Î·Î»Î·": 7816,
      "ĠÏĢÎ±Î½ÎµÏĢÎ¹ÏĥÏĦÎ·": 7817,
      "ĠÎĿÎ¹ÎºÏĮÎ»Î±": 7818,
      "66": 7819,
      "TE": 7820,
      "Ġá¼ĢÎ½Î±": 7821,
      "ĠÎľÎ¹ÏĩÎ¬": 7822,
      "ÎŁÎļÎ¡ÎĳÎ¤": 7823,
      "ĠÎ´Î¹Î±ÏĥÎºÎµ": 7824,
      "ÎºÎ¯Î½Î·ÏĥÎ·": 7825,
      "ĠÎļÎ±ÏĦÎµ": 7826,
      "pl": 7827,
      "ĠÎ´Î¹Î¿ÏģÎ³Î¬Î½ÏīÏĥÎ·": 7828,
      "ĠÏĢÎ±ÏģÏĮÎ½ÏĦÎ¿ÏĤ": 7829,
      "Ġ69": 7830,
      "ĠÎļÎ±Î¸Î·Î³Î·": 7831,
      "ĠÎ±ÏĢÎ¿ÎºÎ¬Î»Ïħ": 7832,
      "Î¹Î¶ÎŃ": 7833,
      "ĠÏĥÏħÎ½Î±Î´ÎŃÎ»": 7834,
      "ĠÏĢÎ¿Ïģ": 7835,
      "ĠÎļÎ¯": 7836,
      "ĠÎ¿Î¼Î¹Î»Î¯Î±": 7837,
      "rom": 7838,
      "ÏİÏĥÎ¿ÏħÎ¼Îµ": 7839,
      "Î§ÎĳÎĿ": 7840,
      "ef": 7841,
      "ĠÎ½ÎŃÎ¿Î¹": 7842,
      "Ġcom": 7843,
      "ĠÏħÏĢÎ¿ÏħÏģÎ³ÎµÎ¯Î¿Ïħ": 7844,
      "ÎĻÎ©": 7845,
      "ĠÎ½Î¿Ïħ": 7846,
      "Î¦ÎĳÎĽ": 7847,
      "ĠÎºÏģÎ±ÏĥÎ¯": 7848,
      "Î´Î¹ÎºÏĮÏĤ": 7849,
      "Î³Ïħ": 7850,
      "ĠÎľÎ·ÏĦÏģÎ¿ÏĢÎ¿Î»Î¯": 7851,
      "ĠÎµÎºÎ¼ÎµÏĦÎ¬": 7852,
      "ĠÎºÎ¬ÏĦÎ¿Î¹ÎºÎ¿Î¹": 7853,
      "ĠÎ¿Î¹ÎºÎ¿Î´Î¿": 7854,
      "ĠÎļÎ¿Ïį": 7855,
      "ĠÎ£Î¤Îĳ": 7856,
      "ĠÎľÎĳÎ£": 7857,
      "ĠÎłÎ¿Î»Î¹ÏĦÎ¹ÎºÎ®ÏĤ": 7858,
      "Î¹ÏĮÎ½": 7859,
      "ÏĦÏģÎµÏį": 7860,
      "ĠÎļÎŃÏģ": 7861,
      "ĠÏĢÏģÎ¿Î·Î³Î¿ÏįÎ¼ÎµÎ½Î¿": 7862,
      "ÏĥÏĦÎµÎ¹Î»Îµ": 7863,
      "ĠÎµÏĢÎ¹ÏĦÏģÎ¿ÏĢÎ®": 7864,
      "ĠÎ¹Î´ÏģÏħ": 7865,
      "ĠÎºÎ¹Î»Î¬": 7866,
      "Î¿Î¼Î±Î¹": 7867,
      "ĠÏĢÎ¬Î¼Îµ": 7868,
      "ĠÏĥÎµÎ¹ÏģÎ¬ÏĤ": 7869,
      "ĠÏĥÏħÎ½ÎµÏĩÎ¯ÏĥÎµÎ¹": 7870,
      "ÏĥÎ¬Î½": 7871,
      "ĠÎĳÎ»ÎµÎ¾Î¬Î½": 7872,
      "ĠÏĦÎ¿á½ºÏĤ": 7873,
      "ata": 7874,
      "ĠÎ±Î»Î»Î¬Î¶ÎµÎ¹": 7875,
      "ĠÏĨÎŃÏģÎ½ÎµÎ¹": 7876,
      "ÏĦÎ¹Î½ÏĮ": 7877,
      "Î¬Î»Î»Î¿Ïħ": 7878,
      "ĠÎ±Î½Î¬ÏģÏĦÎ·ÏĥÎ·": 7879,
      "ÏĦÏģÎ·": 7880,
      "ĠÎĻÏīÎ¬Î½": 7881,
      "ÏĨÏĮÏģÎ¼Î±": 7882,
      "ĠÎºÎ¿Î¹Î½ÏīÎ½Î¹ÎºÎŃÏĤ": 7883,
      "ÏĨÎ¿ÏģÎ¹ÎºÎ®ÏĤ": 7884,
      "ĠÎĴÎ¹Î²Î»Î¹Î¿": 7885,
      "ĠÏĥÏĦÏģÎ±ÏĦÎ·Î³Î¹ÎºÎ®": 7886,
      "ĠÎ¿ÏģÎ¯Î¶ÎµÏĦÎ±Î¹": 7887,
      "ĠÎ±Î¸Î»Î·ÏĦÎŃÏĤ": 7888,
      "ĠÏħÎ»Î¹ÎºÎ¿Ïį": 7889,
      "ĠÏĮÏģÎ¹Î¿": 7890,
      "ĠÎµÏħÎºÎ¿Î»": 7891,
      "ĠÎ¸ÎŃÎ»ÎµÎ¹ÏĤ": 7892,
      "ĠÎľÎ·ÏĦÏĥÎ¿ÏĦÎ¬": 7893,
      "ĠÏĦÎ¿ÏįÏĦÎ¿Ïħ": 7894,
      "ĠÎ¼ÏĢÎ¬Î»Î±": 7895,
      "ĠÎļÎ¯Î½Î±": 7896,
      "ĠÏĦÏģÏĮÏĨÎ¹": 7897,
      "ĠÏĢÎ»Î·Î¸ÏħÏĥÎ¼Î¿Ïį": 7898,
      "ĠÎ±Î½Î±Î¸Îµ": 7899,
      "ĠÏĦÎ¯ÏĢÎ¿ÏĦÎµ": 7900,
      "Î¶Î¹Î¬": 7901,
      "ĠÏĢÎ¿ÏģÏĦÎ¿": 7902,
      "Î²Î¬Î»Î»Î¿Î½ÏĦÎ±Î¹": 7903,
      "ung": 7904,
      "ÏĦÎµÎ½": 7905,
      "ĠÎ¸Î±Î½Î¬ÏĦÎ¿Ïħ": 7906,
      "ĠÎ³Î½ÏīÏĥÏĦÎ¿": 7907,
      "ĠÎŁÎ»Î¿": 7908,
      "Î³Î¬ÏģÎ¹": 7909,
      "ĠÎ½ÏĮÎ·Î¼Î±": 7910,
      "ÏĢÎ»ÏīÎ½": 7911,
      "83": 7912,
      "Ġ2004": 7913,
      "ĠÎľÎŁÎĿ": 7914,
      "ÎºÏģÎ±ÏĦÎ¿": 7915,
      "ĠÎ¾ÎµÏĩÎ½Î¬": 7916,
      "ĠÏĥÎ¿Î²Î±ÏģÏĮ": 7917,
      "ĠÏĢÎ¹Î¸Î±Î½ÏĮÏĦÎ·ÏĦÎ±": 7918,
      "ĠÎ´Î¹Î±ÏĦÎ·ÏģÎµÎ¯": 7919,
      "Î»ÏĮÎ³Î¿Ïħ": 7920,
      "ĠÎŃÎ¾Î¿Î´Î±": 7921,
      "arm": 7922,
      "ĠÎµÎ¾ÎŃÏĦÎ±ÏĥÎ·": 7923,
      "ĠÎµÏĢÎ¹Î¼ÎŃ": 7924,
      "Î¬Î½Î¿ÏħÎ¼Îµ": 7925,
      "ĠÏĢÎ±ÏģÎ±Î¼ÎŃÎ½Î¿ÏħÎ½": 7926,
      "ÏĦÎ¬Î½": 7927,
      "ĠÎ´Î¹Î¿ÏģÎ¸": 7928,
      "ÏĩÎ·Î¼Î¬ÏĦÏīÎ½": 7929,
      "Î´Î¹ÎºÎ±Î»Î¹Ïĥ": 7930,
      "ĠÎ¼Î¯Î±ÏĤ": 7931,
      "ĠÎµÏĢÎ¹Î´ÎµÏģ": 7932,
      "ĠÎ¼Î¿Î½Î¬Î´Î±": 7933,
      "ĠÏĢÎµÏģÎ¹Î¿Î´Î¹ÎºÏĮ": 7934,
      "ĠÎ´Î¿ÎºÎ¹Î¼Î±": 7935,
      "ĠÎĶÎ¹ÎºÎ±Î¹Î¿": 7936,
      "ĠÎºÎ±Î»ÎŃÏĤ": 7937,
      "ĠÏĢÎµÎ¶Î¿": 7938,
      "ĠÎµÎ¾Î¿ÏħÏĥÎ¯Î±ÏĤ": 7939,
      "Ġ39": 7940,
      "ĠÏĦÎŃÏĦÎ¿Î¹ÎµÏĤ": 7941,
      "ĠÎĳÎķ": 7942,
      "Î´Î¹ÏĥÎµ": 7943,
      "ĠÎŃÎ½ÏĦÎ¿Î½Î±": 7944,
      "ĠÎµÎ¸Î½Î¹ÎºÏĮ": 7945,
      "ĠÎµÎ¾Î±Î¯": 7946,
      "ÏĮÏĥÎ¿": 7947,
      "ĠÎ´Î¹Î±ÏĦÎ®ÏģÎ·ÏĥÎ·": 7948,
      "ĠÎĺÎķÎ£": 7949,
      "ĠÎµÎºÏĢÏģÏĮÏĥÏīÏĢÎ¿ÏĤ": 7950,
      "ÏĮÎ¼ÎµÎ½Î¿Î¹": 7951,
      "ĠÎ³ÎµÎ½Î¹ÎºÏĮÏĦÎµÏģÎ±": 7952,
      "ĠÎ¼ÎµÎ³Î¬Î»Î¿Ïħ": 7953,
      "ĠÎµÎ¾Î¯Ïĥ": 7954,
      "ĠÎºÎŃÎ½ÏĦÏģÎ±": 7955,
      "org": 7956,
      "Î±Î½Î¸": 7957,
      "ĠÏĥÏħÏģ": 7958,
      "ÏĪÎ¯Î±": 7959,
      "ÏģÎ³Î¿Ïħ": 7960,
      "ĠÎ±Î³ÏģÏĮ": 7961,
      "ĠÎľÎ±Îº": 7962,
      "ĠÏĩÏģÎ¹ÏĥÏĦÎ¹Î±Î½": 7963,
      "Ġ34": 7964,
      "ĠÎľÎ¹ÏĩÎ±": 7965,
      "Î»ÎŃÎ±": 7966,
      "ĠÏĢÏģÎ¿Î²Î»Î·Î¼Î¬ÏĦÏīÎ½": 7967,
      "ĠÎ·Î³ÎµÏĥÎ¯Î±": 7968,
      "ĠÎµÎ½Î®Î»Î¹Îº": 7969,
      "ĠÎ´Î¹Î¬ÏĥÎ·": 7970,
      "oth": 7971,
      "ÎĻÎļÎķÎ£": 7972,
      "Ġ400": 7973,
      "sc": 7974,
      "ĠÎµÎºÎ±ÏĦÎ¿Î½ÏĦÎ¬Î´ÎµÏĤ": 7975,
      "ÏĩÎ¸Î·": 7976,
      "Î»Î¬ÏĦÎ¹": 7977,
      "ÎµÏĦÎ¯Î±": 7978,
      "ĠÎ´ÎµÏĥÎ¼ÎµÏį": 7979,
      "Î¹Î±Î½": 7980,
      "ĠÎĳÎºÏĮÎ¼Î±": 7981,
      "ĠÎ±ÎºÏĦÎ¹Î½Î¿": 7982,
      "ÏĨÎŃÏģÎ¿Î½ÏĦÎ±ÏĤ": 7983,
      "ĠÏĢÏģÎ¿ÎŃÎ´ÏģÎ¿Ïħ": 7984,
      "ĠÎŃÎºÎ»ÎµÎ¹": 7985,
      "ĠÎ¶Î·ÏĦÎ¬": 7986,
      "ĠÎ³ÎµÎ½Î¹ÎºÎ®": 7987,
      "ĠÎķÏģÎ½ÏĦÎ¿Î³Î¬Î½": 7988,
      "ÎĶÎµÎ¯ÏĦÎµ": 7989,
      "ĠÎºÎ»Î·ÏģÎ¿Î½Î¿Î¼": 7990,
      "Î½ÎµÎ¯Î±": 7991,
      "ĠÏĦÎ¿ÏħÏģ": 7992,
      "ĠÏĥÏħÎ½ÎµÏģÎ³Î¬ÏĦÎµÏĤ": 7993,
      "ÏİÏģÎ·ÏĥÎ·": 7994,
      "ÎŃÏĨÎ±": 7995,
      "ĠÏĢÏģÎ¿Î±Î½Î±": 7996,
      "ĠÎ¸ÎµÎ¼Îµ": 7997,
      "ĠÎĨÎ»Î»": 7998,
      "ĠÏħÏĪÎ·Î»ÏĮ": 7999,
      "ĠÎ´Î¹Î±ÏĥÏĨÎ±Î»Î¯": 8000,
      "ÎĻÎļÎŁÎ£": 8001,
      "ĠÎĵÏħÎ½Î±Î¹": 8002,
      "ÏĩÎ¿Î½ÏĦÎµÏĤ": 8003,
      "ÏģÏĮÎ½Î¹Î±": 8004,
      "ÏģÎ¹ÎºÎ¿ÏįÏĤ": 8005,
      "ĠÏģÎ±Î½": 8006,
      "ĠÎ´Î¹Ïİ": 8007,
      "ĠÎķÎ½Ïİ": 8008,
      "ĠÏĢÏģÎ¿Ïī": 8009,
      "ĠÏĢÏģÏİÏĦÎ¿Ïħ": 8010,
      "ĠÏĢÏģÎ¿Î²Î»Îµ": 8011,
      "ÏĩÎ¹Î±": 8012,
      "ĠÎĴÎ¿ÏħÎ»Î®ÏĤ": 8013,
      "ĠÏĢÏģÎ¿ÏĥÎµÎ³Î³": 8014,
      "ĠÎºÎ±ÏĦÎ·Î³Î¿ÏģÎ¯Î±ÏĤ": 8015,
      "ID": 8016,
      "ĠAir": 8017,
      "ĠÏħÎ¹Î¿Î¸Îµ": 8018,
      "ĠÎºÏģÎµÎ²Î¬": 8019,
      "ĠÎ±ÏĥÏĦÏħÎ½Î¿Î¼Î¯Î±": 8020,
      "ĠÎµÎ¹ÏĥÎ·": 8021,
      "ĠÎµÎ¾Î±ÏĨÎ±Î½": 8022,
      "Ġá¼ķ": 8023,
      "ĠÎ±ÏĢÎ¿ÏĨÎµÏį": 8024,
      "ĠÎķÏĢÎ¿": 8025,
      "Î»ÏħÎ½": 8026,
      "ĠÎ²ÏģÎŃÎ¸Î·ÎºÎ±Î½": 8027,
      "ĠÎµÎ¹ÎºÎ¿": 8028,
      "ÏĦÎ¬Î¶": 8029,
      "Î´ÎŃÏĥ": 8030,
      "ĠÎĿÏĦÏĮ": 8031,
      "ĠÎºÏĦÎ¯ÏģÎ¹Î¿": 8032,
      "Î´ÎµÎ¹ÏĤ": 8033,
      "ãĤ": 8034,
      "ĠÏĢÏģÎ¿ÏİÎ¸Î·ÏĥÎ·": 8035,
      "ĠÎļÏīÎ½ÏĥÏĦÎ±Î½ÏĦÎ¯Î½Î¿ÏĤ": 8036,
      "ĠÎĶÎ·Î¼Î¹Î¿ÏħÏģÎ³": 8037,
      "ÎµÏįÎ¸ÏħÎ½ÏĥÎ·ÏĤ": 8038,
      "Î¸Î±Î½Î¬": 8039,
      "Î²Î»Îµ": 8040,
      "ĠÏĢÏģÎ±ÎºÏĦÎ¹ÎºÎ®": 8041,
      "ÎķÎ¥Îĺ": 8042,
      "ĠÎĳÎ½Î±ÏĥÏĦÎ±": 8043,
      "ĠÎķÏĦÎ±Î¹ÏģÎµÎ¯Î±": 8044,
      "ĠÎºÎ±Î¹ÏģÏĮÏĤ": 8045,
[...]
